#version: 0.2
Ġ t
h e
Ġ a
i n
Ġ w
Ġt he
Ġ s
o u
r e
h a
Ġ o
e r
n d
Ġ m
i s
â Ģ
Ġ b
i t
o n
e d
Ġ c
Ġ f
e n
Ġo f
a s
Ġ h
e s
Ġt o
o r
l l
in g
Ġ d
Ġ I
Ġ ha
a n
a r
Ġa nd
ha t
Ġ in
Ġ he
Ġ l
Ġ p
Ġ n
o m
Ġ y
a t
âĢ ľ
âĢ Ŀ
Ġy ou
v e
Ġt hat
o w
i c
Ġb e
l e
o t
l d
Ġw as
Ġ it
i m
Ġ g
i d
Ġ u
s t
Ġ e
s e
Ġt h
l y
u t
Ġh is
a c
Ġw h
a y
Ġw e
g h
e t
v er
Ġ is
Ġ H
en t
Ġo n
i r
it h
ou ld
Ġ Ġ
i on
Ġha d
u r
T he
a l
Ġ re
Ġa s
Ġw ith
Ġf or
a d
. âĢĿ
Ġha ve
gh t
Ġ M
r o
Ġs t
c e
Ġs a
r i
Ġa n
o l
Ġn ot
t er
Ġm e
Ġa t
i ll
Ġ W
Ġm y
ic h
Ġ S
Ġh im
ou t
he r
om e
ou r
Ġu p
Ġs e
a m
i f
Ġ B
o re
Ġwh ich
k e
o d
Ġ The
c t
a in
r om
g e
Ġs h
Ġsa id
? âĢĿ
a nd
re d
Ġth is
Ġm an
i ght
Ġs u
Ġ r
Ġd o
es s
e ll
a ll
Ġb ut
i l
p e
b le
Ġf rom
Ġs o
m es
Ġ âĢľ
Ġd e
' s
ver y
in d
t he
Ġ A
ol mes
Ġ k
c h
- -
on e
Ġwe re
es t
Ġa ll
Ġbe en
s s
Ġup on
ar d
Ġon e
a p
Ġn o
Ġw ould
u l
Ġn e
. "
t h
Ġw he
Ġe x
Ġyou r
q u
Ġa re
ou nd
ĠH e
Ġthe re
t o
an t
Ġc on
Ġb y
r y
Ġ out
, âĢĿ
ĠH olmes
Ġwh o
u st
Ġk n
u s
ĠĠ ĠĠ
o k
at ion
l o
ow n
Ġse e
Ġu s
Ġ C
ac k
Ġs ome
Ġw ill
ou s
Ġc an
i ve
Ġhe r
s on
ĠI t
Ġo r
Ġg o
Ġl e
c k
Ġ our
u n
Ġc ould
ac e
as t
ar t
am e
Y ou
ĠM r
Ġ v
Ġ very
l f
ar k
at e
or t
Ġ T
Ġa l
a g
on g
u re
Ġt r
âĢ Ļ
h ing
ha n
Ġha s
Ġ if
Ġl o
Ġw or
i g
Ġm o
p p
Ġ L
Ġ D
Ġs he
Ġc om
Ġp o
Ġw hat
ic e
f ore
Ġthe y
is t
Ġan y
v en
Ġwhe n
Ġu n
Ġa b
in t
Ġf e
Ġa m
m e
in k
ou gh
a k
Ġl i
o nd
ur d
Ġsh ould
Ġkn ow
w e
he d
ou se
Ġthe m
id e
t e
im e
Ġ j
Ġ ro
Ġb r
a ke
Ġ qu
Ġm ore
at son
o f
er s
a ble
w n
Ġa g
t her
ur n
er v
? "
u m
Ġha nd
a re
Ġp l
e ct
se lf
ĠW atson
e p
i e
en ce
Ġt w
ac t
Ġm ay
ou ght
w ay
r a
as s
Ġd own
Ġin to
im p
r an
it e
Ġbe fore
I t
Ġo ver
ĠB ut
Ġa f
b e
' t
it t
! âĢĿ
Ġp ro
ad e
Ġ "
Ġ G
Ġp re
Ġs ay
re at
ad y
ĠĠĠĠ ĠĠ
Ġc ome
Ġd id
a ve
i ous
ĠĠĠĠĠĠ Ġ
in e
Ġs p
Ġab out
Ġt han
f t
k ed
ou n
Ġo ther
ri ed
ĠS ir
a b
e nd
er t
Ġth ink
Ġthe n
Ġn ow
m ent
Ġh ouse
c c
h is
o se
Ġ N
Ġt ime
Ġh ow
Ġon ly
p t
pe ct
t hat
l ed
ha r
Ġf o
Ġhe re
e l
i re
ĠM c
Ġag ain
an ce
Ġo wn
if e
a ge
Ġthe ir
Ġof f
W ell
nd er
Ġc ame
Ġf ace
, "
Ġ E
Ġtw o
r u
Ġa d
ot her
n ing
Ġ You
Ġb ack
g er
Ġ en
Ġw ay
Ġlo ok
Ġ F
Ġm ust
Ġd ay
v ed
Ġb o
p l
Ġa r
as e
M urd
g l
Ġ O
ĠThe re
at h
ĠS t
Murd o
Ġc o
Ġe y
Ġb l
a u
c i
ĠW e
re ss
is h
is s
all y
m an
it y
Ġgo od
H e
ri end
Ġaf ter
Ġs ha
Ġn ight
Ġg et
Ġc l
ri ght
p le
m ed
Ġf ir
u ch
Ġl ong
ic k
o od
Ġ P
Ġli ke
is e
Ġg l
Ġne ver
u d
Ġs m
Ġc r
Ġc le
Ġro om
oun t
e ver
l es
Ġth ought
Ġl ast
i es
itt le
e w
Ġm ight
Ġf riend
Ġs ir
urn ed
e ar
v es
Ġ imp
re e
Ġt ell
Ġey es
a ir
Ġg r
' ll
s h
Ġwe ll
Ġnot hing
Ġwhe re
Ġfir st
Ġhe ard
Ġs c
Ġp er
n ot
Ġbe t
Ġwor d
Ġmo or
B ut
Ġo b
en ry
W hat
t on
The re
u ll
Ġm ade
en ed
at ter
b er
v ing
ing s
Ġu nder
Ġl ittle
Ġth r
Ġ ke
ss i
ig n
f f
w h
Ġm uch
ar y
ow ed
f ul
w ard
Ġd is
ion s
Ġ J
Ġsu ch
s o
s p
Ġf ind
Ġle ft
Ġo p
as k
Ġo ld
Ġre m
p s
u e
p o
om et
ĠMc Murdo
ou b
Ġdo or
at ed
th ing
lo ck
he n
Ġp ass
Ġe nd
ĠH enry
N o
l ess
Ġc ase
s pect
Ġw ind
Ġl et
A nd
n ess
re st
Ġha r
a red
f or
g et
Ġe v
Ġe ven
Y es
n e
Ġh o
Ġj ust
d e
p er
ul t
ert ain
i le
Ġthe se
ĠI f
c o
l p
re n
Ġp r
Ġsa w
c on
Ġe very
g g
Ġin st
Ġg reat
a il
i ly
as on
Ġhe ad
Ġp art
ĠT hat
Ġmo st
Ġy et
oub t
a it
Ġc ried
W e
Ġt ake
Ġm ake
ic t
od y
or ning
ond on
erv ill
Ġcle ar
ask ervill
f e
l i
ar ry
Ġon ce
Ġd ark
Ġl ight
Ġas ked
Ġsa me
y ou
Ġf ound
Ġr ound
omet hing
Ġa way
Ġe ar
Ġe ver
Ġhand s
i z
t il
Ġm atter
Ġf ar
p an
Ġd es
om an
Ġit s
ĠL ondon
ĠD r
h y
re t
Ġp ut
Ġp ap
Ġn ame
Ġ right
Ġd one
ĠThe n
Ġp e
Ġg u
ĠW hat
Ġse c
Ġthr ough
Ġl ife
e x
i al
Ġd on
Ġan s
Ġhim self
ell ow
Ġwind ow
Ġto ok
at her
id ent
askervill e
re et
Ġre t
Ġhar d
p r
ou gl
or d
Ġhe lp
ro ss
ougl as
c ed
Ġm ind
ĠA nd
m er
in ce
Ġd oubt
ĠI n
le ton
Ġpre s
e red
Ġpo int
Ġc h
Ġme an
od ge
ap leton
Ġa c
Ġm en
Ġm orning
as ter
al k
w ith
Ġc ertain
Ġg ive
Ġwor k
au se
H olmes
T hat
d en
i ed
i gh
m s
m ore
n er
or r
Ġm urd
ul ar
Ġun til
Ġpl ace
n g
Ġs omething
Ġf l
Ġagain st
Ġlook ed
a ld
in ed
Ġw r
Ġs ur
Ġst ill
Ġen ough
Ġw oman
Ġin t
ol ice
Ġse en
' ve
ot t
Ġsu re
Ġde ath
a v
he re
Ġc all
or y
Ġbe c
ĠD ouglas
e y
Ġs pe
Ġf act
har les
Ġc ur
Ġh our
Ġd et
om ent
Ġth ose
Ġkn ew
G int
g r
s ide
w as
Ġa p
ha d
er y
Ġto o
an ger
Ġin te
Ġre ad
Ġne w
get her
Gint y
c l
c es
Ġt urned
Ġs et
Ġc han
Ġg ot
ac h
Ġbl ack
Ġs at
Ġc ount
Ġst ran
ĠB askerville
Ġpo ssi
t y
u p
Ġc ha
Ġd ist
ic al
im er
Ġre p
way s
ĠSt apleton
a w
Ġ '
he s
Ġa pp
Ġw ait
Ġm oment
is ed
Ġto ld
Ġy ear
ain ed
h ind
Ġs ince
Ġha lf
at er
Ġwith out
ort imer
Ġinst ant
a id
n ed
Ġ ent
Ġt ak
Ġw ent
Ġcon s
ĠMr s
we en
i p
Ġs ide
Ġc lo
Ġth ree
Ġas k
ĠC harles
g ed
Ġre ason
ĠS he
wh ich
it ion
Ġc our
Ġl ay
Ġfe ar
Ġqu est
Ġfo ll
Ġrem ark
b r
in ess
Ġg i
ĠM ortimer
is ter
Ġb ro
h o
j ect
Ġa ct
Ġhe art
Ġcon t
Ġle ave
Ġfe w
a z
c om
m o
Ġhe ar
Ġp olice
ot h
Ġsee med
ark er
Ġcom m
Ġany thing
Ġ R
Ġw ife
Ġyou ng
se l
Ġwh y
Ġre s
ĠThe y
Ġde ad
Ġwho le
Ġsha ll
Ġinte rest
' m
l ing
s ed
Ġw ant
re w
Ġd if
Ġd anger
Ġe l
ent s
Ġcom pan
ward s
Ġ V
re ady
Ġm in
Ġbe hind
Ġst and
Ġal so
arry more
Ġa cc
Ġo cc
Ġsh o
Ġv o
ĠMc Ginty
Ġbet ween
Ġop en
l ie
t ing
ha ve
Ġm et
Ġb ar
Ġf ellow
ut e
ĠS c
Ġcon f
ĠT his
ĠN ow
Ġad d
Ġad v
Ġsm all
sel ves
! "
M c
f ic
Ġ im
Ġl odge
ĠH is
Ġsu pp
Ġal ways
Ġj o
Ġday s
Ġunder st
Ġlet ter
Ġap pe
i x
i ld
n o
Ġs ign
Ġd ri
ow s
Ġth ing
ĠM y
her lock
Ġcan not
me m
Ġword s
Ġeven ing
b ut
t ed
Ġs il
Ġst ood
ĠB r
th is
us iness
spect or
en s
Ġl ady
id ence
ac hed
ro om
Ġst r
pp ed
M y
s u
it her
Ġc or
Ġto gether
The n
Ġwith in
Ġbet ter
p ed
Ġt er
in al
at ch
ow er
ation s
c hed
m y
x t
Ġw ar
ha ps
is hed
Ġf r
Ġat t
Ġmy self
d ay
l and
ĠB arker
Ġpass ed
Ġpap er
c le
Ġb ody
Ġg one
ac ed
ent le
Ġv is
gg est
d den
e k
Ġt e
Ġs erv
Ġf am
Ġin d
im es
ut h
Ġwh om
Ġsu dden
ĠO n
Ġcount ry
n gl
at ure
ent ion
Ġdo es
us hed
we red
Ġvo ice
f ter
u nd
u al
on t
en se
Ġbe g
Ġg ave
Ġre st
Ġbr ought
Ġsur pr
Ġs l
Ġs er
ĠB arrymore
Ġex am
Ġcr ime
fic ult
Ġf ore
Ġh ound
Ġd ra
Ġe m
Ġas s
Ġde ar
the re
Ġne ar
Ġex pl
Ġal ready
act ly
Ġke ep
Ġcour se
Ġb re
Ġbe ing
ĠA t
Ġne xt
Ġex p
Ġbr other
ire ct
Ġans wered
Ġac ross
Ġmurd er
Ġtak en
e c
o ple
Ġ Y
Ġs w
ou d
on s
Ġc ab
es c
an s
Ġin v
Ġan other
Ġor d
Ġhow ever
Ġsec ret
Ġpossi ble
Ġunderst and
h im
o ke
Ġb usiness
ĠA s
Ġcertain ly
re r
Ġf ur
ar ing
Ġp ur
Ġth ings
Ġst art
ĠW hen
Ġsu ggest
Ġde ep
Mc Murdo
H ow
W hy
i v
m en
s erv
Ġs ing
Ġhe ld
Ġg entle
id er
et y
Ġst o
ĠS herlock
Ġyear s
a ut
b ly
ou ble
Ġm ark
Ġb est
Ġre mem
ri ble
Ġr un
Ġde v
lo od
ag er
Ġqu ite
ĠE ngl
Ġvis it
I f
I n
b l
d o
o s
r ade
u ck
w er
ar ried
Ġin c
Ġwh ile
ĠH all
ĠM iss
Ġnot e
Ġman y
Ġr an
Ġne ed
Ġex c
Ġex pect
Ġstran ge
Ġdif ficult
Ġel se
it s
on et
as h
Ġin de
ir l
ĠS o
Ġpe ople
mer ic
m iss
Ġc har
Ġp le
Ġbe lie
ĠM ac
Ġst ru
Ġsh owed
Ġgo ing
ond er
Ġper son
Ġgi ven
E x
h ouse
Ġs ound
Ġb oth
Ġe ff
Ġth ough
Ġsh ort
Ġex ce
Ġgu ess
Ġquest ion
b and
e v
k en
w in
w ould
Ġ ide
Ġa w
re ad
Ġc are
Ġf ive
Ġh ome
Ġh us
Ġto wn
Ġha pp
Ġin ter
ĠH ow
ain s
Ġr ather
all ey
Ġex t
Ġam ong
Ġqu ick
ie w
fe ren
k n
m aster
s c
Ġw alk
an k
im inal
Ġwh ite
ir d
ĠW est
est rade
ect ion
Ġaf f
Ġpres ent
Ġchan ce
Ġclo se
b ed
f rom
i red
Ġs we
Ġm ess
Ġc he
Ġd irect
Ġst ep
Ġr a
ck et
ag ed
Ġwor ld
ig ure
Ġab s
ĠN o
ĠSt reet
Ġans wer
Ġhard ly
Ġfoll owed
Ġfam ily
c y
f ull
o g
u se
w or
Ġt able
Ġt alk
Ġh ur
ot el
ĠG od
Ġpap ers
ald win
Ġspe ak
Ġfact s
i ent
p re
Ġt en
Ġa ble
Ġh igh
or s
Ġd r
Ġl ar
Ġp ast
at ur
Ġst e
Ġsh ow
Ġyour self
Ġtr uth
up on
Ġstr ong
Ġinde ed
D on
e e
i er
t t
w hat
Ġs ent
Ġin qu
Ġe as
ur red
al ked
ĠW ell
ĠA meric
us ed
Ġsee ms
Ġal one
Ġcom ing
ress ion
Ġrep ort
S o
u ally
Ġ esc
Ġt urn
ou l
Ġm iss
Ġb ad
Ġf all
Ġn or
id ge
Ġre f
Ġsu b
Ġr ing
-- âĢĿ
Ġle ar
un g
Ġtr ain
Ġim ag
Ġfr ont
Ġide a
Ġhus band
b o
b y
i ble
in ing
re am
er n
Ġm on
Ġm aster
an g
ar r
Ġwe ek
ĠH ouse
Ġre c
Ġme et
Ġsh ot
Ġso on
Ġk ind
Ġcon v
Ġkn own
Ġcom ple
Ġfe el
Ġfo ot
Ġho ld
Ġdet ect
Ġcha ir
Ġstru ck
' d
M r
c ome
f in
l an
Ġ 1
it ed
en e
en er
Ġd ro
ar s
Ġu se
ac es
ri v
Ġde al
ant s
Ġcon ce
Ġco ld
Ġsha d
Ġret urn
Ġbar onet
Ġsupp ose
a le
i ence
o ve
u g
Ġb it
Ġf igure
Ġhe av
Ġe ach
al s
ill ed
out h
am es
ĠA n
Ġwho se
us hing
Ġbr ing
Ġimp ort
Ġcompan ion
Ġremem ber
full y
c ould
i an
l er
n es
s er
t en
v ious
Ġb ed
Ġb lood
Ġl au
Ġp ath
ow ing
Ġre ally
Ġst ud
am p
ĠL estrade
ran k
ab ly
Ġcr iminal
Ġop ened
mo st
Ġadd ress
Ġbelie ve
T his
y ing
y our
Ġc ry
ar ri
le gr
Ġcon n
Ġsee m
Ġpo or
ak ing
be en
Ġbo ot
Ġret urned
Ġlar ge
h ow
l ight
m pt
s ome
Ġ ir
in ary
Ġw ish
Ġh um
at es
st e
Ġe ither
Ġre ady
Ġre ached
Ġmy st
one y
th y
te red
led ge
air s
Ġke pt
ĠJ ack
Ġev ident
iz ed
Ġsec ond
Ġsure ly
n ight
t r
w here
in s
re g
re en
ha nd
Ġc ut
Ġf re
Ġl ine
Ġl aw
Ġl ater
Ġp u
Ġp rom
at ing
Ġst ory
ĠW hy
ĠB aldwin
est ig
Ġle ast
Ġtr ouble
Ġfe et
itt ing
Ġad m
ĠF or
Ġob ject
li ke
Ġmean s
Ġord er
Ex actly
Ġmess age
Don ald
O n
S ure
f ess
o b
p ro
s ition
t ly
Ġt re
Ġc ent
Ġc and
Ġc ap
ar ter
Ġin spector
Ġl ess
Ġp ower
Ġe ager
ver al
ur ing
if ic
ĠC h
ak er
ĠG ar
Ġsp oke
Ġoff ic
Ġper haps
Ġdis c
Ġcall ed
Ġstand ing
und red
p ter
t ain
u ge
Ġf ull
Ġto wards
an ced
ar a
Ġl ed
Ġl ate
Ġn um
Ġy es
at ive
ve red
ut es
Ġre co
Ġsa fe
Ġdo ing
Ġsome one
Ġv ill
Ġal ong
Ġcom es
Ġpo cket
Ġfo g
Ġgr ay
Ġev idence
Ġho pe
ody master
Ġbec ause
c an
c ri
c lock
i a
m in
in to
Ġw alked
Ġs k
Ġs it
Ġf our
Ġh or
Ġh ill
ar m
ar ance
Ġl ist
ic ular
Ġwh is
ver s
Ġst ate
Ġtr ust
Ġany one
Ġother s
Ġlook ing
Ġbo y
orr is
Ġcons ider
Ġacc ount
Ġfur ther
Ġra ised
Ġheav y
Ġcand le
D id
O h
d u
k ing
o ver
r act
Ġw on
Ġs le
Ġs ol
Ġb ur
Ġc ol
Ġc arry
as ion
an y
Ġbe aut
ay nes
ce ed
Ġat te
ain t
Ġtr ack
Ġlo ve
au ght
ci ety
ne y
Ġpr act
Ġsudden ly
Ġdev il
atur al
. '
I s
S t
l t
p art
p ose
Ġw atch
ou ch
Ġb u
Ġh undred
Ġl ow
Ġl and
Ġn arr
ic ag
Ġg ener
id ing
ent ly
Ġst reet
Ġse nd
Ġse veral
Ġsu sp
ĠA ll
ard s
lo om
Ġli ved
pt ion
Ġbo x
iz e
ĠBr other
Ġind ic
Ġdra w
Ġsing ular
Ġple as
tt ie
Ġinqu ir
Ġdetect ive
icag o
a ving
i et
m ark
o ssi
s ha
u nder
Ġ U
Ġs n
Ġs imp
Ġo pp
er ing
Ġm id
âĢ ĺ
Ġh on
Ġd rew
Ġg ri
Ġst ation
ce i
Ġsa ve
ĠW ith
Ġr u
the m
ok ing
be fore
Ġey e
Ġob vious
for m
Ġent ered
az e
Ġsurpr ise
Ġbre ak
rer s
Ġgentle man
Ġcomple te
S ir
c hes
m on
u red
in ally
Ġs ight
nd ed
Ġm ist
Ġm ine
Ġof ten
ent y
ĠM orris
il ed
il ity
qu e
Ġle ad
ort un
ĠD o
Ġpo st
int ed
we re
ran g
ru ct
ĠO ne
Ġlike ly
Ġgl ad
Ġroom s
orr ow
Ġwait ing
Ġremark able
Ġmin utes
Ġsil ence
Ġte legr
ature s
Ġeff ect
arri age
Ġsusp ic
A h
N ot
S he
W atson
c ent
o ol
w ell
y ond
z z
Ġ âĢĺ
Ġw onder
Ġs li
er miss
it ing
Ġf ell
Ġf ather
Ġh otel
ll ent
Ġha ll
Ġp at
Ġbe yond
ot hes
st one
se e
ac ter
Ġre al
Ġme m
ĠB o
ĠB odymaster
ap ed
Ġmo ve
har p
Ġoff ice
ci a
sh ip
Ġke y
Ġpart icular
Ġhour s
Ġocc urred
Ġter rible
Ġser ious
Ġswe ar
Ġlear ned
ĠCh icago
ermiss a
C ha
W hen
a fter
c ro
c ul
h n
o hn
p ing
w ill
w hen
Ġt ri
in c
Ġs ister
Ġm oney
is f
is on
Ġb es
Ġc ir
ĠI s
Ġha ving
Ġl od
Ġp en
Ġn erv
Ġfor ward
ol ute
ĠW ar
our s
ĠB aynes
ge ant
Ġbut ler
ble m
Ġso ciety
Ġout side
us h
Ġv alley
Ġpl ay
Ġpro b
ci al
Ġob serv
Ġcur ious
Ġapp ro
Ġcomm on
irl stone
Ġconce al
Ġstud y
Cha pter
F or
d le
d own
f ect
v ent
Ġ ill
Ġs ix
Ġs harp
is ing
it al
Ġc ig
Ġh uge
Ġd ress
ow ly
id es
Ġth ick
The y
ĠM an
Ġsa ke
ĠW h
ct or
Ġde l
ap pe
Ġwhe ther
Ġus ed
Ġv iew
Ġfe lt
Ġknow ledge
Ġro ad
ra ve
Ġpre ss
ment s
ĠF rom
Ġfriend s
Ġevery thing
ail s
Ġdes cri
igh b
Ġbro ken
ash ion
ĠMac Donald
' re
A s
B y
i ver
r or
r ing
Ġt ry
Ġt imes
Ġs oul
ha s
Ġm ention
Ġb ig
Ġf ire
Ġd ut
Ġd uring
Ġn one
ic ked
Ġg loom
Ġu nd
ĠM ar
Ġst ay
Ġst ra
if ul
Ġsu n
Ġour selves
ĠT h
ĠT o
Ġtr ue
Ġlo st
Ġro se
ie f
Ġpro blem
reat ure
oun c
Ġar rest
ict ure
Ġwait ed
Ġquest ions
Ġbro ke
ĠV ermissa
Ġcor ner
Ġexpl an
Ġstart ed
ĠEngl and
ĠEngl ish
cei ved
Ġtelegr am
N ow
a x
a im
a pe
c er
d ing
i b
o ll
s ing
u ation
in ct
in ation
in ner
Ġm ed
Ġf ing
Ġf ix
en n
ll ed
Ġl ive
Ġy ellow
ve lo
ay be
ĠH er
Ġre d
Ġre g
Ġfor m
Ġme ant
am ed
Ġdo g
ard ed
un t
Ġv i
ĠL et
Ġqu arter
itt ed
Ġpro fess
Ġbo ok
Ġar ri
Ġco ll
Ġcle an
sh ould
ĠJ ames
Ġev ents
gg ed
Ġdark ness
Ġbec ame
Ġstran ger
Ġcont in
Ġocc asion
Ġsho ok
Ġappe ared
Ġserv ice
Ġsurpr ised
ec ause
Ġinv estig
bl ic
Ġchar acter
Ġaw are
ĠGar cia
ara h
cro ft
A n
H ave
T o
c al
d ed
g u
l ong
Ġ est
he ad
Ġs ort
Ġs itting
ou red
Ġm ot
Ġc ard
Ġc ause
Ġd ied
Ġl uck
id ed
st r
Ġre l
ol k
ter n
ĠB y
Ġsu m
ag es
ag ue
Ġab ove
Ġfe atures
Ġli e
Ġthem selves
Ġj ud
Ġro of
Ġqu iet
Ġpl ans
ie ld
ra ord
ran ces
ire ly
ĠE ttie
Ġen g
Ġar ran
wh o
Ġremark ed
ho ld
Ġjo b
Ġcor re
Ġass ure
feren ce
Ġshad ow
ser ve
Ġpu blic
ĠBo ss
Ġstra ight
, '
B ecause
O ne
V ery
c r
c um
g es
i ves
t ic
v ol
Ġ ve
Ġ ri
Ġt ouch
Ġw it
Ġw ater
re l
er k
er haps
Ġb ound
on ly
Ġh ut
or m
or n
Ġin side
Ġl it
Ġe le
ĠM ason
Ġst ared
ĠS arah
the y
the ir
ĠA mes
Ġne ighb
Ġex per
ĠHe re
Ġthere fore
ĠC o
ĠC ushing
ate ly
Ġli ps
Ġag o
um b
imp en
Ġsp ent
Ġsp rang
ĠF rances
ci ent
Ġget ting
Ġgl ass
Ġgr ound
ĠJ ohn
Ġwindow s
ĠIn spector
az ed
Ġcomm un
Ġdri ve
Ġsil ent
Ġnear ly
Ġdirect ion
ĠAmeric a
reg son
Ġfre sh
Ġcent re
Ġsit uation
ossi ble
aze ment
ĠWh ite
W ho
f l
g n
i ar
p ar
r impen
s he
u me
z e
Ġs y
Ġm aid
Ġf air
Ġf olk
as es
ar o
Ġl im
Ġp ay
Ġp icture
ic y
Ġst aring
ce pt
ill or
ke ep
Ġman ner
Ġdo ctor
Ġde f
one ly
th s
ak en
Ġtw enty
Ġsay s
ert on
pl ace
He re
Ġcl oud
po int
Ġear th
Ġbec ome
Ġnew s
Ġpossi bly
Ġent irely
ĠSc ow
Ġappe arance
Ġsign s
Ġdra wn
Ġinc ident
Ġaff air
Ġimport ance
Ġconn ection
Ġmyst ery
ounc illor
A t
G ood
b it
c ess
c ount
d is
g an
g ate
n ow
n est
o ld
u ff
v iew
w o
Ġt all
Ġa ir
in ion
in ter
Ġw all
Ġm arried
Ġb right
it ies
on y
Ġc of
Ġc reature
Ġf lo
Ġto r
Ġha t
an ed
Ġg reen
Ġth in
ut ion
Ġre spect
ro ad
Ġst one
ĠB aker
ĠB irlstone
ĠL y
Ġshould ers
ect ed
Ġgl anced
Ġear s
Ġpres ence
orr or
av our
cl us
Ġset t
Ġdist r
Ġinterest ing
Ġdanger ous
Ġwar ning
Ġbeg in
Ġexam ined
aged y
Ġeas y
Ġesc aped
Ġoffic ial
Ġnum ber
vers ation
Ġbeaut iful
Ġmid dle
Ġbes ide
ĠMan or
Ġdut y
Ġexplan ation
enn aro
D o
a ven
a ff
c ertain
e ven
f ast
l ady
m orrow
p it
r ound
s it
t han
Ġ ed
Ġs qu
Ġb ott
on es
Ġc ross
Ġc arried
Ġc aught
Ġf ine
or ry
ing ly
Ġd are
Ġl amp
Ġl onely
at t
ot e
Ġg un
Ġg ame
st er
Ġfor t
ter day
Ġsu per
Ġr ough
il es
ss ess
ap ped
Ġex actly
lo y
Ġgo es
Ġv al
ĠL a
ĠL ady
ĠD ev
Ġun f
Ġam azement
Ġknow s
um n
Ġpl aced
ra w
ĠG regson
Ġthan k
ab out
Ġthink ing
cc les
ĠN ot
el s
Ġafter wards
Ġcl aim
Ġimp ossible
Ġsc ene
Ġac qu
Ġfoll ow
br idge
Ġconf ess
ĠMy croft
Ġter ror
Ġsl owly
Ġexp ression
Ġpur su
wor k
Ġimag ine
Ġconv ict
Ġatte mpt
raord inary
D r
H is
O ur
T h
b b
c ha
e ed
g hed
j ust
o p
Ġ ess
Ġa ge
Ġw ild
Ġs ense
ou ple
Ġm ad
Ġb reat
Ġf if
Ġf ree
Ġha ir
an lan
Ġl aid
Ġp ull
Ġn atural
Ġg as
ent ial
Ġre vol
Ġfor g
ad og
ce ive
ol og
ĠS ome
Ġsh ut
Ġr ushed
Ġk illed
to gether
Ġus ual
ous es
ck ed
un ning
ag ain
Ġlo cal
Ġcom p
Ġpo sition
ist ed
Ġbr ain
Ġhand ed
Ġtw ice
be red
ĠG rimpen
cc ess
Ġar m
Ġar ms
ci ence
ick et
Ġgl ance
Ġsm ile
Ġper fect
Ġob serve
omet imes
Ġpart s
Ġclear ly
ex t
ex pl
Ġpoint s
Ġch ild
Ġmurd e
Ġwr iting
Ġspe cial
Ġsat isf
Ġtak ing
Ġbro ad
az ing
Ġres ult
Ġcompan y
Ġmin ute
ĠSc anlan
Ġser geant
Ġpur pose
Ġsing le
Ġhapp ened
kn own
fin ite
riv ate
Ġlau ghed
Ġprom ise
Ġreco gn
Ġgener al
cer ned
Ġflo or
adog an
B askerville
c ious
d on
e very
k y
m b
r ough
u ed
Ġ K
Ġ ident
Ġt y
Ġt we
Ġt ried
Ġthe ory
re s
er m
Ġm is
ed ly
ed ding
Ġc ond
Ġf an
Ġf ashion
Ġh orror
or ies
Ġin s
Ġin form
Ġp ale
Ġn ature
le t
Ġan ger
ĠW as
ĠThe se
Ġsh ru
Ġr ail
Ġde c
Ġk ill
ap h
Ġne ither
ĠC ouncillor
Ġwor se
ĠL odge
ĠD id
Ġwhat ever
Ġqu e
are r
imp se
itt en
ĠG ennaro
Ġsp ir
Ġfo ol
ĠE very
ĠE ccles
Ġway s
ud den
Ġthought s
sp ond
Ġop inion
ict im
Ġear ly
Ġwr ong
Ġclo sed
ĠR e
Ġatt ention
Ġexpl ain
Ġsw if
Ġgentle men
do or
Ġdifficult y
read ful
Ġdr ink
Ġmiss ing
Ġsub ject
Ġbed room
Ġboot s
Ġvill age
ĠU n
ĠWar ren
Ġobserv ed
Ġvi ol
Ġarri ved
icy cle
ĠScow rers
ĠLy ons
Ġdistr ict
Y our
b ody
f ace
g th
m orning
o ly
o ok
t ime
v age
in es
Ġs orry
Ġc e
Ġc ouple
Ġf a
Ġf right
Ġh ung
or k
Ġd inner
an ces
Ġp ack
Ġp age
Ġp aid
ld en
Ġg le
Ġg irl
Ġg rave
st ant
Ġth rew
Ġth ird
ĠH ug
ent ure
al ter
Ġre pe
Ġre ceived
Ġst ick
Ġst air
Ġan g
Ġme re
ĠW here
Ġse lf
if ied
ĠB e
Ġsu spect
ĠA l
Ġyour s
Ġcon versation
ĠC adogan
Ġle aving
ck s
Ġv ague
Ġv ictim
ĠT r
Ġal most
han k
Ġwor th
Ġany how
Ġun less
Ġbr own
of f
Ġpl an
Ġpre t
Ġsp ot
ĠN ew
Ġen er
Ġco at
med i
Ġgl impse
Ġimp ression
Ġsc ream
not hing
Ġke en
Ġhar m
Ġev il
Ġgu ard
Ġapp o
Ġadd ed
Ġstep s
ĠAmeric an
Ġfall en
bo ok
Ġdro ve
Ġevident ly
Ġadm it
ract ed
Ġinquir y
Ġsimp le
Ġexper ience
Ġess ential
" '
b ell
g y
h od
l ve
l come
p es
p loy
v in
w ind
y ed
Ġa st
in ister
Ġw edding
Ġs ad
Ġm outh
Ġm iles
Ġc ru
Ġc ases
Ġf in
Ġf ail
Ġf aces
as ed
Ġh iding
Ġto p
Ġd readful
Ġha ng
Ġhe aven
Ġl ad
Ġl oud
Ġl ying
Ġp ort
om be
le ct
Ġit self
ur m
ur y
al se
Ġsu ccess
il t
il ing
Ġde part
ap id
Ġcon clus
ok en
ace y
art ed
Ġtr ace
Ġtr ave
Ġtr agedy
Ġmo on
Ġcom pl
ist ance
Ġli ves
ie ce
Ġdid n
Ġbo ard
ĠO ur
Ġdis co
con t
Ġear nest
ex pect
Ġch o
Ġdist ant
Ġdif feren
Ġem ploy
ec il
Ġple ase
Ġhur ried
Ġmon ths
Mr s
Ġbit ter
Ġlau gh
rank land
Ġir on
Ġyes terday
aint ance
Ġbu ild
Ġwit ness
ĠDev on
ĠHug o
3 4
A ll
Q u
S herlock
d wards
f aced
f oll
l ittle
m p
o pe
o cc
s m
u ss
w r
w ich
w oman
Ġ 2
Ġw at
Ġm od
it ish
Ġf alse
Ġd en
Ġd im
Ġd est
ar ch
Ġp ain
ic es
Ġg ard
se c
ac y
Ġwe lcome
ĠH ave
Ġre ach
ad ed
ro du
Ġsa vage
ri g
Ġnot ice
ĠW il
ĠS h
Ġsu ff
pe red
Ġall ey
ap er
ound s
Ġsome what
ous and
ag ged
Ġmo at
ist ol
me nd
Ġag ent
Ġpl ain
act ion
Ġpro ve
Ġpro ved
Ġpro ceed
Ġen e
ĠF inally
ress ed
Ġsm iled
Ġtell ing
Ġgr im
po sition
co at
Ġdes ire
Ġmurd ered
Ġwr ite
Ġact ually
mo or
Mc Ginty
Ġletter s
no on
Ġbeg an
Ġfore ver
Ġem pt
Ġsuggest ed
Ġsto pped
Ġdifficult ies
Ġexce ed
Ġexce llent
Ġcare fully
Ġeas ily
Ġesc ape
Ġhum an
Ġpract ical
Ġhon our
Ġbreak fast
ool wich
olute ly
Ġmed ical
Ġprofess ion
Ġcorre spond
Ġrevol ver
Ġfan cy
Ġinform ation
Ġque er
ĠTr acey
C an
H enry
S ee
a way
b s
c ing
f all
f riend
g ood
m ay
m ind
o ot
r al
r ant
s ion
u c
v o
Ġs al
ha fter
Ġm aking
Ġc arriage
Ġh ot
Ġh ouses
or ter
Ġd ate
Ġp i
Ġp air
Ġp icked
Ġp rivate
ic ate
Ġbe ar
Ġbe ard
se t
ir ty
al th
ĠM or
ri ll
Ġan x
ĠW ill
our ney
Ġse ven
Ġsh own
Ġsu it
Ġr apid
pe nd
th ought
ĠC an
ĠC ross
ive red
Ġgo ver
art y
art her
ig er
pp ing
Ġpo ssess
int ment
Ġli es
Ġshould er
ite ment
Ġpre vent
Ġsay ing
Ġhouse hold
ru pt
ĠF ree
ish ment
Ġcl erk
ud e
sh ire
Ġrem ained
po ssi
po sed
Ġend ed
Ġpr inted
Ġpr ison
Ġch ief
Ġfl at
Ġint ell
Ġdet ails
Ġdet erm
gr ound
Ġchan ge
Ġdist ance
Ġask ing
ĠV alley
Ġsho ck
Ġmet hod
ĠSc ot
ĠSc ott
Ġconf idence
Ġadv ice
Ġim medi
ĠBr itish
ĠY our
Ġvisit or
Ġexpect ed
kn ow
pre s
Ġimport ant
Ġlist ened
Ġstate ment
Ġsle ep
Ġmention ed
velo pe
Ġjud ge
ĠCo ombe
Ġacqu aintance
Ġfif ty
Ġpull ed
udden ly
Ġappo intment
Ġexceed ingly
B arrymore
D ear
L et
M ac
P erhaps
W ith
W here
b re
b ac
b ack
c ur
c our
c all
f er
i arty
l s
m ing
m ight
m ust
n ever
p ular
p olice
u ct
Ġ Yes
Ġt icket
he red
Ġw ood
Ġw ished
Ġs lo
er ri
Ġm urm
Ġb und
Ġb icycle
Ġc ra
Ġc ip
Ġf at
Ġf ut
as hed
or lock
Ġd ull
Ġd ouble
Ġp ar
Ġp istol
Ġy ew
Ġy ards
Ġbe at
ot es
im ent
Ġg ate
Ġg ran
Ġu t
se en
Ġth ro
ĠH otel
ir t
ir st
ĠS m
Ġse at
Ġsh one
Ġso ft
the n
-- "
th ink
Ġout l
us ual
ĠC ecil
Ġor gan
Ġle g
Ġle aned
un e
ĠT ed
Ġtr ap
ink erton
Ġli ving
Ġbr idge
um p
are n
ab l
Ġfo od
Ġen velope
ĠF rankland
Ġar ound
Ġco al
Ġafter noon
Ġfir m
ise ase
Ġimp at
ber ste
wh ile
con v
oubt edly
Ġwork ing
Ġint im
Ġcount y
Ġcons ult
Ġreason s
Ġcour t
Ġact ion
Ġcont r
Ġwant ed
Ġsho ot
Ġadv enture
Ġunderst ood
Ġdri ven
Ġatt ack
Ġserv ants
ĠOn ly
Ġfore ign
Ġmark s
Ġrun ning
Ġaff airs
ier ce
Ġweek s
Ġfeel ing
Ġmyst er
Sure ly
Ġhor rible
Ġcol our
St apleton
Ġwatch ing
Ġnarr ative
Ġsuspic ions
zz led
cul iar
Ġnerv ous
Ġinvestig ation
Ġneighb our
keep er
cess ary
Ġcof fin
cha ir
Ġbreat h
Ġperfect ly
Ġmurde rer
Ġswif tly
Ġgard en
erri pit
Ġcip her
berste in
C ome
O f
S ome
b ers
b usiness
c han
d es
f r
f ound
f ort
g ent
g ain
g ers
l it
l ow
m n
n atural
p ast
p ass
p othes
s ur
s omething
s aid
s ider
w ise
w ord
z ed
z en
Ġt est
Ġt reat
in v
Ġs ometimes
Ġs inister
re me
is m
Ġc re
Ġc ast
Ġf ate
Ġf arther
en cy
as ure
ing er
Ġin j
Ġhe l
Ġl ur
Ġl atter
Ġl ower
Ġp ow
Ġp ushed
Ġy onder
at ic
at tered
Ġbe ast
Ġwas n
st airs
st ruct
Ġe mer
Ġwe ak
Ġre ve
Ġre lie
Ġfor get
ĠM ary
ĠM erripit
ro b
ro p
ro y
Ġst ri
ce llent
ĠW alter
ĠW oolwich
ĠB ird
ge nd
Ġr is
Ġr ise
il ty
Ġde ed
Ġde finite
the se
ĠA d
ĠA fter
Ġex cl
Ġcon cerned
ok ed
lo oking
ĠC om
Ġal arm
int s
um ber
are t
ra it
ab ility
pl ess
Ġlong er
ĠP inkerton
Ġgr ass
Ġsc he
Ġdis appe
Ġrem ain
Ġpass age
per ate
Ġhands ome
iz ation
ret ched
Ġput ting
Ġmean ing
Ġwr itten
Ġint rodu
ey es
Ġsign al
ĠBr own
Ġexam ple
ĠY ard
ĠY ork
Ġord inary
miss ion
Ġinter view
Ġext raordinary
Ġlear n
Ġimag ined
ang le
Ġsoon er
Ġhold ing
Ġ1 8
On ly
Ġtre es
Ġwhis pered
Ġcol umn
Ġlod ger
Ġdress ing
Ġfing ers
Ġcontin ued
Ġarran ged
cum st
Ġfair ly
Ġsett led
Ġgle am
Ġpret ty
Ġcru el
Ġdifferen t
Ġbuild ing
ĠDevon shire
ĠMor iarty
Ġbund le
Ġfut ure
Ġgran ite
ĠSm ith
aren tly
D ouglas
a wn
a used
b lood
c ol
c lo
c ase
c ise
c ceed
d id
d ark
e rest
e lden
g reat
g ian
h ound
i or
i ant
i pped
l ast
m it
m ir
n ment
r on
s uch
u es
in ced
Ġw is
re ed
ha ll
ha pp
Ġo rig
er ve
er ous
Ġm ile
Ġb ene
it able
on ight
Ġf urn
Ġf rank
Ġf avour
Ġf ierce
en ing
en ces
ing ton
Ġd ining
an ing
Ġhe ll
Ġhe ir
Ġhe sit
Ġl if
Ġl un
om es
ve re
ic ed
ic ated
Ġbe ll
ld er
Ġu r
Ġe ight
Ġth ousand
Ġwe ap
et r
et ch
Ġre con
Ġfor ced
ĠM ire
ri es
ĠS hafter
Ġse arch
if f
Ġman ager
ch oly
ation al
ĠC ar
ĠC ome
Ġal ive
Ġwor thy
pp ose
int erest
ond ay
Ġj ourney
Ġbr and
ra id
Ġaf raid
Ġpro of
har d
nder son
ĠE dwards
ĠF ear
ĠO berstein
Ġcl othes
ĠP orlock
sp ir
Ġfind ing
po ol
con f
Ġgu ilty
Ġhelp ed
Ġpres ume
Ġpoint ed
Ġfl ushed
Ġread ing
br ows
ister ia
Ġwant s
Ġjo y
Ġwar rant
uth or
ĠOn ce
Ġexpl ained
Ġexp ress
serv ant
Ġsto p
bl ack
Ġexc use
Ġchar ge
Ġeff ort
Ġhapp y
Ġhapp en
ĠHow ever
Ġwalk ing
Ġclose ly
Ġhur ry
Ġturn ing
Ġmaster ful
Ġconv inced
lan choly
Ġshad ows
ĠAn y
Ġeager ly
Ġdisc uss
Ġsle e
Ġland lady
Ġpleas ure
Ġopp os
Ġhon est
Not hing
Ġnerv es
Ġappro ached
Ġfing er
Ġfix ed
Ġele ven
Ġbott om
Ġresult s
Ġty pe
Ġtwe lve
Ġdeterm ined
otes que
Ġthro at
pothes is
ĠBird y
B arker
M aybe
N one
a ves
b et
b out
d et
g o
g un
k es
m ade
m mer
o a
o or
o st
p ort
r ad
s a
s ame
t wo
Ġt onight
Ġw ire
Ġs ank
Ġo ath
nd ing
nd eed
Ġm ut
Ġb le
Ġb al
Ġb urned
on ed
Ġc unning
Ġf le
Ġf ight
Ġh id
Ġh ig
Ġh unt
Ġto bac
or th
or gian
Ġd i
Ġd ream
Ġd isease
an cing
Ġin f
Ġin it
Ġin cl
Ġp un
Ġp ure
Ġp ounds
Ġn amed
ic s
ot ion
Ġg ro
st ran
Ġth reat
ut ation
Ġhis t
ac ing
ac hing
et ers
ĠH igh
Ġre n
Ġre ference
Ġas ide
Ġfor ce
ĠM ay
ĠM aybe
ĠM onday
Ġan n
ĠW ho
ĠW isteria
ĠS us
ĠS pan
ĠS outh
Ġse ated
ct ion
Ġsu cceed
Ġdo ll
Ġdo zen
Ġso le
th ough
ĠHe nderson
Ġle gend
un n
un til
Ġv an
Ġtr oub
Ġlo ose
Ġwor st
Ġmo ved
Ġmo ving
ĠL ord
Ġun known
ink ing
te en
Ġj e
Ġbr ow
um ed
are st
Ġpre p
ious ly
Ġsp ring
Ġsp oken
Ġar t
ĠO f
ĠO h
Ġco vered
Ġbl ow
ĠP ro
Ġsm oke
Ġsm oking
Ġcr ow
Ġimp l
Ġgr ou
Ġsc ent
Ġsc attered
Ġthr ow
sp ons
po cket
Ġev ent
Ġho st
Ġho ped
Ġjust ice
ait ing
askervill es
Ġdes ert
Ġdes perate
Ġpe culiar
ex am
ial s
Ġch uck
orr id
ott ing
Ġdet ail
Ġcha in
Ġdist inct
ater ial
Ġappe ars
no cent
Ġserv ed
Ġexam ine
ĠY et
Ġmark ed
Ġremem bered
Ġexc ited
Ġext reme
Ġche er
atur ally
Ġste ad
Ġmiss ion
Ġrec ord
Ġshot gun
Ġdro pped
riv al
Ġconn ected
Ġadm ir
Ġconsider able
Ġbur st
Ġinquir ies
Ġopp ortun
Ġgri p
Ġmist aken
Ġsuspic ion
Ġwonder ful
Ġsli p
Ġmem ber
Ġprob ably
Ġconceal ed
Ġcig ar
iver pool
Ġund oubtedly
ĠMar vin
Ġest abl
Ġarran ge
Ġcloud s
count ry
olog y
Ġident ity
Ġshru gged
Ġspir it
Ġfa ith
Ġpack et
wind ow
Ġast on
Ġfin ished
expect ed
Qu ite
ĠWil son
Ġene my
Ġempt y
Ġprison er
Ġmurm ur
Ġimpat ient
inv estig
Ġhel pless
ĠBrown er
cumst ances
orgian o
, âĢĻ
. âĢĻ
A re
H all
J ust
M an
R e
S c
T hank
W as
a f
b ro
c hen
d er
d ge
e le
f ety
i ke
j o
m atter
m per
o ad
o gr
s y
s pe
t ake
u b
v is
Ġ 5
Ġt ill
Ġa ven
Ġa uthor
Ġw a
Ġw and
Ġw ound
Ġthe ories
Ġs ens
ou ched
re mem
re mark
ha lf
Ġm arriage
Ġb an
Ġb us
Ġb ag
Ġb urn
Ġb ank
it iz
it chen
Ġc ar
Ġc orrid
Ġf led
Ġf ield
Ġh y
ll ing
Ġd umb
Ġha bit
Ġp ant
Ġn et
Ġn ine
Ġn aturally
ve l
ot s
ot ed
Ġwas te
Ġg rew
Ġg azed
id able
st ep
Ġe lder
Ġth under
ac he
ac ity
Ġwe ight
ver ing
ĠH ad
ur a
al if
al ous
al ity
al thy
Ġre com
Ġfor ty
Ġsa fety
ol it
ol ved
ĠB askervilles
Ġsh ows
Ġr ich
Ġr ain
ell ed
Ġde p
one l
ap tain
Ġwould n
ul ous
Ġne g
Ġne ck
Ġor de
ag ic
Ġtr ail
ĠL iverpool
Ġam id
ak es
ass ive
har ing
Ġar med
ĠO r
ĠO x
Ġsha king
Ġcl ue
Ġfriend ship
ear s
sh ot
sh ort
wh y
sp ital
for med
co ll
ren gth
Ġinst ruct
Ġmatter s
Ġdes ce
ret ch
pr ise
Ġpres um
with out
Ġwr ote
ott en
Ġcur ve
Ġcur tain
Ġrep utation
ĠStapleton s
Ġapp re
Ġent er
Ġcons cience
Ġfear s
Ġfoll owing
Ġremark s
Ġgi ves
Ġcompan ions
Ġjo ke
Ġjo ined
Ġdri ft
ek s
Ġfam ous
Ġcountry side
Ġass istance
Ġkeep ing
Ġcab man
Ġdeep ly
os ity
Ġexc itement
Ġquick ly
Ġabs or
Ġhur t
Ġreport ed
bo ard
Ġcap able
min ent
Ġhill s
Ġwhis per
Ġnarr ow
Ġindic ations
Ġdraw bridge
Ġsimp ly
Ġmist ake
Ġgloom y
Ġmot ion
Ġmot ive
Ġeng aged
cient ific
Ġbegin ning
Ġsqu are
Ġfort une
ĠLa ura
Ġener gy
Ġwat ched
Ġrapid ly
Ġcontr ary
Ġmyster ious
Ġpow ers
Ġrelie f
Ġexcl am
Ġoppos ite
Ġhist ory
alif orn
B r
B aldwin
H a
M ay
b ber
c or
c ame
e es
e an
g ive
g entle
h il
h us
i ps
m urd
m ail
n a
n ers
n erv
o on
p at
r ow
s ay
s aw
u gg
v al
v ill
Ġ ver
Ġt in
Ġt ap
Ġa ud
Ġs pect
Ġm er
Ġm ire
Ġm ount
is es
Ġb ought
it or
it ch
ed er
ed ro
Ġc aut
Ġf ly
en ger
as ant
Ġto ss
Ġd ue
Ġha mmer
an ne
ar ious
ar med
Ġin k
Ġin fl
Ġl en
Ġl ink
Ġn ames
Ġn erve
Ġbe low
im al
Ġg en
Ġg all
Ġe qu
se x
se qu
Ġth irty
ĠH ill
ent ed
ur ope
al ed
Ġre se
Ġfor med
ad en
Ġst ro
Ġst airs
ri f
Ġnot es
Ġnot iced
Ġme lancholy
ĠS an
ĠS ure
ore d
Ġsh out
Ġr ising
Ġde velo
Ġde pend
Ġk itchen
ch ief
Ġne cessary
th ree
th rough
Ġyour selves
ant ed
ant age
Ġout ra
ust om
us ion
us anne
Ġsome where
ĠIt al
Ġgo ld
un ted
un bridge
Ġcould n
ĠT imes
Ġlo ved
ĠD on
Ġpo pular
ist s
Ġun like
Ġun usual
Ġfe ver
ak ed
Ġro cks
Ġag reed
um ent
Ġpl aces
ie nd
be hind
ĠG ood
ĠG orgiano
Ġpre te
ert y
ĠN orth
Ġbo ld
Ġar tic
ĠSt ation
Ġbl ind
Ġbl ue
ress ing
Ġcl ient
ĠP erhaps
ĠP edro
ud d
Ġcle ared
Ġthr own
ĠJ im
Ġpass ing
Ġpass ion
less inger
for d
con ce
con sider
Ġhead s
li er
Ġdes ign
Ġac cept
Ġsur round
Ġint ently
Ġap art
Ġapp arently
ition er
Ġgi ving
Ġpolice man
Ġel b
Ġmin ers
Ġocc up
Ġbar rel
Ġadv ise
Ġdri ving
Ġsil ver
Ġwar n
Ġfore arm
Ġass ass
Ġexp ert
Ġsecret ary
him self
iv able
Ex cellent
Ġexce pt
Ġinter rupt
Ġche ck
Ġabs ence
Ġtalk ing
Ġstrong ly
ĠWell s
Ġreport s
Ġref used
ang led
Ġrec all
Ġmeet ing
Ġcomple x
Ġdro p
Ġcriminal s
Ġhum our
Ġtre mb
ific ation
Ġvill ain
Ġsk y
Ġboy s
aught er
ĠAll en
Ġpleas ant
Ġsli pped
Ġpat ience
Ġcir cle
Ġcig aret
Ġform idable
An y
Ġest ate
Ġhut s
orm ous
Ġneighb ours
Ġglass es
Ġsy mp
Ġrespect able
even ing
ĠLa usanne
Ġunf ortun
Ġpursu it
bb ing
Ġchild ren
ĠUn ion
Ġviol ence
Ġang ry
Ġbitter ly
Ġmod ern
ĠSh lessinger
Ġgover nment
Ġintell ig
Ġmethod s
ĠScot land
Mac Donald
Ġfat al
Ġintim ate
roy don
happ y
Ġlun ch
Ġweap on
rad es
Ġtobac co
ĠSus sex
Ġcorrid or
Ġexclam ation
bber y
Ġoutra ge
Ġcigaret te
A gain
A bout
C harles
E R
E ngl
I ndeed
L estrade
M iss
a ily
b bed
c he
d d
d ri
d if
d el
e ch
f it
f ind
f ashion
g ing
h or
i us
m ber
n ger
o c
o ck
o ped
p rom
p ap
s il
s ure
t urned
u able
u ft
w ar
z y
Ġ (
Ġ *
Ġt al
Ġt ast
Ġt alked
he ard
he lp
in ate
Ġw icked
Ġs ch
Ġs ick
Ġs cientific
ha st
ha ust
ha med
Ġo we
Ġm atch
Ġm aterial
Ġm akes
Ġb ath
Ġb ird
it ive
Ġc ro
Ġc ared
Ġc atch
Ġc ries
Ġf i
Ġf ast
Ġf aced
Ġf oul
Ġf illed
Ġf inally
Ġf iend
en ess
as y
es ides
Ġto day
Ġto morrow
Ġd ry
Ġha te
an e
Ġin nocent
Ġhe els
Ġl ines
Ġp ick
Ġp iece
om en
Ġyou nger
ve y
ic ient
Ġbe long
le ase
st and
st ation
st ained
ver t
ver ton
Ġis n
ent ered
ur bed
Ġre qu
Ġre ck
Ġas so
Ġst ore
Ġst ern
Ġst rength
Ġan cient
Ġan imal
ol onel
ter s
Ġat mo
ill s
ĠS qu
ĠS ee
Ġup per
Ġup stairs
Ġse par
am ong
if y
od e
red ible
Ġr ust
Ġr are
Ġr ude
Ġso ot
Ġde cl
ĠA h
ĠA r
Ġall ow
ul f
ul es
ul verton
Ġne arer
Ġne arest
Ġcon spir
Ġcon sequ
Ġkn ees
ĠC ould
ĠC ount
ĠC aliforn
Ġher self
Ġle aves
Ġv ol
Ġal ert
Ġal together
Ġlo ck
Ġwor n
ĠL ook
ĠD ay
Ġcom rades
ist ence
Ġun able
Ġknow ing
Ġbr ut
Ġqu ar
Ġag ree
Ġhand le
Ġmay be
ra il
imp ort
Ġover coat
Ġpro pose
ĠG able
Ġsp ace
Ġhouse keeper
Ġown er
ĠE s
ĠE ven
ĠE urope
Ġen ormous
Ġbo g
Ġbo at
Ġar g
ĠThere fore
Ġco st
iss ors
Ġsha re
Ġsha pe
Ġnight s
Ġcl ass
ple asant
ĠP r
Ġgl im
Ġmight y
Ġgr otesque
Ġper ceive
Ġmoor land
ign or
Ġdis ap
ĠJ ust
sp here
sp aper
Ġrem ains
Ġpr int
Ġpr oud
Ġinst inct
fe e
pan y
Ġdes ired
with in
Ġcall ing
Ġinte nded
Ġnew spaper
Ġchan ced
Ġrep ly
Ġcons cious
ject ed
Ġact ive
com ple
Ġcomm and
Ġinterest ed
Ġopen ing
Ġadv ance
Ġadv anced
Ġadv antage
su ff
my self
Ġatt ached
cle ar
Ġte mper
Ġserv ant
Ġbrother s
Ġsuggest ion
In spector
Ġnote book
Ġran g
Ġperson al
Ġabs ent
Ġabs olutely
wor ld
Ġfall ing
Ġchair man
ĠAn other
ste m
hand s
Ġpower ful
Ġnum erous
Ġsk ull
Ġsol ution
Ġcarry ing
Ġatte nd
Ġpract itioner
Ġsend ing
Ġindic ate
Ġdraw ing
sha ven
Ġobvious ly
Ġlead ing
Ġmem ory
Ġserious ly
cul ation
Ġcir cumstances
Ġpen etr
Ġprob able
Ġdress ed
Ġdel ivered
Ġdescri be
iver ing
Ġstay ed
ib ility
Ġquarter s
Ġcorre ct
cr iminal
Ġcommun ity
Ġtor n
Ġsuper natural
Ġmad am
Ġsatisf action
Ġrecogn ized
Ġkill ing
Ġrepe ated
Ġheaven s
Ġconclus ion
Ġearnest ly
Ġcho ose
34 1
Ġprofession al
Ġpi pe
Ġorgan ization
rob or
Ġris k
Ġbene ath
ĠSpan ish
Ġsole mn
Ġstead ily
Ġopportun ity
Ġhy pothesis
Ġinfl u
Ġinterrupt ed
Ġtremb ling
pap ers
Ġasso ci
Ġatmo sphere
ĠSqu are
A y
A mes
A meric
E ttie
N ever
a us
b ar
b id
b oth
b its
c ern
d one
d ict
d irect
e ad
f ive
h ood
i able
i ety
i que
l or
l ar
l ay
l ted
m ist
m ake
m itted
p ower
r id
s l
s ince
t s
t re
t ow
t ure
t aken
u ppose
w he
w right
y al
Ġ 3
Ġ ou
Ġ er
Ġ 341
Ġt ask
Ġt uft
he art
he arted
Ġa vo
Ġw ise
Ġw omen
Ġs en
ou st
re cy
ha m
ha ired
er man
er geant
Ġm ar
Ġm ill
Ġm ort
Ġm ister
is ion
Ġb ould
Ġb ore
Ġb and
Ġb ul
Ġb ones
it er
it ation
Ġc itiz
Ġf er
Ġf ro
Ġf ond
Ġf inal
Ġh un
Ġh ide
es pe
or ge
ll ers
ing e
Ġd ie
ar ran
ar ches
Ġin ner
Ġin formed
Ġhe ight
Ġp in
Ġp ark
Ġp ers
Ġp ity
at or
ic ious
Ġbe aring
Ġbe arded
ld om
im ul
Ġg own
Ġg ra
Ġg ru
Ġg reet
Ġg ang
st ill
st able
st ru
Ġth rill
ac ious
ay ed
Ġwe ary
ĠH ud
ent al
Ġon es
ir m
ir ious
ur ies
Ġre ceive
Ġre spons
Ġas su
Ġas hamed
ĠM ur
Ġst ream
ri bly
ter ing
ter rible
ill y
ĠW ould
ĠS elden
out side
Ġse vere
am b
ĠB urn
ĠB oth
ĠB aden
od ded
Ġsh ip
Ġsh ining
red it
Ġr ow
Ġr um
il iar
il ities
Ġde li
Ġde light
ĠA re
-- '
ul ate
th ings
th ren
Ġex ult
Ġex ped
Ġex haust
lo oked
ĠC on
ĠC roydon
ĠC ulverton
Ġgo ssi
ast ic
art wright
ĠT hank
ĠT iger
ag ger
Ġtr agic
ĠL e
Ġshe et
Ġshe ep
Ġwhen ce
Ġun happy
Ġab and
Ġfe ared
ink led
Ġro ck
Ġbr ings
Ġbr ows
erv ed
Ġtw isted
Ġpro p
Ġpro du
Ġother wise
ab s
Ġlook s
Ġbo ss
ath y
ĠSt ill
ĠSt ates
Ġco p
Ġbl ank
ci ally
ĠP atch
ĠP eters
Ġgl ancing
Ġsm iling
Ġcr is
Ġcle ver
ever al
Ġthought fully
Ġimp assive
air n
sh ott
Ġsc issors
Ġper mission
Ġob t
Ġthr ust
Ġold er
Ġrem o
Ġdoor s
Ġend s
less ly
less ness
Ġpr ot
con n
Ġevery one
Ġinst r
Ġfar m
Ġpe ep
Ġgu ide
Ġsec recy
Ġmind s
Ġpoint ing
Ġint ent
Ġint ention
Ġblack mail
Ġpossi b
Ġclo sing
Ġgi ant
ĠR oad
Ġdead ly
ĠV ery
Ġim m
Ġappe ar
su b
Ġvis ible
Ġbeg un
Ġsl ight
Ġexam ination
there fore
Ġord ers
Ġsecret s
Ġfur y
Ġfur ious
Ġrun s
os ing
Ġneed s
Ġbelie ved
Ġstru gg
Ġquestion ing
Ġtown ship
Ġswe pt
wor thy
Ġbad ly
Ġref use
by e
Ġkind ly
Ġfeel ings
Ġ1 3
Ġhum ble
Ġfre qu
Ġoffic er
Ġhor se
Ġbur gl
any one
Ġbeaut y
Ġeye brows
see med
Ġmem bers
Ġkey s
Ġprob ability
Ġdescri ption
Ġarrest ed
Ġbook s
head ed
Ġluck y
Ġlim ited
Ġcof fee
certain ly
Ġed ge
Ġed uc
Ġval ue
raw ling
Ġpursu ed
Ġnatural ist
Ġforg otten
again st
ext raordinary
expl ained
Ġrecogn ize
every thing
Ġrail way
ĠEvery thing
ĠRe gent
Ġrepe at
Ġfail ed
Ġport rait
lect ed
Ġden y
sec ret
Ġanx ious
ĠFree man
ĠFree men
Ġimmedi ate
Ġimmedi ately
call ed
Ġoutl ine
conv ict
Ġlur king
umber land
Ġgleam ing
Ġorig inal
Ġslee ve
Ġfle w
Ġinit ials
Ġsucceed ed
Ġgrou p
Ġarrange ments
Ġaston ishment
ogr aph
remem ber
Ġelder ly
Ġrecom mend
ĠOx shott
Ġabsor bed
Ġmotion less
ean while
eder ate
Ġlen gth
rif ied
ĠSure ly
Ġdevelo p
ĠItal ian
Ġunlike ly
Ġartic le
Ġassass in
Ġsymp athy
Ġunfortun ate
Ġsch ool
hast ly
ĠCount y
ĠCaliforn ia
Ġinflu ence
tow ards
arran ged
ĠHud son
ĠBurn et
B e
B irlstone
C ertain
E very
F rom
L ook
P art
S can
T ut
W h
b road
b airn
c ab
c har
d est
e m
e ff
e ither
e orge
f ellow
f igure
f ax
g est
g own
g ency
i ans
l ig
m ar
m uch
m arried
m oney
o sed
p aper
r ic
r ust
r ation
r ish
r ather
r ung
s om
s us
s uddenly
t le
u ous
v il
w ife
w aiting
Ġt unn
he ld
he av
he ster
in stant
Ġw est
Ġs on
Ġs outh
Ġs ides
re spect
re ason
Ġo dd
Ġm at
Ġm al
Ġm ain
Ġm us
Ġm ag
Ġm oust
is c
Ġb are
it ions
on ce
ed ge
Ġc oun
Ġc ord
Ġc aused
Ġc ustom
Ġf it
Ġf un
en ge
en ched
as ants
ll ow
Ġd ared
Ġd iv
Ġha ze
Ġha bits
Ġha lted
an other
ar thy
Ġin n
Ġhe ap
Ġl an
Ġp ara
Ġn odded
at urd
at hered
ve yed
le ep
Ġg ap
Ġg ather
Ġg azing
Ġg hastly
st it
st ick
se tt
Ġth read
ac count
Ġwe alth
et h
Ġis land
ĠH ob
Ġon ward
ion ed
al f
al ways
Ġre pl
Ġfor th
Ġfor ms
ad ing
Ġsa il
Ġsa ved
Ġan no
ill o
ĠW ater
ĠS uddenly
ĠS ergeant
Ġse ized
Ġse ldom
am ps
od ger
ain ing
Ġsh r
Ġman te
Ġsu pre
Ġr as
Ġr id
Ġdo cum
Ġso ld
Ġde b
Ġde m
Ġde ce
ind eed
Ġall owed
Ġno is
ul sed
Ġwhe els
Ġex istence
qu arter
to o
to ld
ant astic
Ġcon ven
Ġcon cern
Ġkn ock
Ġsee ing
ĠC aptain
ĠC haring
ĠC olonel
ĠC artwright
ive ly
un k
un ken
ĠT ell
ĠT ake
ĠT wo
ĠT unbridge
Ġal tern
Ġal though
ag onet
Ġtr aced
Ġtr aces
Ġlo se
Ġlo ver
Ġwor ked
ĠD e
ĠD aily
Ġshe l
Ġcom b
Ġcom fort
ist ing
ist le
ist ling
Ġun cle
Ġun expected
Ġun pleasant
me red
Ġli ked
Ġj aw
Ġpro per
Ġpro position
ĠG ard
ĠG reen
Ġsp are
end ed
ĠN ever
Ġoff er
Ġoff ered
ĠE ast
ru e
ru it
Ġen cour
Ġar rival
Ġco ol
Ġbl urred
Ġbl azing
ci es
Ġget s
Ġcl im
Ġcl apped
Ġcl enched
ud ed
ud ge
Ġsm ell
Ġcr imes
Ġfriend ly
air bairn
Ġgr as
Ġsc ri
Ġsc and
Ġob lig
ign ation
wh om
Ġop er
Ġend e
ne ed
Ġho pes
Ġjust ified
de ep
Ġpr ide
con cerned
Ġgreat er
Ġgreat est
ict or
Ġclear ing
Ġlight ing
Ġear lier
iz ing
hy s
Ġpe ace
Ġpe ering
Ġpe asants
ex c
Ġret ired
pr act
ord ing
Ġfl ight
Ġfl ash
Ġint ense
ott ed
Ġspe ech
Ġcur t
Ġcur ved
Ġchan ged
Ġstran gers
Ġdist urbed
Ġapp l
Ġinstant ly
Ġclo ser
Ġcomm itted
Ġstand s
Ġacc om
Ġacc ent
Ġocc ur
Ġfellow s
Ġconf ident
Ġjo in
room s
su ggest
Ġcor robor
Ġwar ned
Ġsl ow
Ġfore head
Ġhound s
Ġbre ast
Ġbre aking
Ġsw orn
Ġsw arthy
esc ri
Ġinv al
Ġinv olved
Ġsuggest ive
iv id
Ġsto oped
Ġdev oted
do g
Ġneed ed
Ġshort ly
read ing
Ġcare er
Ġext ent
sc ri
Ġpresent ed
Ġche eks
Ġabs olute
use um
Ġspeak ing
Ġste ep
Ġsent ence
Ġref er
Ġimag ination
Ġfoot mark
Ġfoot step
Ġdetect ives
Ġuse less
Ġfigure s
Ġheav ily
Ġbring ing
how ever
reg ular
Ġprom ised
fess or
pro b
Ġdisc har
Ġreco vered
Ġaccount s
Ġsol ve
Ġpract ice
Ġindic ated
sha ll
ĠU nder
Ġsn ow
Ġgri e
Ġru bbed
zz le
Ġsli pp
Ġplay ing
Ġsharp ly
Ġpress ed
Ġpress ing
Ġdescri bed
Ġtry ing
ĠMar ie
ĠTh rough
Ġreg ret
Ġcoll e
str ong
Ġquiet ly
orm ac
ĠJohn son
Ġsy stem
uff led
inter view
Ġwall s
raw led
just ice
Ġarm chair
Ġtwe ed
Ġspir its
ĠAl ready
Ġscream ing
Ġhang s
Ġdepart ure
Ġdisco ver
Ġdisco vered
foll owed
mind ed
Ġsal oon
Ġpossess ion
possi ble
possi bly
pres ent
Ġslo pes
Ġcra zy
Ġoutl ined
Ġshoot ing
word s
ĠAd mir
col oured
ĠCar fax
Ġbal ance
Ġhid den
Ġhig her
Ġvan ished
Ġje alous
Ġprep ared
Ġcheer ful
Ġadmir ation
Ġfaith ful
Ġ5 34
Ġorde red
Ġappre ci
Br other
gentle man
Ġmer cy
Ġrese arches
Ġelb ow
Ġintellig ence
dif ficult
vert ise
Ġconspir acy
ĠEs her
comple te
Ġou ter
Ġer r
espe cially
Ġpers u
Certain ly
Scan lan
Ġpara ly
aturd ay
Ġsupre me
agonet te
Ġfootstep s
. ,
A R
A m
B odymaster
C ould
G od
G ive
L ondon
M ost
O U
P r
S T
T ell
a ulf
b ing
b urned
b ank
b ury
c ir
c ast
c art
c aut
d om
d ist
d anger
d uring
e legr
f act
f ire
f right
f les
f illed
g ave
g ment
g ress
g ings
h um
i o
i am
i ard
i ven
i ving
i bly
i osity
l ife
l odge
l aw
m al
m ess
m ies
n or
n et
n ical
o be
o pt
p et
r ot
r im
r ous
r ate
s es
s at
s had
t ell
t all
u ce
v ice
v ail
w ers
w ood
y oun
Ġ 4
Ġ 7
Ġ rom
Ġ iv
Ġt it
Ġt ut
Ġt ur
Ġt ied
Ġt ip
Ġt iger
Ġt ouched
he st
Ġa id
Ġw ore
Ġw ide
Ġw agonette
Ġs ac
Ġs ill
Ġs ize
re f
re m
re ally
re mon
ha ir
Ġo ak
Ġm ir
Ġm ap
Ġm ate
Ġm are
Ġm other
Ġm ud
Ġm arry
Ġm ix
Ġm ental
Ġb en
Ġb owed
Ġb lock
it ude
on er
Ġc hat
Ġc at
Ġc lock
Ġc ult
Ġc ards
Ġf ain
Ġf its
Ġf ired
Ġf ug
en ough
en cies
Ġto re
ll s
ll er
ing ing
Ġd u
Ġd ar
Ġd om
Ġd us
Ġd iss
Ġd ense
Ġd ying
ĠI rish
ar ily
Ġin ha
Ġin ch
Ġin finite
Ġhe alth
Ġhe dge
Ġl at
Ġl id
Ġl ab
Ġl ugg
Ġp et
Ġp ause
Ġp ains
Ġp ushing
Ġp orter
Ġp hys
Ġn ur
om ed
om ing
at form
âĢľ '
ic ation
Ġbe fall
le y
ot ions
ld gate
im ag
Ġg n
Ġg ain
Ġg athered
st ri
Ġe p
ly ing
ac les
et e
et s
ir ing
ur sion
The se
al ted
Ġfor mer
ro l
ro ve
ro se
Ġst ol
Ġst out
Ġst age
Ġst ew
Ġst aff
Ġst ones
Ġst retched
ol ution
ill ing
ĠS aturday
our ce
our selves
Ġse a
Ġse ll
am ent
ĠB l
Ġr ushing
Ġbut ter
il i
ĠA T
ch nical
ard ly
Ġno vel
ul ary
th ose
Ġex pan
Ġex alted
qu est
ound ed
Ġcon side
Ġcon cent
Ġcon vey
Ġwho ever
ust er
ĠĠĠĠ ĠĠĠĠĠĠ
ĠC ormac
ack et
Ġgo lden
ck ing
un ged
art moor
Ġv ain
Ġv ital
lf ast
ort ed
ĠT or
Ġal oud
ong ue
Ġtr ade
Ġlo ss
ĠL aw
ĠD own
ĠD ob
ĠD artmoor
Ġpo ison
fore ver
Ġun com
Ġun married
Ġam ple
Ġli kes
Ġro ar
Ġro de
Ġbr an
Ġqu ivered
Ġag ents
Ġag ony
Ġpl atform
ie ces
Ġaf oot
Ġpro spect
ĠG eorge
Ġpre cise
Ġsp an
oun ced
ab y
ab or
ab led
end er
ĠN ature
ĠN ext
Ġfo ld
el ess
ĠE minent
ru ce
ru ption
ĠF irst
pl es
pl ay
gl ing
ĠSt anger
Ġsha ken
Ġcl um
ĠP ar
ĠP oor
ĠP hil
Ġgl ared
Ġsm art
Ġcr it
Ġcr ushed
Ġthought ful
Ġimp ress
Ġsc r
Ġsc ar
Ġsc ared
Ġdis gu
ĠJ ac
ĠJ ove
sp oken
Ġrem ove
po st
Ġdoor way
hen sion
Ġwind ing
Ġho spital
per haps
co x
co pe
lp h
lp iece
ren t
Ġpr ice
Ġsaw ed
Ġinst ance
Ġinst ead
li ed
Ġlight ed
Ġround ed
Ġgu arded
ex p
pr ints
ord er
Ġhelp ing
ĠAnd rew
Ġsur m
Ġint ru
ott led
av oured
Ġbec omes
Ġcur se
Ġcur iosity
gr ay
Ġcha pter
aw ed
Ġhalf way
Ġtak es
Ġlay ing
Ġact ions
Ġheart ily
Ġcont ent
Ġcont ained
Ġcont ents
com ing
Ġpolice men
ĠV ictor
Ġconf ederate
Ġdri pping
ens ive
Ġstr ing
Ġter ms
Ġatt racted
day s
Ġte eth
Ġser ies
Ġem b
Ġem otion
Ġem otions
Ġsw ore
Ġstart ing
iv il
Ġsto ve
Ġsto le
Ġexc han
Ġexc ursion
Ġexpect ing
Ġsound s
Ġexce ption
Ġhus h
kn ew
sc ap
Ġmess enger
Ġche st
Ġra ise
Ġste pped
ier rot
Ġinqu est
Ġsub du
ern al
Ġmon ograph
Ġ1 7
riv ial
Ġaddress ed
your self
Ġir regular
ste ad
Ġpu zzled
Ġobject ion
ob serv
Ġcap tain
Ġreco ll
Ġsafe ly
Ġsk etch
Ġfour th
Ġwhis ky
Ġtrust ed
Ġconsider ing
Ġsol id
Ġbur ied
any thing
ouch ing
Ġbu ilt
Ġstreet s
Ġindic ation
Ġpleas ing
ossi bly
sha ved
Ġmid night
Ġru in
Ġru ff
them selves
Ġcomplete ly
ortun e
ruct ion
Ġpat ient
Ġreal ize
Ġparticular ly
Ġtri ump
inc idence
Ġlod gings
Ġplay ed
Ġappro ach
Ġcommon place
fect ly
Ġdel irious
appe arance
Ġview s
Ġpress ure
Ġund ert
Ġsun k
ax ed
ĠHer ald
Ġreg ard
Ġprofess or
Ġarri ve
Ġcoll ar
Ġoccasion ally
Ġcharacter ist
Ġrel ations
Ġjud gment
Ġeng ine
Ġri g
umb led
Ġcommun icate
Ġmaid en
att le
Th ree
bb led
op ened
Ġforg ive
Ġcomp elled
Ġmurde rers
Ġcond ition
Ġcond uct
let ter
Ġfright ened
ĠBe lfast
Ġsuspect ed
off ice
Ġhang ing
Ġlad ies
Ġconclus ions
Ġboard ing
cont in
Ġlaugh ing
occ urred
sm all
Ġdest ruction
Ġpain ful
Ġsuff ered
Ġcorrespond ence
rill iant
Ġanx iety
Ġintell ect
ĠScot ch
Ġut most
Ġleg al
Ġadventure s
Ġattack ed
chan ce
fr ont
pass ed
asure r
Ġstri ke
ĠCom pany
Ġsche me
Ġdisappe ared
Ġdisappe arance
Ġcolumn s
clo sed
dark ness
ron ic
Ġhesit ated
Ġlif ted
Ġrecon struct
interest ing
Ġbrand ed
Ġhappen ings
ĠAny how
bet ter
bet ween
det ect
Ġmut tered
Ġinf ernal
Ġincl ined
Ġgro aned
stran ge
Ġren ew
Ġann als
Ġdoll ar
Ġdoll ars
Ġtroub led
Ġart ist
ĠPro fessor
Ġcrow d
Ġcrow ded
investig ation
Ġwa ist
Ġpant ing
olit an
Ġinstruct ive
Ġdrift ing
hus band
Ġmount ains
Ġequ ally
Ġdepend s
ĠNorth umberland
udd y
conce ivable
Ġbarrel s
Engl ish
oc ity
Ġfi ery
Ġbrut al
Ġarg ue
Ġdisap point
suff ering
direct ion
lar ge
Ġavo id
Ġgreet ed
Ġassu red
ĠMur illo
Ġgossi p
Ġprop erty
Ġprodu ced
Ġobt ained
Ġremo ved
Ġpeep ed
Ġstrugg le
Ġburgl ar
Ġdevelop ment
Part ington
sus p
Ġtunn el
Ġmoust ache
ĠHob son
Ġmante lpiece
quarter s
ĠGard ens
Ġscand al
Ġoblig ed
ivid ual
aulf ield
Ġtit le
Ġtip to
Ġlugg age
Ġstew ard
Ġexpan se
Ġconside red
ĠDob ney
Ġpoison ous
Ġsubdu ed
! --
' --
. .
A S
B aynes
E D
H as
H aving
J ack
J ohn
M ar
M ortimer
O L
O N
O r
P ierrot
S elden
S hall
T ake
U n
a ure
b es
b icycle
c est
c ap
c ond
c are
c reature
c hard
d ep
d ress
d escri
f le
f am
f ew
f avour
f irst
g ot
g ri
g ree
g ical
h ome
h ist
h iding
i en
i od
i um
k er
k ish
l im
m et
m ond
m oment
m ale
n al
n ame
n ew
o ing
p en
p ut
p her
p ell
p ound
p air
r it
r ated
s we
s ave
s ign
s itting
t ive
t aking
t rail
u ze
w onder
x ton
y er
y ears
z ing
Ġ 6
Ġ _
Ġ id
Ġ especially
Ġt one
Ġt apped
Ġt angle
Ġt ongue
Ġa ut
Ġa vail
Ġw id
Ġw ard
Ġw its
Ġw ired
Ġs hat
Ġs om
Ġs igh
Ġs cience
Ġs ource
re sh
re ached
re uze
ha ving
er able
Ġm or
Ġm oth
Ġm uffled
Ġb as
Ġb ot
Ġb ent
Ġb ill
Ġb lo
Ġb uck
it self
it ary
it ated
on ic
ed nes
Ġc y
Ġc al
Ġc ott
Ġc arri
Ġc redit
Ġf ac
Ġf aint
Ġf aded
Ġf etch
Ġf antastic
as m
as ked
Ġh ors
Ġto ol
or se
or ce
or ous
or ough
ing u
Ġd ed
Ġd am
Ġd ates
Ġd aughter
ar g
ar ms
Ġin ev
Ġin expl
Ġin justice
Ġl est
Ġl um
Ġl ens
Ġl aure
Ġp ill
Ġp ink
Ġp olit
Ġp ieces
Ġy ell
ow ling
ic able
Ġbe ating
le ad
le ave
le ft
ot te
Ġg ained
id s
st ate
st ers
st ab
st reet
st ition
st retch
Ġe ase
se ct
Ġth us
ac qu
ac ross
et own
et te
et ween
et rop
ĠH ound
ĠH alf
ur ious
ur ried
ur kish
al er
al ing
al so
al ready
al otte
Ġas se
Ġas leep
Ġwith d
ad a
ĠM Y
ĠM ont
ĠM useum
Ġst ar
Ġst uff
ce l
ri but
ri xton
Ġan tic
ol ate
ol ence
ill ings
ĠW ednes
ĠS uppose
our ing
Ġup ward
am ing
if ference
ĠB ar
ĠB esides
ĠB rixton
ke red
ĠThe ir
ct ions
ge red
and ele
Ġman age
Ġman aged
Ġman servant
Ġr us
Ġr ate
Ġr ue
Ġr aw
Ġdo gged
il s
Ġde mon
Ġde ceived
ĠA m
ĠA fr
ĠA gain
-- âĢľ
Ġno ble
Ġno ise
Ġex h
Ġex er
Ġex posed
Ġare a
ant ic
ant ly
Ġcon stant
Ġcon stable
Ġkn ife
us cri
lo o
lo st
lo ved
Ġsee k
Ġsee king
Ġus ing
Ġus hered
ĠC l
ĠC hester
Ġor chard
ast alotte
Ġv ast
Ġv ig
Ġv arious
Ġv enge
ate ur
ĠT H
ĠT elegr
Ġal ib
Ġal armed
ag ues
Ġtr ait
Ġtr ans
hing s
Ġlo ft
Ġlo cked
Ġlo yal
ĠL after
Ġcom po
Ġcom posed
Ġany where
ven ge
Ġun e
Ġun t
Ġun ique
Ġab ode
Ġfe e
Ġam use
Ġam azed
Ġam azing
Ġam ateur
Ġj agged
Ġro lled
Ġbr ave
Ġbr ick
Ġbr ute
Ġqu ee
Ġqu ivering
um ble
um ents
are tt
Ġpl ot
Ġpl uck
Ġpl enty
Ġpl unged
ep ing
ie l
act ually
Ġdown stairs
ran ce
ran ge
Ġover take
be ing
be arded
Ġpro f
Ġpro sa
ade lph
ĠG l
ĠG o
ĠG reat
ĠG erman
ĠG reuze
Ġpre par
Ġpre cious
reat h
Ġsp l
Ġsp y
Ġsp ark
Ġsp ite
Ġsp rung
ert ific
ĠN otting
el t
el se
Ġoff end
Ġoff ense
Ġad opt
ĠF ar
ĠF airbairn
Ġday light
Ġco ver
Ġco ok
Ġbl ame
man y
Ġsha red
ple x
ĠP lease
Ġgl aring
ear nest
Ġimp er
Ġimp ressed
Ġgr in
Ġgr ad
Ġgr and
Ġper iod
Ġob tain
ull o
ber ate
Ġthr owing
Ġdis like
ĠJ ules
po inted
po pular
get ic
ne cessary
de f
de ad
de ath
co vered
Ġpr im
Ġpr ay
Ġpart y
Ġpart ing
Ġpart ly
ait ed
fe atures
li ps
Ġdark ened
Ġear n
Ġear ned
iz on
pan ion
Ġright s
Ġpe ered
Ġgu est
Ġret reat
Ġhard ened
pr int
Ġpres ents
Ġch im
Ġch ill
Ġch os
Ġac ute
Ġwork man
Ġfl ut
Ġfl ame
Ġsur face
Ġint r
av age
Ġspe ed
Ġspe culation
Ġfact or
Ġap olog
cl ass
Ġchan ces
Ġcha p
Ġcha mber
Ġdist ingu
Ġmoment s
Ġfear less
br ought
br other
ho pe
Ġcont racted
com pl
com panion
ĠR ed
Ġres ident
Ġres umed
Ġcompan ies
ĠV andele
Ġmin es
Ġacc used
Ġsho p
Ġvo ices
Ġsupp osed
Ġdri ver
My croft
su ppose
atch ing
Ġfr own
Ġfr ame
Ġfr amed
Ġatt ent
Ġte mp
Ġte chnical
Ġfam iliar
Ġind ividual
ont in
Ġsurpr ising
ĠBarrymore s
Ġexam ining
Ġbre ad
Ġbre thren
Ġexp ense
Ġsw ung
Ġdeep est
How ever
serv ants
Ġdev ice
Ġvisit ing
Ġinc redible
ĠHall oa
Ġelse where
Ġguess ed
Ġide as
Ġaw aiting
Ġcare ful
Ġwalk s
ĠWest bury
Ġswe et
Ġdirect ed
pre p
Ġten ant
Ġdr ag
Ġdr agged
Ġdr unken
Ġlar ger
Ġste ady
Ġste el
Ġste althy
Ġstrong er
Ġinqu ire
Ġeas ier
Ġref uge
Ġsub tle
bo x
Ġmon th
Ġrec ent
Ġuse ful
Ġdeal ing
Ġshad owed
mpt om
some one
Ġir r
tr ain
tr ack
tr uth
Ġlaw yer
Ġprom pt
Ġadm itted
pro ve
Ġcap ital
Ġhope less
min utes
Ġhor izon
Ġlist en
Ġconsider ably
ract ion
Ġsle pt
St reet
part icular
Ġbu zz
Ġlow ered
Ġgener osity
Ġpleas ed
mark able
Ġgri zzled
ĠWith in
Ġmist ress
Ġlead s
Ġsuspic ious
Ġreal ized
Ġmove ments
Ġtri al
inc ident
inc etown
Ġbes ides
Ġcir c
Ġappro aching
Ġdut ies
ĠMar ch
aim ed
Ġcoll ection
Ġcontin ually
Ġoccasion al
Ġinvestig ating
gu ard
str ous
Ġsum mer
Ġsum mit
Ġeng age
erk ins
Ġsy mptom
Ġlim bs
Ġpicture s
cept ed
Ġdef iant
Ġincident s
now ledge
Ġbright ly
Ġsett le
Ġsqu ee
Ġbott le
Ġfort night
Ġsuper stition
Ġrough ly
ĠNot hing
Ġgas p
Ġgas ped
Ġsatisf ied
mb led
ĠK n
Ġmis chief
Ġins ist
Ġshru bbery
Ġfool scap
Ġswif t
Ġviol ent
Ġce remon
Ġfa ult
Ġfright en
Ġang le
Ġmere ly
Ġplan ned
Ġkeen ly
Ġdepart ed
Ġtrave ller
Ġcompl iment
Ġearnest ness
occ up
occ asion
wr iting
ĠWil cox
Ġproceed ed
Ġene mies
ĠWill aby
ĠCan ada
Ġgover ness
know ledge
bre ak
cur ious
cour se
uct ions
Ġwood en
Ġslo pe
Ġbeat en
Ġut ter
Some one
sur prise
Ġtreat ed
Ġstri kes
ĠWalter s
Ġris en
Ġdeed s
Ġintrodu ced
Ġ18 7
Ġ18 8
Ġhesit ation
Ġur gent
Ġbrand y
Ġslee ves
sa fe
Ġhig hest
Ġpun ishment
Ġdesert ed
exam ple
Ġchuck led
Ġdistinct ive
Ġestabl ish
Ġimpatient ly
Hall oa
Re ally
Re markable
bro ken
Ġwand er
Ġsens es
remark ed
remark able
Ġbus y
Ġpant ry
Ġneg lected
Ġinstruct ions
Ġdesce nded
Ġpresum ing
nerv es
Ġaud acity
Ġspect acles
Ġtoss ed
Ġgen ius
consider able
Ġoccup ied
Any thing
fashion ed
Ġfast ened
Ġreck on
Ġsoot hing
Ġconsequ ence
Ġvol ume
Ġquar rel
import ance
Ġglim mered
Americ an
dict ion
Ġsen ior
Ġmill ions
Ġmort al
Ġbould ers
Ġcitiz en
Ġfer ocity
Ġhun ting
Ġgru dge
Ġrespons ibility
Ġexped ition
Ġexhaust ion
Ġcop ies
Ġcris is
conn ection
Ġpossib ility
Ġeduc ated
mar ine
Ġodd s
Ġdiv orce
Ġlan tern
Ġthread s
Ġsail ors
ĠWater loo
Ġdocum ent
Ġconven ient
Ġaltern ative
Ġscri bbled
exc itement
pract ical
Ġcurt ains
Ġaccom pl
ĠUnder ground
Ġgrie f
Ġslipp ers
ĠAdmir al
Ġjealous y
Ġerr and
sat isf
Ġrom ance
Ġcult iv
Ġfain ted
Ġdus k
Ġphys ical
ĠBl ack
ĠLaw ler
Ġbran ches
Ġfold ed
Ġclum sy
ĠAndrew s
Ġsurm ise
Ġintru de
Ġrecoll ection
Ġtriump h
Ġrig id
hist or
Ġhors es
Ġinev itable
Ġinexpl icable
etrop olitan
Ġantic ip
ĠWednes day
ĠAfr ic
uscri pt
Ġvenge ance
ĠTelegr aph
Ġalib i
arett es
Ġprosa ic
adelph ia
ertific ate
Ġchos en
ĠVandele ur
Ġceremon y
3 0
? âĢĻ
A L
A d
A fter
B esides
C h
D ark
E N
E ven
E dwards
E minent
E AR
F inally
G ar
H er
H ouse
H um
H igh
H ush
H ardly
L y
L ady
L odge
M orris
M eanwhile
N e
O R
O ut
P eters
P lease
P ossibly
Q ue
S ay
S uch
S omething
S everal
T A
T wo
W ould
W ait
a j
a unt
b ur
b ag
b ott
b by
b ush
c her
c ation
c ross
c arried
c arriage
c unning
d r
d oubt
f ly
f our
f ear
f irm
g ar
g le
g ame
g ies
h r
h undred
h ours
h ouses
i est
i ance
i ved
j awed
k s
k ind
k ward
l a
l our
l ate
l ass
l ine
l ity
m ine
m ire
m aid
m ons
m bly
m erton
n y
n ear
n away
n som
o ed
o ard
o ber
o ping
p u
p ur
p ath
p ens
r at
r unning
s k
s w
s al
s ight
s of
s ue
s ister
s ix
s cience
s udden
t im
t al
t able
t ney
t rave
t rue
u ine
u cc
u zzle
v i
v as
v ant
v ous
v ity
v ial
w on
w ed
w ing
w ent
w ant
w ice
x ation
y es
y le
y et
y age
Ġ &
Ġ [
Ġ z
Ġ ice
Ġ ought
Ġt ar
Ġt ight
Ġt el
Ġt inge
Ġt rivial
he m
he tic
Ġa lo
Ġa ck
in ous
in arily
Ġw ine
Ġw ider
Ġw inter
Ġw icket
Ġthe at
Ġs ink
Ġs ons
Ġs inking
ou ces
re y
re ll
re le
re spons
Ġo il
er al
nd s
nd id
Ġm ul
Ġm ale
Ġm ottled
Ġm uzzle
is hing
is ible
Ġb a
Ġb ow
Ġb ache
Ġb order
on ent
Ġc ure
Ġc ity
Ġc aus
Ġc rawling
Ġf ill
Ġf ide
en g
as c
as hing
Ġh ol
Ġh ired
Ġh omes
es ide
es tern
es cope
es mond
Ġto wers
or ary
or gan
Ġd ine
Ġd ab
Ġd ign
Ġd ict
Ġd ang
Ġd amp
Ġd rank
Ġd well
Ġd azed
Ġd arted
ĠI ron
Ġha z
Ġha st
Ġha ted
Ġha iled
Ġha nsom
an ation
an ity
ar n
ar se
ar ation
ar ra
ar ition
Ġin spect
Ġin conceivable
Ġhe ro
Ġl amps
Ġp it
Ġp ol
Ġp ra
Ġp ier
Ġp ages
Ġp awn
Ġp ane
Ġn in
Ġn ug
Ġn ails
om orrow
at en
at to
at hed
at ors
at ives
âĢĿ --
Ġyou th
ve mber
ic ent
ic ally
ic ial
ic ations
ic ism
Ġbe w
Ġbe nding
le c
le br
le ased
ot ic
ot ched
ot land
Ġg ent
Ġg lo
Ġg ig
Ġg ates
Ġg aze
id ow
id ney
id ences
Ġu mb
st ood
st ud
st air
st ory
st aring
st retched
Ġe at
Ġe ast
Ġe tern
se ven
se ated
se veral
Ġth ir
ut ed
ut ch
ut ted
ac le
ac id
ac hes
Ġwh istle
ay s
Ġwe t
Ġwe ather
Ġwe ird
ĠH A
ĠH as
ĠH oly
ir on
ir med
ir cle
ĠĠ Ġ
ur ance
ur rey
al one
al ities
al rous
Ġre ign
Ġre jo
Ġre venge
Ġre leased
Ġas ce
Ġfor ces
Ġfor bid
ĠM id
ĠM ad
ĠM erton
ĠM eanwhile
ro ar
ro lled
ro cious
ro yed
Ġst ag
Ġst ake
Ġst ained
Ġst uck
Ġst retch
Ġst imul
ri er
ri fic
Ġan cest
ol ith
ol ical
Ġnot ed
Ġat h
ĠW ood
ĠW ait
ĠS e
ĠS uch
ĠS ometimes
ĠS everal
ĠS avage
ĠS idney
our t
Ġse qu
Ġse ize
Ġse lect
Ġse aled
am ond
am bit
if ts
ĠB ruce
ĠB etween
ke mpt
od ing
ct ober
Ġsh rew
Ġsh irt
Ġsh ivering
Ġsh illings
Ġman ners
Ġman uscript
Ġr ou
Ġr it
Ġr out
Ġr ings
Ġr uddy
ell ery
all ow
il ar
il merton
Ġso b
Ġde ceive
Ġde af
the st
ĠA cc
ĠA ber
ĠA ldgate
ch ie
ch ild
ap les
ap ital
Ġno body
ul ation
th in
th ur
th ousand
th rust
Ġex act
Ġex ert
qu ite
qu iet
to ok
Ġcon ver
Ġcon ject
Ġcon struct
Ġby g
Ġout sider
Ġout lying
Ġkn ee
us ing
us ive
lo sed
Ġus ually
ĠC aulfield
ĠC astalotte
ĠC ircle
ĠC ourt
Ġwill ing
ous ed
ous ly
Ġher s
Ġle nd
Ġle is
Ġle an
Ġle ather
Ġle vel
un ction
un explained
ast ed
art ic
Ġv enture
ort on
ĠT urkish
ĠT hings
ag ony
ag gy
ure s
Ġtr ay
Ġtr ous
Ġtr ick
Ġtr ains
pp er
ĠL ong
ĠL ee
ĠL ope
ĠL ike
ĠD ark
Ġshe pher
Ġpo sit
ist ered
ist rate
Ġun if
Ġun ite
Ġun ited
Ġun certain
Ġun conv
Ġab st
Ġab oard
Ġam iable
ink le
ak ened
urd en
ide a
te e
te mpt
Ġj ew
Ġro bbery
Ġbr ains
Ġqu aint
Ġqu ality
of fic
Ġag ency
Ġag itated
Ġpl aus
Ġpl edge
Ġpl acid
Ġtw isting
ra wn
ra its
Ġover looked
be aut
Ġpro fit
Ġpro jected
Ġpro gress
ĠG ilmerton
Ġpre po
Ġpre vious
Ġpre fer
Ġpre caut
Ġsp read
ab les
ab olical
Ġthink s
ment ary
ĠN umber
har m
Ġfo x
Ġfo gg
ĠE x
ĠE nd
ru d
Ġad vertise
Ġback ground
Ġen able
ĠF riend
pl ine
Ġar oused
gl ass
ĠO b
ĠO ld
ĠO ff
ĠSt ate
Ġco ck
Ġco vering
Ġco incidence
Ġbl ess
Ġbl owing
Ġbl under
Ġbl azed
ci pline
iss ance
man ac
Ġsha me
Ġsha ft
Ġcl er
Ġcl ad
Ġcl ub
ick en
ĠP ut
ĠP res
ĠP erkins
Ġgl ow
Ġgl are
Ġgl owed
Ġcle arer
ree k
Ġgr ow
Ġgr owing
sh owed
Ġper plex
Ġbet r
Ġob li
Ġob sc
ign ific
Ġdis p
Ġdis miss
Ġdis position
Ġdis cipline
ĠJ on
sp ire
Ġfind s
po or
po ssess
po ses
Ġpass es
Ġpass ions
Ġend ing
for get
ne ighb
ren ch
Ġpr ints
con versation
gg ard
fe re
Ġlight ly
Ġdes k
Ġdes olate
hy pothesis
Ġput s
Ġgu ilt
Ġhelp ful
Ġdoubt s
Ġch in
Ġac ush
Ġmen acing
Ġfl our
Ġfl ag
Ġfl ick
Ġfl ank
Ġfl ush
Ġsur veyed
Ġcall s
Ġbec oming
ey e
ey ed
gr otesque
cl othes
cl uded
Ġset ting
ach ment
Ġblack er
up board
Ġcha se
Ġcha ins
Ġrep ro
Ġrep res
Ġapp arition
Ġent rance
Ġcons ent
Ġcons isted
Ġreason ing
Ġreason able
Ġcour age
Ġremark ably
br own
Ġact ing
Ġact ual
Ġheart s
Ġheart y
com m
com er
com es
com mitted
mo on
Ġhear ing
Ġcomm it
Ġcomm iss
ĠR odger
Ġres idence
Ġres olute
Ġres erved
Ġwant ing
Ġdif ference
Ġmin ister
Ġacc ess
Ġacc ident
Ġvo yage
lie ve
Ġbar ren
Ġsupp os
Ġsupp lied
Ġsign als
ĠBr ad
ens ington
Ġfr inge
cle an
Ġind uce
Ġind ifference
ention al
Ġsl am
Ġser ve
Ġexp ressed
ec her
Ġcab by
esc ape
Ġsecret ly
ĠAs k
Ġfur tive
Ġpur poses
iv alrous
Ġvisit ors
Ġinc re
Ġinc rim
Ġran ge
Ġperson s
house hold
Ġaw ful
Ġaw kward
Ġhapp ens
Ġinter ruption
feren t
feren ces
sc r
sc ream
Ġaff ected
Ġpresent ation
Ġswe ep
Ġmess ages
Ġra ven
Ġabs urd
Ġhur led
Ġspeak s
Ġdr am
Ġstrong est
what ever
oul tney
Ġmiss ed
Ġnor th
Ġref lect
Ġring ing
bo ot
bo ots
Ġmon strous
Ġrec ently
Ġconv ulsed
Ġfoot prints
Ġdetect ed
ener al
Ġconce ive
Ġconce ivable
Ġconce ived
Ġcold ly
Ġstud ent
Ġcry ing
tr ace
tr agedy
Ġfre ed
On ce
pro of
pro ved
pro ceed
Ġtre ason
Ġcent ral
Ġcent uries
Ġdisc reet
min ine
Ġsk in
Ġfour teen
Ġhor ribly
Ġhill side
Ġlist ening
Did n
Ġsol ved
Ġsol itary
Ġlove ly
St and
Ġland s
ĠU p
Ġsn orter
Ġsn iff
Ġgri ps
Ġru le
ortun ately
ĠDo es
Ġpost ed
Ġtelegr aph
Ġeffect ive
Ġhotel s
Ġpat ches
Ġmove ment
Ġparticular s
Ġtri angle
Ġsister s
ĠWar ner
Ġvalley s
Ġobserv ations
Ġconceal ment
vent h
vent ure
Ġill ness
Ġcig ars
Ġthick ly
appe ared
Ġsoul s
Ġfire s
ĠTh ough
Ġexplan ations
ĠEnglish man
cer ning
ib art
oll y
Ġform al
Ġcontin ue
Ġmot ives
Ġrel ation
Ġsum mon
raord inarily
Ġve ins
Ġri fles
Ġlit ter
Ġele ct
Ġele mentary
Ġground s
she et
Ġlim its
Ġpay ing
Ġdef ine
Ġdef end
Ġcloud ed
point s
ĠScow rer
dis c
Ġbright ened
aff air
Ġbott les
Ġcross ed
att ention
ster ous
Ġfort un
Ġval ise
ĠDev ine
Ġclaim s
Ġconfess ed
Th ose
op en
Ġwild ly
Ġfif teen
olog ical
Ġshut ters
Ġcomp are
expl anation
Ġspecial ist
Ġsatisf y
ĠK ensington
Ġident ification
Ġrail road
Ġdec ay
Ġdec ided
Ġdec ision
ĠUn ited
Ġce ased
Ġce lebr
ĠBe echer
ĠAl so
Ġvictim s
Ġener getic
Ġener gies
Ġcoat s
Ġscream ed
Ġessential s
lve t
Ġsad ly
Ġloud er
Ġport ion
Ġsuccess ful
Ġtrave l
Ġmoon light
Ġcompl icated
Ġboard er
Ġdisco very
cont ained
Ġwitness es
Qu ick
Ġ2 9
Ġmod est
Ġdim ly
Ġdest ined
Ġdest roy
Ġsuff icient
Ġplain ly
Ġproceed ings
ĠWill iam
thought s
Ġpar cel
Ġfirm ly
Ġintim acy
Ġcontr ast
Ġmyster ies
Ġneighbour hood
Ġbreath less
chan ge
fort y
Ġinj ury
Ġinj uries
Ġemer ged
Ġemer ges
Ġreve llers
Ġintrodu ce
blood ed
col umn
Ġwis er
Ġwis hes
Ġfurn ished
Ġfrank ness
Ġfavour ite
Ġur gency
Ġrecon na
ĠCar naway
Ġproof s
conf idence
Ġeffort s
Ġdiscuss ion
Ġtype wr
det ails
Ġdi amond
Ġdi abolical
Ġdream ed
Ġthreat ened
Ġren t
Ġspring ing
Ġgrou ps
Ġevent ually
exam ined
Ġdistinct ly
Ġcheer fully
Ġadmir able
Ġestabl ished
Ġaston ished
Sc ott
Sc otland
spe aking
vis itor
Ġaven ger
Ġaven ue
Ġauthor ity
Ġwound ed
Ġburn ing
Ġcar pet
Ġfield s
Ġneg ro
Ġorde al
Ġdesce nd
Ġpresum ably
Ġenter prise
hus i
vill e
Ġtap s
itch ing
Ġtoss ing
Ġgall ery
Ġshout ed
Ġprete nd
Ġpassion ate
Ġsurround ed
Ġsurround ings
Ġapart ment
sil ent
Ġtal ents
Ġtast es
Ġcro ok
Ġsepar ate
Ġdecl are
ĠAr thur
Ġconsequ ences
Ġquar re
import ant
ĠPr incetown
Ġglim mer
Ġinstinct s
Ġattend ant
Ġpenetr ate
bar onet
whe ther
Ġbul ky
stru ck
Ġdeli berate
Ġexult ation
ĠCon stab
Ġaband oned
abs olutely
Ġinstr ument
Ġinstr uments
Ġfrequ ent
Ġfrequ ently
Be fore
char acter
heav y
Ġmal ign
Ġfun eral
sett le
Ġshr ink
Ġdeb t
Ġdem and
Ġdece ased
Ġshel ter
Ġcomfort able
Ġclim bed
Ġende avour
Ġappl ause
Ġcorrobor ated
Ġinval uable
Ġdischar ged
Ġcolle agues
Ġappreci ate
difficult y
Ġparaly zed
obe an
youn g
ref used
Ġmir ror
Ġfug itive
Ġdar ling
Ġlat est
imag ine
Ġep is
Ġstol en
Ġbutter fly
quest ion
Ġconcent ration
Ġspan iel
abor ate
ĠPhil adelphia
Ġdisgu ise
ĠJac ob
Ġexchan ged
Ġruff ian
Ġintellect ual
ĠScotch man
Ġwaist coat
Ġdisappoint ment
susp ic
descri ption
pell ier
Ġwid ower
Ġshat tered
Ġsom bre
Ġbas is
Ġcarri ages
Ġded uctions
Ġlum inous
Ġpolit ics
ribut ion
Ġrue ful
Ġexh ib
Ġexer cise
Ġvig il
Ġtrait or
Ġamuse ment
Ġpluck ed
ĠGl ouces
Ġgrad ually
Ġtemp orary
Ġsymptom s
ĠKn owing
occup ied
histor ic
Gar cia
bott le
ucc a
Ġtel escope
rell a
rele vant
Ġmul atto
Ġbache lor
Ġfide lity
Ġdang ers
arra way
Ġpier ced
Ġnug get
Ġumb rella
Ġthir teen
ambit ious
Ġshrew d
ĠAcc ording
ĠLope z
Ġshepher d
Ġjew ellery
Ġplaus ible
beaut iful
Ġprepo sterous
Ġfogg y
ignific ant
Ġacush la
Ġreconna issance
ĠConstab ulary
ĠGlouces ter
! '
' ,
0 4
1 5
7 04
A T
A bs
B o
C ushing
C ouncillor
C ecil
C aptain
C haring
D e
D anger
E S
F a
F rankland
G o
G reat
G regson
G rimpen
G ennaro
H ad
H ullo
I C
J ac
J ames
L ord
M ason
M any
M ES
N D
N or
P re
P er
P ut
P ost
R E
R oad
S u
S imp
S ince
S hafter
S ignor
S uppose
T is
T unbridge
T rue
T EN
V E
V alley
V ermissa
W ill
W oolwich
Y ard
a ly
a ur
a un
a ign
b u
b ad
b ill
b est
b ul
b us
b urn
b ited
b erty
c im
c il
c ard
c ry
c ig
c ause
c use
c ases
c itiz
d istance
d rawn
e h
e re
e ent
e ur
e qu
e ager
e aten
f a
f ing
f ar
f ur
f lo
f ine
f led
f air
f ail
f ix
f rank
f oot
f inger
f elt
g re
g ro
g ap
g reet
g irl
g ins
g reen
g loom
g old
g iving
h ot
h ip
h ung
h uge
h orror
h ills
h urried
i ally
i ated
i vers
i pping
i ency
i ogr
k illed
l od
l ace
l au
l ies
l aid
l ines
l eness
m is
m at
m ate
m ag
n at
n ch
n one
n ational
o x
o pped
o let
o spital
p h
p he
p ha
p ow
p ot
p se
p age
p rivate
p iece
p ressing
r is
r un
r ist
r owing
r ison
s en
s ive
s day
s ized
t ri
t ill
t ry
t own
t urn
t ried
t ips
u mes
v at
v ans
v alley
v als
w is
w it
w his
y ance
y sters
z ies
» ¿
ï »¿
Ġ 8
Ġ ing
Ġ ze
Ġ rival
Ġ ignor
Ġt im
Ġt our
Ġt ail
Ġt ense
Ġt ears
Ġt angled
Ġt ender
Ġt umble
he ren
Ġa in
Ġa head
Ġa ided
in a
in i
in it
in st
in et
in qu
in ning
in ci
in spect
in ates
in ating
in form
in nocent
Ġw o
Ġw ir
Ġw ave
Ġw ily
Ġw aking
Ġw retched
Ġs im
Ġs ore
Ġs ke
Ġs od
Ġs ought
Ġs way
Ġs que
re al
re qu
re ary
re spond
re fer
re port
re coll
re thren
Ġo be
Ġo ysters
er ity
nd a
nd ia
Ġm ould
Ġm ast
Ġm ild
Ġm isf
Ġm assive
is her
is hes
Ġb ol
Ġb ust
Ġb un
Ġb art
Ġb ull
Ġb ald
Ġb its
Ġb orn
Ġb ills
Ġb rilliant
Ġb urden
it o
it ure
it led
it ations
on na
ed ing
ed uc
Ġc as
Ġc ow
Ġc ot
Ġc ell
Ġc art
Ġc able
Ġc ran
Ġc rest
Ġc ash
Ġc ounc
Ġc ode
Ġc ivil
Ġc ertificate
Ġc upboard
Ġf id
Ġf et
Ġf are
Ġf ish
Ġf les
Ġf und
Ġf itting
Ġf ills
Ġf ading
Ġf ruit
Ġf asc
en ial
en zies
as se
as ions
as iness
as ped
Ġh it
Ġh ind
Ġh int
Ġh ue
Ġh ushed
Ġh udd
Ġto ile
Ġto tal
or ing
or ig
or able
or ations
ll en
ing le
ing ular
Ġd a
Ġd art
Ġd ru
Ġd irty
Ġd ashed
Ġd ancing
Ġd ashing
ĠI N
ĠI ndeed
Ġha th
Ġha lt
Ġha unted
Ġha ggard
an ical
ar ound
ar led
ar ies
Ġin ad
Ġin ference
Ġin ferences
Ġhe at
Ġl ion
Ġl ap
Ġl ake
Ġl imp
Ġl oun
Ġl awn
Ġp an
Ġp ri
Ġp red
Ġp ace
Ġp end
Ġp ens
Ġp aced
Ġp iled
Ġp oured
Ġp aused
Ġp itch
Ġp aler
Ġn ut
Ġn ice
Ġn av
Ġn ons
Ġn ative
Ġn ipped
Ġn ational
om ened
at a
at han
at ue
at ience
at ulate
ic ide
ic ip
Ġbe am
ot ent
im s
im ation
im son
im ate
im med
im ents
Ġg ar
Ġg um
Ġg room
Ġg ains
Ġg ifts
id ay
id ate
id den
st ra
st ery
st ern
st raw
st opped
Ġe ch
Ġe cc
se nd
se par
Ġwh ip
Ġis sue
ĠH am
ĠH omes
ĠH OL
ĠH arraway
ent ine
ent ral
ent ric
ir able
Ġhad n
ur al
ur sday
al ert
al most
al arm
al entine
Ġre ward
Ġre entered
Ġre aches
Ġas h
Ġas per
Ġas certain
Ġwith held
ad v
ad vice
ad dress
ĠM ed
ĠM ark
ĠM ike
ĠM etropolitan
ĠM orton
ro be
Ġst am
Ġst are
Ġst ated
Ġst ars
Ġst ories
Ġst unted
Ġst umbled
Ġsa nd
Ġsa int
Ġsa fer
ri ly
Ġan ec
ol ic
Ġme ek
Ġme als
Ġme asure
Ġme llow
Ġat rocious
ill er
ĠW ild
ĠS u
ĠS ay
ĠS te
ĠS ince
ĠS hall
ĠS urrey
our ces
our nal
Ġse x
Ġse es
Ġse nder
Ġse ason
Ġse venth
am ber
am azement
if ty
if tly
ĠB ro
ĠB ey
ĠB ank
ĠB illy
ĠB eside
ĠB rethren
ke pt
od es
od ay
od ox
ge on
Ġsh ud
Ġsh rank
Ġsh ield
Ġsh orter
red ul
red ulous
Ġsu nd
Ġsu cked
Ġr ic
Ġr ad
Ġr ul
Ġr ace
Ġr age
Ġr ules
Ġdo ck
ell ing
all ing
all ington
Ġbut t
pe ace
pe ople
pe nded
pe culiar
Ġso fa
Ġde gree
ĠA pp
ĠA bout
ĠA lec
Ġk iss
est ing
est abl
Ġall owing
ap ing
ap per
ap sed
ap pro
Ġno se
ul se
ul ated
Ġne at
Ġne cess
Ġne phe
th ro
th ick
th irty
th odox
Ġex isted
Ġex agger
qu et
Ġcon gr
Ġcon veyed
Ġcon cluded
Ġcon cerning
Ġout house
Ġout stretched
ust ed
ust ere
Ġkn ot
us ation
ok er
lo ok
lo sing
own s
own ed
ĠC ons
ĠC lay
ĠC hair
ĠC ivil
ĠC ontin
Ġcan e
ĠIt s
Ġor ch
Ġor thodox
Ġgo al
Ġle aning
ck les
ck oned
Ġour s
un c
un te
un expected
ast e
art ment
Ġv at
Ġv ult
ĠT en
ĠT ues
Ġal manac
ag r
ag on
ag ing
Ġtr im
Ġtr ained
Ġlo om
Ġlo af
Ġlo omed
Ġlo gical
ig y
ig ated
Ġmo an
pp osing
ĠL at
ĠL ucca
ĠD ear
ĠD unn
ĠD ike
ĠD esmond
Ġshe d
Ġshe lls
Ġcom ment
Ġcom rade
Ġcom mend
ist en
ven ed
Ġun c
Ġun seen
Ġun interesting
Ġun broken
Ġun kempt
Ġun ambitious
Ġab rupt
Ġfe ud
Ġfe male
Ġfe minine
me an
me ans
me nded
me lancholy
ak s
Ġli p
Ġli berty
ond s
ond ered
we ather
we ls
we eks
te legr
Ġj un
Ġj um
Ġj erk
Ġj ury
Ġro ot
Ġro pe
Ġro ared
Ġbr is
Ġbr ass
Ġbr istling
Ġqu oted
Ġqu alities
of fin
of orm
urn ished
um ing
um ably
Ġhand led
Ġpl ant
Ġpl aster
Ġpl anted
ect ing
ep ort
Ġtw inkle
Ġtw itching
act ed
ass y
Ġdown s
Ġdown ward
imp ression
imp ossible
Ġover taken
Ġaf ford
be ard
be come
be gan
be lieve
be cause
Ġpro v
Ġpro ves
Ġpro cess
ĠG u
ĠG et
Ġpre ci
Ġpre arranged
reat ed
ine as
Ġsp ort
Ġsp ared
oun ce
ab and
ab ove
ĠN e
Ġhow l
el ing
el ids
ance e
Ġown ers
ĠE d
ĠE li
ĠE ach
ĠE vil
ĠE vans
ru ded
ger y
Ġen abled
ĠF rench
pl aced
pl ans
Ġar ch
Ġar rang
ĠO F
ĠO ut
ĠSt and
Ġco vers
Ġco cked
Ġco arse
Ġco pper
Ġco olly
Ġbl own
Ġbl ows
au d
ci le
Ġsha de
Ġcl ipped
Ġcl uster
ĠP art
ĠP oultney
Ġgl it
Ġgl int
Ġcr ack
Ġcr ushing
Ġcr ouching
ount ed
ew are
ear lier
Ġimp ro
Ġimp rob
Ġimp rud
Ġimp rison
Ġgr ace
Ġgr anted
sh oot
Ġsc ale
Ġsc reen
Ġsc aff
Ġsc rawled
Ġper sec
not e
not ice
Ġob st
What ever
wh ite
Ġdis aster
Ġdis loy
Ġdis mal
so on
so le
so ciety
ask ing
Ġend ure
Ġhar sh
for ward
Ġeven ings
ne arer
Ġho le
Ġho llow
Ġho bby
Ġjust ification
de red
de br
de vil
per son
co ld
co gn
co vering
Ġpr inci
con ven
con clus
con stant
gg ers
Ġgreat ly
Ġhead quarters
ait s
fe et
fe ared
li ving
li ament
Ġlight s
Ġlight er
Ġear ring
Ġfar thest
ret urn
ret urned
Ġgu ided
Ġsec ured
Ġthrough out
ex cept
ex cellent
Ġret ained
Ġret icent
pr ot
pr ising
ord ers
ord inary
ord inates
ĠIn stead
Ġpres erv
Ġch ronic
Ġch ivalrous
Ġwork men
Ġmurd ers
Ġfl ashed
Ġwr ought
Ġwr ung
Ġwr iter
Ġwr inkled
Ġsur v
Ġint ol
Ġspe cim
Ġcur ving
Ġcur sed
Ġap ology
ery l
Ġnew comer
cl ist
Ġchan ges
Ġcha sing
Ġdist racted
Ġrep aration
Ġapp ly
Ġapp alling
Ġent husi
Ġreason er
Ġbro oding
ho st
ject ion
Ġact ed
Ġact iv
Ġcont act
com mon
com mend
ĠR ev
ĠR eport
Ġres ort
Ġres ided
Ġres ume
Ġres istance
Ġres erve
Ġres ignation
Ġres ources
Ġinterest s
Ġel aborate
ĠV ibart
Ġmin er
Ġacc ord
Ġacc ustom
Ġacc ording
Ġacc usation
Ġocc asions
Ġsho ving
Ġsho cked
Ġopen ly
Ġmet als
Ġconf ine
Ġconf ined
Ġconf ided
Ġconf usion
Ġconf idences
Ġadd ition
Ġsmall est
Ġsupp er
Ġsupp ort
Ġsupp osing
Ġjo ining
Ġjo vial
Ġsign ific
mem bers
ĠBr idge
ens es
Ġstr ain
Ġstr ained
Ġstr aining
su it
su ccess
Ġcor ners
Ġcor oner
Ġter rified
Ġwar m
Ġatt ract
Ġatt achment
Ġte a
Ġserv ices
Ġbeg ins
Ġrest ed
Ġrest ore
Ġrest less
Ġrest lessly
Ġsl ag
Ġfore see
Ġass ent
Ġass ist
Ġass ail
Ġexp enses
Ġmurder ous
ans wered
ans wer
Ġinv isible
Ġunderstand ing
Ġbusiness like
Ġsuggest s
Ġvisit ed
bl aded
do ll
do ing
os er
os es
Ġinc ome
Ġinc ess
Ġexc ite
Ġexpect ant
Ġchar ity
Ġbelie f
Ex cuse
Ġeff igy
ev il
ev ents
ev idence
Ġaw aited
Ġaw akened
Ġcare less
Ġinter cepted
Ġinter national
ĠHow e
Ġext ract
Ġext inct
Ġext racted
Ġext raordinarily
kn ife
sc ene
sc ape
ĠWest min
Ġaff ect
Ġaff ection
Ġpresent ly
Ġche ery
Ġche ek
ĠNo vember
wor king
pre hension
Ġten ants
Ġhigh ly
Ġdr owned
Ġpast e
Ġste am
Ġshow ing
Ġsent iment
ĠAmeric ans
Ġesc ap
Ġref res
Ġsub marine
ern worthy
Ġmon ot
Ġmon ster
arr ass
Ġrec ess
Ġkind ness
Ġchair s
riv ile
Ġreturn ing
ug ust
vious ly
Ġstud ents
amp aign
Ġaddress es
Ġaddress ing
Ġconn ect
Ġsecond s
hand ed
Ġcut ting
Ġlaw s
Ġpu ff
Ġpu zz
Ġobject ions
ob sc
Ġtre mend
Ġcent ury
Ġcap acity
Ġpower less
Ġeager ness
ĠCh rist
Ġoffic es
Ġdisc ol
Ġdisc our
Ġdisc ern
Ġfull y
can not
min able
min ute
Ġhor rified
Ġwhis k
Ġtrust y
Ġtrust worthy
over nment
Ġbur y
Ġbur row
Ġcol ours
Ġbeaut ies
Ġatte nded
ney s
Ġdevil s
St ill
St range
part s
Ġland ing
Ġnarr owly
Ġgener ous
Ġsingular ly
sha w
sha pe
Ġsn ar
Ġsn ap
Ġsn ips
Ġopp ress
Ġopp onent
Ġgri ev
Ġru bbing
Ġpost p
Ġpost scri
cent re
cent ral
after wards
Ġtri ggers
inc ing
Ġlod ges
Ġlod ging
Ġpen cil
Ġappro ving
Ġill ust
Ġill um
Ġcig arettes
ĠWh ile
Ġdel ay
appe ars
Ġpress men
ĠTh us
ĠTh ink
ĠTh ose
Ġtelegram s
ax ing
sing le
Ġmed d
Ġmed ic
Ġfix edly
Ġreg ular
Ġreg arded
Ġreg istered
unt s
Ġvi br
Ġvi olet
Ġclean ed
should er
Ġinvestig ator
Ġcharacter s
gu ed
gu ess
long ed
Ġcard board
str ate
str icken
Ġrel axed
Ġsum mons
who le
Ġshadow y
cr ow
Ġve il
Ġve xation
Ġve hem
Ġve lvet
Ġbound s
Ġbound ing
Ġcommun icated
Ġcommun ication
fl ies
par ative
Ġlim b
Ġpay s
bit ants
old ed
Ġtor s
Ġhat red
Ġsett ling
Do es
Ġed itor
Ġfine ly
Ġsuper ior
Ġval uable
Ġthank s
about s
Ġconfess ion
Ġterror ized
Ġconvict ion
Ġattempt s
Th rough
cha sed
op inion
Ġage nda
Ġmad man
Ġfree ly
Ġhair y
Ġforg ot
Ġforg iven
ĠSome one
Ġcomp rom
Ġty p
res ult
Ġmis ery
Ġmis chie
Ġcond itions
Ġins ignificant
Ġrail ings
Ġdec ide
ĠDid n
Ġque en
Ġfool ish
ĠRe illy
Ġdrink ing
ĠUn til
Ġviol ently
ines e
Ġce iling
Ġfright ful
Ġhung ry
Ġgle amed
Ġgrave l
Ġgrave ly
Ġang rily
ĠBe ing
ĠBe fore
Ġsuspect s
Ġvague ly
Ġpret ence
Ġscream s
Ġappo inted
wind ows
Ġast ute
Ġsad dle
Ġloud ly
Ġport raits
Ġsuccess fully
Ġtrave lled
Ġboard ers
Ġcho ice
Ġcho oses
Ġdifferen ces
Ġemploy er
Ġemploy ers
Ġemploy ment
foll ow
foll ows
foll owing
Ġ2 704
Ġproceed ing
Ġgrim ly
Ġempt ied
Ġcorrespond ed
good s
vo ice
Ġsal t
Ġsuit or
pend ent
Ġflat s
Ġdeterm ine
Ġshock ing
pres ence
Ġticket s
Ġmurm ured
Ġcra ft
Ġcra zed
Ġpar lour
Ġpistol s
irt s
Ġseat s
Ġorgan iz
Ġleg s
Ġleg ible
Ġimpat ience
Ġconsult ed
Ġconsult ation
Ġcourt s
Ġforeign er
Ġforeign ers
Stapleton s
Some body
des ire
fr amed
Ġcre ak
Ġcre pt
Ġlur ked
Ġpow der
Ġweak ened
Ġreve als
Ġexcl aimed
Ġgrass y
Ġsche mes
Ġsche ming
clo se
cise ly
mit igated
Ġwis dom
Ġorig in
Ġfurn ish
Ġfurn aces
vere ign
Ġweap ons
hard ly
spir ation
Ġexpress ive
Ġhonest ly
go ing
Ġble w
Ġble ak
Ġble eding
Ġfle et
Ġinf am
Ġincl uded
Ġpun ish
Ġgro an
stran ce
stran ger
Ġthreat ening
ĠSpan iard
Ġtroub les
Ġtroub ling
Ġje wels
Ġprep are
Ġimpl ic
Ġimpl ore
Ġdesert s
exam ination
Ġchuck le
Ġchuck ling
Ġextreme ly
Ġrecord s
investig ations
ele gate
spe cial
vis it
Ġauthor ities
Ġwa ved
Ġwand ering
Ġsens itive
remem bered
Ġban ked
Ġbank s
Ġnet s
Ġrecom mended
Ġdep ths
Ġtrail ing
ĠOr der
ĠOx ford
Ġappre hension
gentle men
murd e
murd er
say ing
Ġtin y
Ġtap ping
Ġspect ral
Ġmount ed
Ġcaut ion
Ġcaut iously
Ġfly ing
Ġgen uine
Ġstro ll
Ġstro lled
Ġfever ish
Ġprete xt
conce al
Ġrecall ed
dri ving
del ight
hor ribly
prom ising
sil ence
Ġtal ent
Ġtast e
Ġfi ancee
Ġbelong ed
stand ing
Ġrequ is
Ġrequ est
Ġreck less
Ġstern ly
Ġsepar ated
Ġrust ling
Ġvol unte
Ġarg ument
Ġclass es
Ġprint ing
Ġpenetr ated
Ġassoci ated
Americ a
bar rel
lor oform
power ful
Ġtuft ed
Ġmort als
Ġbould er
Ġcitiz ens
Ġfro ck
Ġgru ff
Ġsevere ly
Ġrum ours
Ġdeli ver
Ġdelight ed
Ġexult ant
agger ing
ĠLe ave
Ġaband on
Ġboss es
Ġcop y
Ġcris p
Ġprot est
conn ected
Ġfarm ers
Ġblackmail ing
Ġpossib ilities
Ġimm ense
Ġslight ly
Ġslight est
Ġeduc ation
Wh ite
em otion
eff ect
Ġmat ches
Ġmus ic
Ġmag istrate
Ġcoun sel
Ġcord ial
stit ution
Ġrepl aced
Ġanno yed
Ġanno yance
Ġras ping
Ġsold ier
Ġdem ure
Ġdece ption
Ġnois y
Ġnois eless
Ġconcern s
ĠDe ath
Ġcomb ined
Ġcomb ination
Ġjaw s
Ġencour aged
Ġencour aging
Ġgras p
Ġoper ations
Ġende avoured
need ed
Ġpeace ful
Ġconfident ial
Ġinval id
Ġrefer red
Ġfootmark s
Ġdischar ge
Ġpersu ade
Ġpersu aded
Am ong
cir cumstances
cast le
shad ow
Ġiv y
Ġiv ory
Ġsac rific
rem ains
Ġmix ed
Ġben ch
Ġben ev
Ġinha bited
Ġinha bitants
Ġgn arled
rol men
Ġuncom mon
Ġprecise ly
ĠPar is
Ġcrit ical
Ġscr ap
Ġscar ce
post master
Ġemb arrass
observ ed
Ġpatient ly
Ġcharacterist ic
Ġcharacterist ics
contin ued
detect ive
detect ives
Ġtipto e
Ġtipto ed
fam ily
lim ited
swe ar
sign ed
resh old
Ġmor ass
Ġblo ody
Ġbuck shot
Ġcy cle
Ġcal cul
Ġcott age
Ġdam ned
arg ument
Ġlaure ls
state ment
stretch ing
sect ing
ĠHalf way
Ġasse mbly
Ġwithd raw
Ġrus set
ĠCl ub
ĠTH E
Ġune asy
Ġfee ble
Ġquee rest
Ġprepar ations
Ġadopt ed
Ġimper ious
Ġchim ing
Ġintr usion
Ġdistingu ished
Ġfrown ing
Ġindividual s
Ġbread th
Ġirr itable
Ġbuzz ing
Ġsquee zed
occasion al
ĠWillaby s
break fast
Ġ188 2
Ġaccompl ice
ĠAdmiral ty
satisf action
Ġanticip ation
ĠAfric a
Ad mir
Ch icago
Que er
bur st
pu zzled
sk irts
trave lled
vi olence
Ġalo of
Ġack nowledge
Ġtheat re
respons ibility
Ġcaus es
Ġhol iday
organ ization
Ġdign ity
Ġhaz el
Ġnin ety
Ġgig antic
stud y
Ġetern al
ĠHA VE
Ġancest ors
olith ic
Ġath le
Ġsequ ence
Ġrout ine
Ġexert ions
Ġbyg ones
Ġleis ure
Ġlean jawed
Ġtrous ers
Ġposit ive
Ġunif orm
Ġprecaut ions
ĠOb viously
ĠPres ently
Ġbetr ayed
Ġobli ge
eye brows
Ġcommiss ion
Ġsuppos ition
Ġslam ming
Ġreflect ion
Ġfreed om
Ġgrips ack
Ġsummon ed
Ġfortun ate
Ġcelebr ated
Ġdeclare s
Ġquarre lled
Ġepis odes
Fa ith
Pre cisely
Per fectly
TEN TA
aur ant
aun ty
eent h
iogr ap
lau gh
sen al
inform ation
Ġwir y
Ġsore ly
Ġmisf ortune
Ġcot ton
Ġfid get
Ġfund s
Ġtoile t
orig inal
Ġnons ense
Ġech oed
Ġecc entric
ĠHOL MES
Ġasper ity
ĠMark et
Ġanec d
amber well
ĠBey ond
redul ity
establ ished
Ġnephe w
Ġcongr atulate
ĠCons ider
ĠClay ton
ĠChair man
Ġvult ure
ĠTues day
ĠEli z
Ġarrang ing
Ġimprob able
Ġimprud ent
Ġscaff old
Ġdisloy al
debr is
Ġactiv ity
Ġaccustom ed
Ġsignific ance
ĠWestmin ster
Ġpuzz les
Ġtremend ous
Ġpostscri pt
Ġvehem ence
Ġmischie vous
Ġvolunte er
Ġnoiseless ly
' ?âĢĿ
' --'
) .
. --
0 0
1 7
4 2
5 0
6 4
? --
A C
A l
A r
A pp
A ldgate
B en
B aden
B ruce
C o
C ol
C adogan
C aliforn
C roydon
C olonel
C aulfield
C urious
C ontin
C apital
D ay
D ev
D EAR
E n
E du
E ccles
E asy
F ive
F oul
F olk
F oot
F irst
F airbairn
G E
G L
G l
G et
G orgiano
G erman
G overnment
H alf
H arg
I G
I R
I T
I m
J im
L E
L O
L ife
L ST
M a
M or
M ight
M ont
M etropolitan
N am
N ew
N ext
N orth
O F
O ld
O cc
O ff
O berstein
O ctober
P o
P into
P orlock
P oor
P hil
P rove
R ED
S h
S pe
S um
S ple
S ix
S outh
S arah
S orry
S uddenly
T iger
T wice
V ell
W ar
Y et
Y ork
Z amb
] :
a e
a ver
a ide
a ult
a ired
a ustere
b on
b at
b ould
b ust
b led
b ull
b ably
b ital
b ones
b ilities
b rilliant
b reath
c ut
c et
c and
c us
c ade
c oun
c ru
c ord
c ised
c als
c uff
c ouple
c ision
c ertificate
c offin
d y
d im
d ut
d our
d ry
d ate
d ew
d ear
d ull
d ign
d rew
d ouble
d read
d ale
d ying
d inner
d readful
d ressed
d isease
d ressing
d aughter
d rove
e ve
e ep
e ment
e man
e ach
e ople
e mpt
e ague
e alous
e avoured
f ed
f et
f ight
f il
f ate
f are
f ather
f ling
f og
f itting
f arm
f arther
f antastic
f ortune
f ortunately
g s
g ly
g the
g one
g ant
g age
g ger
g ained
g rave
g irt
g iven
g encies
g ina
g enial
h ou
h on
h ol
h ide
h igh
h otel
h ounds
h idden
i pe
i ation
i ate
i ers
i pl
i ary
i ery
i ents
i use
i ors
i ences
j ac
j oke
j ourney
k some
k ins
l en
l ic
l est
l ap
l ive
l ist
l ink
l ers
l atter
l ated
l ord
l ined
l ater
l iness
l ower
l amp
l owly
l onely
l ky
l aughter
l amps
l odger
m m
m ad
m ach
m atch
m bl
m aker
m aybe
m atic
m otion
m ises
m ples
m ottled
n am
n ine
n el
n arr
n acle
o o
o id
o pp
o ci
o oth
o ors
o oking
p ir
p al
p ri
p pe
p ers
p are
p ull
p hy
p aced
p ier
p ides
p icture
p ounds
p aused
p ulous
p ulation
p orations
p rivile
r as
r ich
r ong
r are
r ical
r ushed
r aint
r ising
r amed
r ages
r icated
r inkled
r ouching
s n
s ou
s le
s ent
s ol
s ake
s pl
s man
s up
s mo
s ens
s ense
s orrow
s harp
s ometimes
s inister
s pered
s cientific
s leep
s ounded
s lips
t in
t ist
t ies
t ouch
t ured
t inted
t angle
t ipped
t angled
t ete
t rivial
t omorrow
u x
u ing
u id
u ght
u ssi
u ary
u ated
u ced
u bl
u ctor
u ises
v an
v ation
v ag
v ated
v ents
v idence
v ague
v arious
w alk
w ater
w alked
w arr
w arm
w enty
w icked
w edding
w aited
w idow
w aste
y e
y s
y ear
y ellow
y nes
y ste
y clo
y nam
z ig
z agged
Ġ 9
Ġ Quick
Ġ Zamb
Ġt ing
Ġt end
Ġt ear
Ġt read
Ġt ired
Ġt ale
Ġt ins
Ġt inted
Ġt ax
Ġt rop
Ġt reading
Ġt ete
he ll
he ar
he ver
he els
he althy
he rent
Ġa x
Ġa im
Ġa we
Ġa pr
Ġa str
Ġa uster
in f
in y
in er
in en
in ch
in ant
in ated
in cl
in spector
in struct
Ġw ing
Ġw il
Ġw ig
Ġw ink
Ġw ake
Ġw reat
Ġw ary
Ġw aving
Ġw ax
Ġw aning
Ġw ading
Ġw reath
Ġw ondered
Ġthe ft
Ġs ack
Ġs ong
Ġs han
Ġs ord
Ġs orrow
Ġs inc
Ġs anity
ou p
ou ches
re es
re ened
re ach
re lie
re pro
re cei
re ceived
re vol
re ased
re call
re asy
re asurer
re aks
re placed
re cogn
ha l
ha mes
ha mpt
Ġo ce
Ġo mn
Ġo wing
er th
er ile
er ulous
nd e
Ġm es
Ġm our
Ġm il
Ġm um
Ġm ull
Ġm ask
Ġm aze
is se
is diction
Ġb or
Ġb ay
Ġb ri
Ġb od
Ġb one
Ġb ud
Ġb loom
Ġb itten
Ġb attle
Ġb onds
Ġb iograp
Ġb erth
it ent
it ched
it ors
it ering
it ives
on ies
on ents
on ized
on ze
on ounced
on strance
ed ar
ed ges
Ġc u
Ġc ough
Ġc his
Ġc owed
Ġc ows
Ġc ages
Ġc redible
Ġc attle
Ġc reated
Ġc ampaign
Ġf ed
Ġf ame
Ġf ist
Ġf ence
Ġf ab
Ġf ert
Ġf ath
Ġf ile
Ġf lood
Ġf ern
Ġf ang
Ġf itted
Ġf acing
Ġf ists
Ġf ulf
Ġf umes
en es
en ch
en ade
en ning
en ced
en abled
as hes
as ured
Ġh ood
Ġh oney
Ġh ilar
es y
Ġto es
Ġto ast
Ġto ler
or ch
or us
or ation
or ial
or ms
or ned
or sed
or bital
ll e
ing y
ing encies
Ġd our
Ġd ust
Ġd we
Ġd ime
Ġd ise
Ġd oub
Ġd ated
Ġd ip
Ġd ash
Ġd ug
Ġd anced
Ġd awn
Ġd itch
Ġd reary
Ġd ata
Ġd apper
Ġd ingy
ĠI S
ĠI ndia
Ġha m
Ġha le
Ġha ven
Ġha ste
Ġha ckles
Ġha unts
an ch
an cy
an cient
an uary
ar i
ar ly
ar ched
ar rival
hat red
Ġin her
Ġin ert
Ġin ward
Ġin action
Ġin jected
Ġin suff
Ġin scri
Ġin spiration
Ġhe d
Ġhe ct
Ġhe el
Ġhe aped
Ġl ic
Ġl ac
Ġl ent
Ġl ure
Ġl ush
Ġl ashed
Ġl amb
Ġl ux
Ġl inen
Ġp ard
Ġp ite
Ġp itt
Ġp oun
Ġp ert
Ġp ail
Ġp ict
Ġp aw
Ġp ip
Ġp atch
Ġp aces
Ġp ush
Ġp ony
Ġp ouring
Ġp hot
Ġp orch
Ġn ort
om ology
Ġy ard
Ġy ield
at s
at he
at om
at ra
at itude
at hetic
âĢľ --
ve ted
ve ments
ve lled
ve ls
ow l
ow ers
ow led
ow ery
ow rers
ic ian
ic ative
ic acy
ic kered
ic iency
ic hever
Ġbe e
Ġbe et
Ġbe ars
Ġbe nded
Ġbe gged
Ġbe arer
Ġbe ckoned
Ġbe lated
le aving
le gend
le aning
le ndid
ot hing
ot ets
Ġwas ted
im on
im au
im mer
im medi
im inate
Ġg or
Ġg od
Ġg ait
Ġg ross
Ġg ently
Ġg ilt
Ġg rooms
Ġg orse
Ġg aunt
Ġg ables
Ġg host
Ġg reasy
id an
id ue
Ġu gly
st ar
st ay
st ain
st are
st ared
st rang
st aff
st ories
st arted
st rength
st imul
st yle
Ġe h
Ġe gg
Ġe aves
se vere
se nding
se ction
se edar
Ġth um
Ġth ud
Ġth ins
Ġth ief
Ġth umb
Ġth orough
Ġth reshold
ut able
ut tered
ut ches
ac her
ac ass
ac cess
ac compl
ac cepted
ac iated
Ġwh ining
Ġwh ipped
Ġwh istling
Ġwh ims
Ġwe e
Ġwe pt
Ġwe igh
Ġwe aring
Ġwe aker
Ġwe althy
Ġwe eping
et ro
et ime
et able
et ite
et ting
ver ie
ĠH on
ĠH ark
ĠH of
ĠH amp
ĠH aving
ĠH unt
ĠH ospital
ent ing
ent ance
ent ions
ent ative
ent ured
ent irely
ir ium
ir relevant
ur b
ur se
ur ke
ur ch
ur isdiction
al es
al ive
al ong
al ien
Ġre ly
Ġre cl
Ġre cei
Ġre vo
Ġre verie
Ġas pect
Ġas hes
Ġas pir
Ġfor gery
ad mir
ad vertise
ght er
ĠM ore
ĠM ight
ĠM ust
ĠM ake
ĠM ine
ĠM el
ĠM aster
ĠM ister
ĠM ans
ĠM oor
ĠM enzies
ĠM iller
ĠM oser
ĠM lle
ĠM otets
ro ll
ro cks
ro lling
Ġst ir
Ġst up
Ġst amp
Ġst orm
Ġst ub
Ġst atue
Ġst erile
Ġst anch
Ġsa le
Ġsa un
ri ve
ri lled
Ġan t
Ġan ge
Ġan tim
Ġan atom
ol o
ol ent
ol ves
ol ted
Ġnot or
Ġnot ion
Ġnot ices
Ġme al
Ġme asured
ill e
ĠW he
ĠW ind
ĠW inc
ĠW ork
ĠW rit
ĠW idow
ĠW allington
ĠS w
ĠS it
ĠS her
ĠS pe
ĠS ame
ĠS imp
ĠS ave
ĠS omething
ĠS itting
ĠS uff
ĠS ignor
ĠS ingular
ĠS lowly
out hampt
her n
her s
our n
our ishing
Ġup shot
Ġse af
Ġse arched
am id
am our
if ted
if ferent
ĠB E
ĠB ap
ĠB el
ĠB ull
ĠB ecause
ĠB eware
ĠB eryl
ĠB urke
ore r
ore s
ke y
od d
ct urn
Ġsh illing
Ġsh immer
and a
and s
and er
and ers
Ġsu ck
Ġsu ms
Ġsu ited
Ġsu llen
Ġsu icide
Ġsu lky
Ġsu pers
Ġr ud
Ġr hy
Ġr ows
Ġr ash
Ġr idge
Ġr ug
Ġr ush
Ġr ails
Ġr agged
Ġr acing
Ġr ays
Ġdo ings
ess ential
ell y
ell ig
all s
all owed
il ight
il ation
ble ms
Ġso il
Ġso ci
Ġso cial
Ġso bs
Ġso bbing
Ġde er
Ġde pl
Ġde co
Ġde arest
Ġde pended
Ġde mean
ind ly
ind ict
ind ex
ind icated
ind ications
ĠA u
ĠA ND
ĠA ugust
Ġk in
Ġk ing
Ġk id
Ġk enn
ch in
ch ill
one ous
est ic
Ġall y
ard ized
ap on
ap our
ap us
ap pl
ap ping
ap sing
ap ology
Ġno on
Ġno ises
Ġno stri
Ġno cturn
ul ed
ul ant
ul ations
ul sion
ul sive
Ġne cks
th m
th reat
th ud
th umb
th ony
th irst
th rop
th rowing
Ġwhe el
Ġex it
Ġex ter
Ġex te
Ġex ec
qu or
qu ality
qu imau
Ġthere of
Ġthere abouts
to bac
ant ry
ant ity
Ġcon no
Ġcon tempt
Ġcon spire
Ġcon genial
Ġout set
Ġout spoken
Ġout burst
Ġout skirts
Ġout paced
Ġout rages
ust s
ust ry
Ġkn o
us al
us age
ok s
lo ve
lo se
ĠC re
ĠC are
ĠC ra
ĠC ab
ĠC arter
ĠC any
ĠC row
ĠC redit
ĠC urious
ĠC apital
ĠC entral
ĠC amberwell
ĠC yclo
ĠC apus
ack nowledge
Ġsome body
Ġcan vas
ĠIt aly
Ġgo at
Ġgo yal
Ġle aped
Ġle aping
Ġle velled
un less
un cle
un ique
un ette
un icip
un mitigated
ast on
ast rop
art ure
Ġv ar
Ġv est
Ġv ener
Ġv ote
Ġv icious
Ġv entured
ort ion
ĠT ra
ĠT otten
ĠT wice
ĠT omorrow
ĠT oday
ĠT hames
Ġal ter
Ġal arms
ag ent
ag ers
ag ious
ag reed
ag gling
ong rat
Ġtr ails
Ġtr aff
Ġtr apped
Ġtr unk
Ġtr aver
han t
Ġlo c
Ġlo ite
Ġlo ving
Ġlo vers
Ġlo sing
Ġlo aded
Ġlo athe
ig an
ig ion
ig ured
ig matic
Ġmo od
Ġmo ated
Ġmo aning
pp o
pp le
ĠL ou
ĠL ight
ĠL ast
ĠL ass
ĠL ittle
ĠL ang
ĠL uc
ĠL isten
ĠL ooking
ĠD irect
ĠD OU
ĠD EAR
ĠD elegate
ĠD ubl
Ġshe er
Ġshe lf
Ġcom ic
Ġcom prising
Ġcom prehension
Ġcom parative
Ġpo ised
Ġpo pulation
Ġpo orer
ist ent
ist led
Ġany way
ven ly
Ġwhen ever
Ġun ion
Ġun br
Ġun ten
Ġun rave
Ġun expl
Ġun expect
Ġun natural
Ġun shaven
Ġun mist
Ġun concerned
Ġun necessary
Ġun won
Ġun ivers
Ġun limited
Ġun signed
Ġab ack
Ġab ility
Ġab road
int rodu
int ended
int entions
int ellig
Ġfe l
Ġam i
Ġam iss
Ġam ount
Ġam used
Ġam bush
Ġam bus
me et
me al
me aning
ink ling
ak ers
ak able
Ġli ed
Ġli br
Ġli quor
Ġshould n
we apon
te ous
te les
te rest
te xt
te ars
te nded
te mper
Ġj est
Ġj ail
Ġj ung
Ġj ump
Ġj otted
Ġj utted
Ġj aunty
Ġj urisdiction
Ġj olted
Ġro aring
Ġro lling
Ġro lls
Ġro bust
Ġro yste
Ġbr av
Ġbr uises
Ġbr onze
Ġbr istled
Ġqu it
Ġqu arry
Ġqu iver
Ġqu ote
Ġqu antity
Ġag itation
Ġag onized
um med
um bered
Ġhand ling
Ġpl ate
Ġpl ough
Ġpl ank
Ġpl ants
Ġpl ates
Ġpl ume
Ġpl otting
ect or
ect ions
Ġtw inkled
Ġtw itched
Ġtw ilight
act ive
act ory
ra vag
ass ure
ass ured
ass ignation
ass oci
Ġdown right
Ġdown fall
imp ress
imp atience
It s
Ġover shad
Ġover hung
be coming
Ġpro ject
Ġpro pit
Ġpro vin
Ġpro sec
Ġpro found
Ġpro port
Ġpro vis
Ġpro longed
Ġpro strate
Ġpro spered
Ġpro blems
ĠG ord
ĠG reek
ĠG eneral
Ġpre y
Ġpre ced
Ġpre occupied
Ġpre historic
Ġpre vents
Ġsp o
Ġsp ies
Ġsp lit
Ġsp lay
Ġsp rawling
Ġsp otted
Ġsp lendid
ab iding
ab ilities
end eavoured
ert s
ĠN i
ĠN or
ĠN ear
ĠN av
ĠN aples
pt ions
Ġfo aming
Ġfo cus
Ġfo eman
el come
el ibly
el aide
Ġoff hand
Ġoff ering
Ġoff ensive
ĠE ight
ĠE ither
ru g
ru pulous
Ġad jo
other s
other wise
ĠYou ng
Ġback ward
Ġen lar
Ġen igmatic
Ġlook out
ĠF e
ĠF ore
ĠF ather
ĠF oul
ĠF ortunately
ĠF ernworthy
Ġbo on
Ġbo ards
Ġbo arded
Ġbo lder
pl ain
pl aces
pl icate
Ġar ise
Ġar gued
gl es
ĠO ver
ĠO ctober
ĠSt ud
ĠSt range
ĠSt aples
Ġco ps
Ġco ining
Ġco ars
Ġey elids
Ġbl ur
Ġbl ast
Ġbl uff
Ġbl inking
Ġbl otting
Ġbl otched
au ded
ci ation
ĠWe ald
man ed
man ne
man ner
man ager
man aged
Ġgood s
Ġsha ke
Ġsha ving
Ġsha ped
Ġsha ky
Ġnight ly
Ġnight fall
Ġget tin
Ġcl ay
Ġcl ink
Ġcl ick
Ġcl ank
Ġcl ung
Ġcl ump
Ġcl aret
Ġcl ues
Ġcl iff
Ġcl utch
Ġcl asped
Ġcl othing
Ġcl utches
ood oo
ĠP o
ĠP ath
ĠP olice
ĠP ott
ĠP os
ĠP icture
ĠP rivate
ĠP erm
ĠP oly
ĠP enge
ĠP acket
ĠP ossibly
ĠP lace
ĠP eople
Ġgl ist
Ġgl ib
Ġgl amour
Ġsm ould
Ġsm oot
Ġsm udge
Ġsm ooth
Ġcr ash
Ġcr amp
Ġcr ump
Ġcr ouched
Ġcr aggy
Ġcr imson
Ġcr usts
Ġcle ans
Ġimp et
Ġimp rove
Ġimp otent
Ġimp ulse
Ġgr own
Ġgr ate
Ġgr ows
Ġgr acious
Ġgr atitude
sh ine
sh ook
sh ock
Ġsc ore
Ġsc are
Ġsc rew
Ġsc uff
Ġsc ope
Ġsc owling
Ġsc reened
Ġsc owl
Ġper il
Ġper man
Ġper form
Ġper cept
ton ight
There fore
atter y
ving ton
Ġunder ne
Ġthr one
ign s
ful ness
Ġdis re
Ġdis po
Ġdis reg
Ġdis pose
Ġdis pat
Ġdis armed
Ġdis play
so ap
so bbing
so vereign
sp an
sp ot
sp ent
sp ass
sp oke
sp rang
sp ring
sp itable
sp angled
Ġrem ind
Ġrem orse
Ġrem onstrance
po ison
po sure
Ġpass enger
Ġend less
Ġwind y
Ġwind lass
ness es
for ce
for bid
get ation
ne xt
Ġho ly
Ġho ping
de b
de c
de ed
de gree
per ience
per ately
per fectly
co incidence
ren ew
ren ces
Ġpr ince
Ġpr owling
Ġpr owled
con y
con ist
con sc
con tr
con fess
con struct
con vey
Ġevery where
gg ing
gg led
Ġgreat ness
ail ed
ail road
Ġpart ed
Ġpart ner
Ġpart ners
We re
ict ed
fe red
li pped
Ġdark er
Ġdark ens
Ġfound ed
Ġever gre
Ġfar mer
pan ed
pan es
Ġdes cent
Ġdes erved
Ġdes pair
Ġdes pot
Ġdes perately
ĠThen ce
Ġpe at
Ġpe aled
Ġpe aked
Ġgu ineas
ĠWhat ever
ex ult
ex actly
ex posed
Ġans wers
Ġret ain
Ġret ire
Ġret iring
pr ised
pr ison
mer cial
Ġdoubt ed
ĠIn side
ĠIn firm
Ġch illed
Ġch loroform
Ġch orus
Ġch urch
Ġac hed
Ġmen ace
aster n
alk ing
with held
Ġwork s
ner ve
Ġfl own
Ġfl int
Ġfl ies
Ġfl owed
Ġfl att
Ġfl urried
Ġwr inging
Ġsur ly
Ġint ake
Ġint ens
Ġint rig
Ġdeath ly
Ġcall ous
Ġcall ers
ĠDouglas es
Ġspe nd
Ġspe ck
Ġcur led
Ġcur ling
Ġdet ection
gr own
gr ace
Ġinte nd
Ġinte nding
Ġread er
Ġread iness
cl ay
cl ad
cl oud
cl aimed
Ġset tee
ach ie
Ġcount ed
Ġcount ing
Ġcount ries
Ġdist urb
Ġrep air
Ġrep entance
Ġrep ulsion
aw ing
aw are
Ġapp etite
Ġwait s
Ġwait er
Ġent angle
Ġent itled
Ġent omology
Ġcons um
Ġcons umed
Ġcons istent
ip ment
Ġside ways
Ġside walk
Ġfear ing
Ġfoll ows
br ing
br ow
br ains
br istling
br inging
br immed
Ġgi ps
ho spital
Ġcont ains
Ġcont ract
Ġcont ingencies
az ette
com rade
com fort
com mission
com pany
mo ved
Ġhear th
ĠR o
ĠR es
ĠR ae
ĠR ussi
Ġres c
Ġres isted
Ġres olutely
Ġres idue
Ġwhole hearted
Ġel uc
Ġel iminate
ĠV io
ĠV alentine
Ġmin im
Ġacc ost
Ġsho e
Ġsho ve
Ġsho pping
Ġvo cab
Ġopen s
Ġbar red
Ġbar row
Ġconf used
Ġconf irm
Ġconf irmed
Ġadv is
Ġadv ised
Ġadv ances
Ġsmall er
fic ial
Ġim age
Ġim pend
Ġsupp le
Ġsupp ly
Ġsupp ressed
Ġsupp lies
Ġappe al
Ġappe aling
ild ing
Ġsign ed
Ġsign ature
mem ory
Ġsil vered
Ġsil hou
Ġstr ide
Ġstr ident
su pp
su per
Ġter m
Ġter rier
my ster
my stery
Ġwar ily
Ġwar mer
Ġatt ain
land s
Ġvis ion
ggest ive
Ġte ach
Ġte ens
Ġind oor
Ġind isc
Ġind ignation
Ġind escri
Ġind orsed
Ġind ustry
Ġind elibly
Ġcountry man
Ġdoes n
und one
und ert
und oubtedly
Ġrest ful
Ġrest aurant
Ġrest raint
Ġsl im
Ġsl ant
Ġsl ime
Ġsl inking
Ġexam ples
Ġfore finger
Ġdra b
Ġdra wer
Ġem aciated
Ġass umed
Ġass urance
Ġexpl ore
Ġkeep er
Ġbre ed
Ġbre ach
Ġexp lo
ec ond
ĠY ear
ĠY OU
Ġsw irl
Ġsw elled
Ġsw aggering
Ġcab aret
esc aped
Ġinv ent
Ġinv ention
Ġinv itation
Ġinv olves
Ġunderstand s
Ġunderstand able
Ġpur se
Ġpur ple
Ġstart led
iv ably
Ġsto ck
Ġsto ps
Ġsto oping
Ġmark ing
Ġrun g
Ġdev ised
Ġdev ote
In terest
bl er
bl ow
do es
Ġinc hes
Ġinc redulous
Ġinc losing
Ġran k
Ġexc av
Ġexc iting
Ġexpect s
Ġexpect ation
Ġstrange ly
Ġinde pendent
Ġinde cision
ĠSo ciety
Ġchar m
Ġchar red
Ġchar ged
Ġchar ities
Ġchar ming
ĠMac Nam
onder ful
Ġperson ality
house keeper
Ġsound ed
Ġeff iciency
Ġexce ll
Ġquestion ed
ev ent
ev ident
win ter
would n
Ġaw oke
Ġcare lessness
Ġinter val
Ġinter fere
Ġinter vals
Ġinter vened
Ġinter minable
Ġext ra
Ġquick ened
kn ows
sc reen
bed room
bed ded
Ġche cked
Ġdirect ness
Ġra ving
use less
wor th
wor ked
Ġtalk s
Ġhur l
Ġspeak er
pre serve
pre arranged
pre text
Ġten or
Ġten acity
Ġlar gest
Ġste al
Ġste alth
ee med
Ġreport ing
Ġesc orted
Ġturn s
Ġbad ge
Ġnor mal
Ġref usal
Ġsub stant
Ġsub mitted
Ġsub stitution
Ġmon key
Ġrec ur
Ġrec ruit
Ġrec ounted
Ġmeet s
Ġmeet ings
Ġshot s
Ġconv entional
Ġfeel s
Ġfoot fall
Ġfoot print
Ġhold s
fin ally
fin ished
lan tern
Ġ1 0
Ġ1 1
Ġ1 2
Ġ1 4
Ġ1 5
ene ath
ene my
Ġdeal ings
Ġreturn s
Ġbit ing
Ġbit tern
ĠAn thony
Ġcompanion ship
ser ver
Ġblood hound
Ġblood stained
Ġblood hounds
Ġlau ghter
Ġpath s
Ġpath way
Ġstud ied
Ġstud ying
Ġboot maker
light ed
light ly
some body
Ġir res
Ġir relevant
Ġir ksome
Ġhum ili
Ġhum orous
ste ms
tr usive
Ġcut s
Ġcut ter
Ġprom ising
Ġprom enade
Ġobject s
like ly
Ġorder ly
fess ion
ob ject
ob serve
pro fession
Ġtre asure
Ġtre asurer
Ġcap ture
ific ial
ĠCh ronic
ĠCh inese
Ġoffic ers
Ġdisc losed
tain ing
Ġled ge
Ġnum bered
Ġnum bers
Ġvill a
min ers
min ated
Ġsk unk
Ġlist lessly
Ġwhis ked
vers ion
Ġconsider ation
du ced
over ness
Ġsol itude
Ġcol oured
asion ally
any where
aint ances
Ġtrack s
Ġtrack ed
Ġpract ised
Ġdevil ry
Ġdevil try
.' âĢĿ
.' --'
Is n
St ation
Ġhundred s
Ġland scape
Ġland lord
Ġnarr owed
Ġgener ally
Ġgener ations
Ġsusp ense
ĠAll an
ĠBrother s
Ġdraw ings
Ġinquir ing
mark s
sha ken
under stand
under stood
Ġsn ake
Ġsn apped
Ġsimp ler
Ġmid st
Ġhon oured
Ġru ined
Ġru ins
Ġru gged
Ġeye brow
Ġmist s
que er
Ġlead ers
Ġpost master
Ġwonder fully
Ġsli ps
Ġpat ent
Ġpat hetic
see m
see ing
Ġreal ity
ĠBo vington
after noon
cro ok
Ġtri fles
Ġtri fle
Ġtri fling
Ġtri gger
inc redulity
Ġcir cum
Ġcir cumst
Ġcir culation
ĠIs n
Ġlod ged
Ġlod gers
Ġpen ny
Ġpen itent
Ġforward ed
Ġobserv ing
Ġobserv ant
Ġobserv ation
Ġcurious ly
Ġconceal ing
Ġthick ened
Ġdel icate
Ġdel ayed
Ġdel irium
Ġview ed
Ġroad way
Ġdescri bes
Ġdescri ptions
iver ting
Ġfire place
Ġgloom ily
Ġund oing
ĠMar x
Ġstay ing
Ġsun light
Ġsun burned
Ġsun shine
ĠTh ree
ĠTh ursday
ĠEnglish woman
oll en
sing ular
Ġfix ture
Ġlive ly
Ġreg ion
Ġdog s
Ġcoll ecting
Ġcontin uous
To o
gu ilt
Ġest ates
Ġrel ics
Ġrel igion
Ġjud icial
Ġroof s
Ġeng ra
who ever
hold ing
Ġstraight en
cr ime
cr owns
vol ent
Ġve in
Ġve getation
Ġri ver
Ġri bb
Ġri fle
Ġri veted
Ġri pple
Ġwit hered
Ġwater proof
Ġlit tered
Ġexper ien
Ġexper iments
Ġwindows ill
Ġcommun ications
fl ushed
fl ung
fl ourishing
Ġfair y
Ġlim it
icy clist
Ġdef ense
Ġdef ended
Ġincident ally
bit ter
dis posed
dis covered
dis appeared
dis covering
dis secting
inter rupt
inter fere
Ġbright en
Ġcreature s
ĠLy onna
clus ion
Ġdistr usted
Ġofficial s
aff led
sit ors
sit uation
than k
Ġsqu ire
Ġcross ing
Ġcross road
Ġdare s
att a
att ack
Ġgun shot
Ġsuper stit
Ġsuper ficial
Ġval u
Ġval our
Ġunf air
Ġunf urnished
Ġunf olded
Ġclaim ed
Ġacqu ired
Ġacqu aintances
Ġpursu er
work s
Ġattempt ed
Th r
Th us
bb ling
just ified
Ġess ay
Ġwild er
Ġsense less
Ġbreat hing
Ġbreat hed
Ġgas ping
ĠSome where
Ġcomp ared
Ġcomp ressed
icket s
ext reme
ext ravag
expl ain
Ġsatisf actory
Ġbroad er
Ġminute ly
Ġpurpose ful
Ġrecogn ition
don ian
ĠK ing
ĠK eep
ĠK enning
Ġident ify
Ġty rant
erm ined
Ġmis c
Ġmis laid
Ġins ens
Ġins isted
Ġins anity
Ġinform ing
Ġrail ways
ĠRe gina
Ġdrink s
Ġbedroom s
ĠUn cle
Ġdistrict s
Ġce ase
Ġgle e
stant ly
alter ing
Ġrepe ating
Ġself ish
ĠAl gar
off ensive
Ġplan et
Ġspot s
Ġharm less
Ġguard ian
book s
gy man
Ġast ounded
Ġsad ness
Ġcru elly
Ġfin ish
Ġsuccess ion
ilt ry
Ġdepart ment
Ġdepart ments
Ġconclus ive
Ġtrave ls
Ġtrave lling
Ġtrave llers
Ġcompl ain
Ġcompl aint
Ġcho osing
Ġemploy ed
Ġbuild ings
Ġwitness ed
sm art
sm ile
sm oked
wr ong
wr ite
Ġ2 4
Ġwat ery
Ġwat ches
Ġwat cher
Ġden ied
Ġdest royed
Ġpain ting
ices ter
Ġgard ener
sec ond
Ġsavage ly
ĠSh ould
Ġsuff er
Ġdesire s
Ġempt ying
Ġcorrespond ent
See ms
friend s
mind s
Ġsal ary
Ġhot ly
Ġpi ke
Ġpi qu
Ġsuit able
thought fully
Ġprevent ed
Ġclerk ship
pres ented
pres uming
Ġsleep er
Ġsleep less
With in
back ward
cur t
cur ly
cur tain
cour t
uct ion
ĠYes terday
Ġwood s
Ġwood work
Ġslo venly
Ġcra vat
Ġfat ig
Ġpar ish
Ġut tered
Ġthro bbing
Ġsoft en
Ġsoft ly
Ġsoft ened
think ing
Ġorgan ized
ĠTed dy
Ġfirm ness
Ġconsult ing
Ġcourt esy
Ġshoot s
chan ged
des perate
des irable
low ered
pass age
sur round
sur geon
sur prised
Ġtest ify
Ġtreat ment
Ġcre vice
Ġcast ing
Ġinj ured
Ġhel ps
Ġlower ing
Ġemer ald
Ġemer gencies
Ġreve l
Ġreve rent
Ġrelie ved
Ġforget ting
Ġstri king
ĠAd dress
ĠAd elaide
ĠCom ing
ĠCom mon
Ġsche mer
Ġdisappe ar
Ġremain ing
Ġintrodu ction
Ġintrodu ctions
Ġ18 9
Ġcruel ty
awn ed
happ ened
Ġorig inally
Ġbene fit
Ġbene fact
Ġfurn iture
Ġfavour able
Ġhesit ate
Ġlif t
Ġlif ting
Ġlif etime
Ġur ged
Ġeight eenth
etr able
Ġrecon cile
interest ed
conf ederate
conf irmed
black ened
black mail
Ġhurry ing
Ġdiscuss ed
Ġdiscuss ing
Ġoppos ition
Ġhonest y
det ermined
port rait
Ġwire s
Ġoath s
Ġmut ter
Ġmut ual
Ġbal cony
Ġfight ing
Ġtobac conist
Ġdi ary
Ġpure ly
Ġthreat s
Ġann ounced
Ġann ounce
ĠWho ever
ĠSus an
Ġvan ish
Ġprep aring
ĠPro ve
ĠPro vidence
Ġimpl ored
Ġimpl oring
pocket s
Ġhost ess
Ġpeculiar ly
Ġpeculiar ity
Ġdetail ed
Ġmission ary
Ġrecord ed
Ġopportun ities
Ġestabl ishing
Ġspirit ual
investig ating
Ġhelpless ly
.âĢĻ âĢĿ
Sc owrers
bro ke
bro ker
jo y
sy stem
spe ed
Ġwa vering
Ġsens ational
Ġban ged
Ġban quet
Ġbus hy
Ġbus hes
Ġbag gage
Ġweight y
Ġweight ed
Ġdep ot
Ġdep ression
Ġdep ressing
short ly
coll eague
Ġdesce nding
Ġpresum ption
Ġdrift ed
Ġabsor bing
Ġhills ides
Ġwhisper ing
Ġmotion ed
Ġsquare s
Br idge
cor ner
cor robor
cor respond
murd ered
murd erous
nerv ous
nerv ously
pat rolmen
ugg led
val ue
val uable
vill ain
Ġver sed
Ġver dict
Ġver anda
Ġaud ience
Ġaud acious
eder ates
Ġcaut ious
Ġgen ial
Ġequ ipment
Ġrese mbl
Ġshout s
Ġshout ing
Ġdevelo ping
Ġdepend ent
ĠItal ians
Ġpopular ity
Ġprete nded
Ġbold ly
Ġblind s
Ġdesign s
Ġaccept ed
Ġelb owed
Ġoccup ation
Ġvillain y
Ġsymp athetic
Ġunfortun ately
Ġoutrage ous
ER I
Engl and
che st
dri ve
dri ven
dif ferent
del icate
del irious
find s
hor rible
prom ise
sil ver
war n
war ning
war like
Ġtast ed
Ġcro aked
Ġcatch ing
Ġfiend ish
Ġdry goods
Ġpick ing
Ġrequ ired
Ġstore s
Ġrust ed
Ġrust le
Ġsoot hed
Ġdecl ared
ĠAr ms
ĠCould n
Ġbrut ality
Ġagree ment
rail road
ĠEs quimau
ĠEurope an
Ġenormous ly
Ġbog us
Ġboat s
ĠPr ay
ĠPr ime
Ġmoorland s
Ġdisap pointed
comple x
Ġcommand s
Ġcommand ed
Ġsolemn ly
Ġassoci ation
Ġassoci ate
direct ed
mist ake
mist ress
rid ay
rid ges
sl owly
tre asurer
whe l
whe el
Ġ3 6
Ġavo ided
Ġmar red
Ġmill ion
Ġbul ked
Ġfer ret
Ġhide ous
Ġpin nacle
Ġgra zed
Ġgra vity
stru ggled
Ġrespons ible
Ġassu mes
ĠMur phy
amb les
Ġrum our
Ġexped ient
Ġexhaust ed
ĠCon stable
ĠLe aving
ĠLe icester
abs urd
Ġremo ving
Ġprot ection
Ġintent ness
Ġblackmail ers
Ġimm aterial
sub ject
sub ordinates
Ġstrugg led
Ġburgl ary
convict ion
Ġoriginal s
dest royed
eff ort
rust le
som bre
heav ily
respect able
Ġmal icious
Ġmus c
Ġmag n
isc her
Ġcoun ter
Ġcoun ters
Ġdiv ided
Ġheap s
Ġlan es
Ġgap ing
Ġgather ing
sett led
Ġrepl ies
Ġrepl ied
Ġshr inking
Ġras cal
Ġras cals
Ġdocum ents
Ġknock er
Ġshel tered
Ġgras ped
Ġgras ping
Ġoper ator
need s
Ġappl auded
Ġoccur rences
suggest ed
Ġcorrobor ate
scri bing
prob ation
prob able
prob ably
Ġslipp er
Ġregret ted
Ġcolle ague
present ation
ĠAdmir able
Ġappreci ation
Ġparaly zing
Pr ay
caut ion
dist ract
dist rait
fact s
fright en
hum an
mess age
mess ages
obe y
rim med
tell ing
wood s
youn ger
Ġtut or
Ġtur bid
Ġtur bul
Ġsac red
rem ained
Ġoak s
Ġmix ture
Ġchat ted
Ġcat like
Ġcat astrop
Ġfug itives
Ġdu ly
Ġdu plicate
Ġdiss u
ĠIrish man
Ġlab ouring
Ġpet ty
Ġnur se
Ġnur sing
Ġbefall en
Ġgn awed
stri ke
stri king
rol man
Ġstol id
Ġbutter flies
ili ppo
Ġconcent rated
ĠDown ing
Ġuncom promising
ĠPar liament
ĠPhil ip
Ġcrit icism
Ġimpress ions
Ġdisgu ised
ĠJac obean
exp ert
Ġemb assy
Ġexchan ge
Ġexception al
observ ation
Ġsketch ing
Ġruff ians
Ġundert ake
Ġundert aker
Ġengine er
contin ually
Ġrenew ed
Mar ie
Mar vin
ON E
cond uct
care er
dep arted
dep arture
fam iliar
favour ite
gri p
met hod
new s
wonder ing
Ġid le
Ġaut umn
Ġward ers
Ġward robe
Ġbot any
Ġbot anical
Ġbill iard
Ġcott ages
Ġfac ings
Ġfac ial
Ġlaure l
Ġpill ars
lead er
acqu aintance
Ġasse mbled
ĠMont pellier
Ġstar ving
Ġmanage ment
Ġrus hes
ĠAm ong
Ġconstant ly
ĠTH AT
Ġtrans formed
Ġloft y
Ġcompo ser
Ġcompo sitors
Ġune asiness
Ġunt asted
Ġbrave ly
Ġquee rer
Ġprof ile
Ġprepar ation
Ġspl ashes
Ġspark ling
Ġgrin ned
Ġgrand eur
popular ity
def ence
def ense
Ġpray er
Ġguest s
Ġchim neys
Ġworkman like
Ġflut tered
Ġapolog ies
Ġapolog ize
Ġdistingu ish
compl iment
Ġresident s
Ġattent ions
Ġattent ively
Ġsweet heart
prep are
prep ared
Ġirr itation
track s
Ġcapital ists
incident s
Ġcirc les
Ġpictures que
Ġdefiant ly
Ġsquee ze
Ġgasp ings
Ġ187 5
diction ary
Ġaccompl ished
satisf ied
Ġcultiv ate
ĠAfric an
AL D
Ly ons
Ly nch
Ne olithic
Out side
hr atta
near ly
pur pose
sw iftly
sal oon
sof a
yes terday
Ġtar red
Ġtar iff
Ġmale volent
Ġba ul
Ġba ize
eng ine
eng aged
Ġdab bled
Ġdwell ing
Ġhast ened
Ġpol icy
Ġpra ir
Ġpawn broker
Ġbew ild
Ġgent leness
Ġglo be
Ġeast ward
Ġrejo ice
Ġasce nded
ĠMad ame
ĠMad rid
Ġstag gered
Ġstimul ating
Ġrou g
Ġrit es
Ġrit ual
ĠAber donian
child ren
thousand s
quiet ly
Ġconver ted
Ġconject ure
Ġconstruct ed
artic ulate
ĠDark ness
Ġunconv entional
Ġunconv incing
Ġabst racted
offic ial
Ġprefer red
Ġfox es
Ġadvertise ment
ĠOff ice
Ġcler ical
Ġcler gyman
Ġperplex ity
Ġobsc ure
Ġdisp ute
Ġdisp atching
Ġdismiss ed
ĠJon as
ĠJon athan
possess ed
neighb ours
Ġflour ish
Ġflour ished
Ġflag staff
Ġflick er
Ġflick ering
Ġrepres ented
comm un
Ġaccess ible
ĠBrad ley
ĠBrad shaw
Ġincre ase
Ġincrim inate
Ġincrim inating
scr atching
Ġsweep s
Ġraven s
Ġdram atic
proceed ings
ĠUp wood
Ġsniff ing
Ġelect ric
disc reet
disc uss
ĠWilliam s
Ġtypewr itten
Ġtypewr iter
Ġmalign ant
Ġdemand ed
suspic ion
Ġshepherd s
Abs olutely
Bo ss
Jac obean
Su ggestive
Simp le
bu ilding
burn t
cig arettes
citiz ens
equ ally
eager ly
fing ers
fur ther
flo or
fair ly
fix ed
gap s
greet ed
girl s
gloom y
hurried ly
lod ging
mis chief
nat ured
ph onic
ris en
tri ump
whis kered
Ġing en
Ġze al
Ġignor ance
Ġtim etable
Ġtour ist
heren ts
init ials
Ġwo oing
Ġsim ilar
Ġske in
Ġsod den
real ize
requ ent
refer red
recoll ection
Ġobe yed
Ġmast iff
Ġbust ling
Ġbun ched
Ġbart ender
Ġbull dog
Ġbrilliant ly
educ ated
Ġcas ual
Ġcow ard
Ġcounc ils
Ġcivil ized
Ġfles h
Ġfasc ination
asse mbled
Ġhind er
Ġhudd led
Ġda unted
Ġdart ing
Ġdru gged
Ġinad miss
Ġpan elling
Ġpri ze
Ġpens ion
Ġnav al
Ġgar ish
stra ight
separ ate
ĠMed ical
Ġstam mered
Ġsand y
Ġmeek ly
ĠSu pposing
Ġshud dered
Ġsund own
Ġrad ius
Ġkiss ed
appro ached
Ġnecess ity
thro at
Ġexagger ated
ĠContin ent
Ġorch ids
agr aph
agon ist
ĠLat in
Ġabrupt ly
Ġfeud al
telegr am
Ġjun ior
Ġjum ped
Ġjerk y
Ġbris k
Ġprov ided
Ġpreci pit
aband on
ĠPart ly
Ġglit ter
Ġimpro ved
Ġimprison ment
shoot ers
Ġpersec ution
Ġobst inate
sole mn
conven ient
Ġchronic led
Ġsurv ive
Ġintol erable
Ġspecim en
Ġenthusi asm
Ġaccord ance
Ġwarm th
Ġassail ants
doll ar
Ġincess antly
Ġextract s
Ġescap es
Ġrefres hed
ĠChrist ian
Ġdiscol oured
Ġsnar ling
Ġoppress ive
Ġgriev ance
Ġpostp one
Ġapproving ly
Ġillust rate
Ġmedd ling
Ġcomprom ising
Ġtyp ical
Ġorganiz er
Ġinfam ous
Ġimplic it
murde rers
Ġrequis ition
barrel s
Ġimmense ly
Ġsacrific es
Ġbenev olence
Ġembarrass ment
Ġcalcul ations
Ġathle tic
laugh ing
original s
Ġeccentric ity
Ġanecd ote
ĠEliz ab
App arently
Co ombe
Edu cation
Foot prints
GL AS
Gl ad
Harg rave
IR LST
Ma hratta
Mont pellier
North umberland
Occ asionally
Sum atra
Sple ndid
War ren
bat im
bould ers
coun ter
empt y
fet ched
farm ers
hon est
iuse ppe
opp onents
pull ed
ras er
sou led
sle eve
sup ra
smo ke
sens ational
tist e
warr ant
warm ly
ĠZamb a
Ġtrop ical
Ġaim less
Ġauster ity
incl air
Ġwreat hed
Ġsord id
Ġsinc erity
Ġoce an
Ġmil k
Ġmull ioned
isse ur
Ġbor ne
Ġbay ing
Ġchis el
Ġfert ile
Ġfath omed
Ġfern s
Ġfang s
Ġhoney dew
Ġhilar ity
Ġdust y
Ġdwe lt
Ġdoub led
Ġinher it
Ġinscri ption
Ġhect ic
Ġlic hen
Ġlac onic
Ġpitt ance
Ġpoun ces
Ġpict ured
Ġpip es
Ġphot ograph
Ġnort hern
strang ers
acass ar
ĠHamp stead
Ġrecl ining
Ġrevo ir
advertise ment
ĠMel ville
Ġstup id
Ġange l
Ġantim acassar
ĠWinc hester
ĠWork house
ĠSher idan
ĠSuff icient
outhampt on
Ġseaf aring
ĠBap tiste
Ġshimmer ing
Ġsuck er
Ġrhy thm
Ġsoci able
Ġdepl orable
Ġdemean our
indict ive
Ġnostri ls
Ġnocturn al
thirst y
throp ological
tobac co
Ġconno isseur
ĠCare re
ĠCab inet
ĠCany on
ĠCyclo pides
unicip al
Ġvener able
ĠTotten ham
Ġtraff ic
Ġloite rers
ĠLass us
ĠLang ham
ĠLuc as
ĠDirect ory
ĠDOU GLAS
ĠDubl in
Ġunbr ushed
Ġunten anted
Ġunexpl ored
Ġunexpect edly
Ġunmist akable
Ġunwon ted
Ġambus cade
Ġlibr ary
teles cope
Ġjung le
Ġbrav est
Ġproject ing
Ġprosec ute
ĠGord on
ĠNav y
Ġadjo ining
manne red
ĠPos ilippo
ĠPerm it
ĠPoly phonic
Ġsmoot hed
Ġcrump led
Ġunderne ath
Ġdispo sal
Ġdisreg ard
Ġdispat ched
Ġremorse less
poison ing
Ġprince ly
consc ious
Ġevergre ens
ĠInfirm ary
Ġflatt ened
Ġintens ity
Ġintrig ue
ĠRussi a
Ġeluc idate
ĠVio let
Ġaccost ed
Ġvocab ulary
Ġimpend ing
myster ious
Ġindescri bably
Ġincredulous ly
ĠMacNam ara
Ġsubstant ial
Ġfootfall s
Ġhumili ation
ĠChronic le
Ġcircum spect
Ġcircumst ance
Ġribb on
Ġexperien ced
ĠLyonna is
Ġsuperstit ious
ĠKenning ton
Ġbenefact or
Ġannounce ment
correspond ents
Ġresembl ance
Ġsympathetic ally
Ġturbul ent
Ġcatastrop he
IRLST ONE
' .
' :
' ;
' ?
' ?"
. )
. ?
. ]
. ?âĢĿ
. ,âĢĿ
1 1
1 8
1 64
2 0
4 0
4 3
5 34
6 5
6 6
7 6
8 0
8 4
8 6
8 9
? '
? ..
A N
A W
A g
A ren
A part
A lec
A GE
B l
B ar
B ra
B el
B ear
B less
B oth
B ird
B og
B aker
B rad
B askervilles
B illy
B rilliant
B etween
B eside
B eware
B eryl
B IRLSTONE
C K
C R
C T
C on
C le
C all
C ause
C ont
C ons
C aught
C ulverton
C artwright
C ormac
C astalotte
C losed
C entral
C amberwell
C rouching
C urse
D i
D er
D ri
D ant
D irect
D amp
D umb
D rop
D ER
D ead
D ON
D esmond
D elegate
D ifferent
E p
E s
E re
E qu
E ast
E urope
E arly
E astern
E AN
E CT
F ore
F ind
F ound
F riend
F right
F ree
F air
F ool
F oll
F rances
F etch
F ortune
F IC
F requ
F isher
F ernworthy
F RED
F riday
F raser
G a
G um
G ener
G reen
G eorge
G oing
G eneral
G iuseppe
H O
H T
H or
H ate
H ist
H ence
H otel
H ang
H ug
H ob
H aven
H oped
H ender
H AL
H arraway
H ospital
H ynes
H ales
I F
I L
I M
I N
I V
I nd
I ron
I rish
I ST
I ON
I ND
I ndia
J U
J u
J on
J ud
J agged
J ourney
J une
J ean
J ournal
J anuary
K ill
K no
K now
K ER
L Y
L a
L e
L es
L an
L ind
L ate
L aw
L ower
L uck
L iverpool
L ucca
L isten
L AC
L AW
M Y
M ur
M ain
M ind
M ust
M ort
M ake
M ire
M atter
M ey
M ister
M ove
M inister
M erripit
M onday
M enzies
M iller
M anders
N O
N ight
N ail
N eed
N ational
N otting
O S
O x
O ver
O ther
O pen
O AL
O OF
P P
P en
P at
P ain
P ull
P olice
P ho
P enn
P res
P inkerton
P ER
P erkins
P oultney
P atience
P ECT
R el
R idge
R ob
R unning
R odger
R ON
R OR
R IC
R RE
R IG
R ailroad
R AGE
R DER
S S
S e
S n
S it
S ur
S un
S te
S ign
S pan
S even
S ometimes
S ub
S ergeant
S too
S aturday
S urrey
S ingular
S pare
S econd
S inclair
S outhampton
S HO
S IN
S LY
S PECT
T E
T T
T W
T r
T ed
T en
T or
T est
T ry
T we
T urn
T alk
T elegr
T urkish
T ito
T wenty
T reasurer
T ION
T RAGE
U nd
U nder
U sing
U ST
U PP
U TION
V is
V an
V ill
V ictor
V ien
V ibart
V alentine
V IL
W or
W ess
W il
W ind
W est
W ard
W ire
W ily
W alter
W isteria
W estern
W allington
W elcome
W onderful
X SHO
Y ellow
Y ours
a o
a we
a ved
a uthor
a iety
b ir
b al
b ri
b ore
b od
b ous
b ast
b ond
b are
b ought
b ra
b ran
b be
b ade
b reat
b ert
b ru
b right
b ies
b ask
b iz
b ling
b rew
b ute
b ted
b os
b ash
b read
b ird
b ars
b iding
b ility
b ination
b orn
b erton
b ony
b itten
b ulous
b udge
b orough
b rance
b urden
b olic
b orders
b eneath
b icyclist
b affled
c s
c ar
c hat
c red
c able
c ra
c led
c ult
c ident
c up
c atch
c ations
c haps
c arri
c ating
c aught
c ouch
c ards
c ured
c has
c ution
c apped
c ork
c ury
c aused
c orrid
c aptain
c redible
c redit
c rawling
c rawled
c kered
c lips
c otic
c upboard
c ini
c ampaign
c ongrat
c erts
c lipped
d n
d ar
d ro
d am
d od
d us
d ime
d are
d ie
d ious
d ried
d ened
d ue
d leton
d ied
d arker
d iv
d ates
d well
d umb
d iar
d arted
d ashed
d awn
d ron
d ots
d aily
d war
d iam
d iving
d aunt
d reary
d iverting
e a
e f
e er
e en
e as
e ge
e ight
e ous
e ag
e ked
e led
e oman
e ered
e ek
e ficult
e rer
e miss
e ceived
e lect
e fer
e ming
e une
e mn
e asy
e eling
e pendent
f o
f at
f al
f ro
f ill
f ers
f urn
f ran
f el
f ish
f ood
f ever
f ree
f ied
f av
f lan
f aces
f ying
f tered
f aint
f iled
f ool
f ring
f itted
f ield
f old
f alse
f ierce
f etch
f arious
f iend
f ruit
f illing
f avoured
f resh
f iance
f umes
f ifty
f igured
f requent
g om
g al
g all
g lo
g ag
g ist
g ra
g ran
g led
g ance
g ull
g ents
g ates
g thy
g ossi
g aze
g ives
g azing
g otten
g ips
g hastly
g athered
g gling
g aunt
g ifts
g eneral
g usted
g overnment
g gles
g overness
h it
h ic
h ut
h ill
h our
h ive
h un
h ired
h unt
h work
i k
i as
i om
i ot
i ac
i qu
i ave
i age
i ple
i ber
i ott
i work
i atic
i ology
i oc
i asm
i berate
i pper
j er
j an
j ack
j un
j um
j ud
j ured
j agged
j udge
j acket
j unction
j aunty
j ealous
j eered
k et
k ne
k no
k ating
k itchen
k illing
l k
l m
l in
l is
l id
l ur
l ation
l un
l ag
l ake
l um
l imp
l ining
l ific
l ush
l orn
l apped
l ashed
l pless
l ots
l ored
l usion
l ament
l ulation
l comes
l van
l ifted
l icted
m i
m as
m ic
m id
m ut
m ould
m ill
m out
m il
m ant
m ous
m ast
m ort
m are
m itt
m other
m ity
m ple
m ings
m ask
m ps
m omet
m ated
m ix
m my
m ature
m its
m used
m ining
m outh
m aking
m arriage
m iles
m ified
m urm
m aterial
m agic
m oust
m useum
m uffled
m uddy
m ourn
m akers
m unicipal
n ic
n ut
n ce
n ast
n ate
n ie
n ose
n ial
n ature
n ames
n ian
n ib
n els
n umber
n acious
n ament
n ounced
n umbered
n ik
o is
o le
o ce
o ch
o sh
o ps
o po
o per
o ons
o pter
o cal
o cr
o zed
o val
o ples
o ats
p in
p om
p ay
p ent
p ol
p od
p ain
p ous
p un
p ig
p ice
p ried
p ress
p ick
p not
p atter
p ret
p ause
p ised
p aid
p ute
p ushed
p read
p ired
p ale
p icked
p enn
p oured
p istol
p ressed
p hered
p arently
p etr
p erty
p icious
p hys
p acket
p ieces
p hr
p ays
p ipe
p ouches
p onies
p awing
p awned
r s
r out
r and
r ime
r ite
r ine
r ings
r ary
r ict
r ister
r ows
r aced
r ains
r ors
r idge
r ants
r ates
r att
r apid
r aded
r iment
r gent
r acing
r otting
r usion
r ules
r attle
r umble
r asc
r oneous
r uled
r momet
s is
s or
s hat
s ir
s ad
s ill
s ch
s est
s qu
s ust
s un
s ort
s um
s imp
s au
s ick
s owed
s ions
s ne
s ult
s ail
s ily
s li
s igh
s ery
s ank
s atur
s oul
s iding
s que
s ides
s inner
s ided
s aken
s avour
s orry
s ky
s urm
s inking
s olved
s haring
s ius
s imul
s ively
s bury
s olution
s avage
s nat
t a
t w
t it
t or
t ar
t id
t ight
t one
t ong
t ran
t reat
t ish
t ally
t ask
t ied
t ense
t win
t ale
t aker
t ails
t rop
t rait
t ries
t unn
t ouched
t ugg
t uous
t ongue
t umbled
t wit
t oday
t esting
t inkling
t alking
t ickets
u a
u it
u en
u le
u ly
u ent
u pe
u ice
u ish
u ity
u ged
u ition
u its
u gged
u vage
u iling
u eness
v a
v re
v id
v ac
v ay
v est
v ile
v ict
v ature
v enty
v ages
v ote
v ictim
v irt
v icious
v iving
v rier
v apour
v iltry
v indictive
w d
w k
w l
w es
w am
w all
w est
w ound
w art
w ist
w ide
w ave
w ish
w iz
w ix
w its
w ants
w ool
w ax
w itted
w ield
w retched
w retch
w itch
w anted
w omen
w agonette
w reath
w atching
w estern
w asted
w ondered
w aits
w lap
x y
x ed
x ing
x om
x ter
x ious
x imate
y on
y am
y ss
y sp
y onder
y outh
y lest
z on
z es
z or
z ard
z ag
z of
z led
z ens
z ier
z kes
z vous
Ġ Qu
Ġ Quite
Ġ Que
Ġt an
Ġt at
Ġt id
Ġt ac
Ġt ro
Ġt il
Ġt ough
Ġt ide
Ġt ie
Ġt act
Ġt ab
Ġt ire
Ġt ies
Ġt ren
Ġt ens
Ġt ug
Ġt ying
Ġt aught
Ġt ape
Ġt ips
Ġt inkled
Ġt axed
Ġt inkle
Ġt rench
Ġt iers
Ġt ouches
Ġt entative
he nd
he ight
he ap
he um
he aring
he lor
he lpless
Ġa ver
Ġa qu
Ġa us
Ġa fore
Ġa right
Ġa iding
Ġa iled
Ġa iling
Ġa rose
Ġa post
Ġa ustere
Ġa ugust
Ġa uction
Ġa vay
in ent
in able
in ish
in ings
in side
in ery
in ative
in ently
in vent
in tern
in ference
in fall
in fer
in ology
in acity
in stit
in izing
in stead
in conceivable
in sect
in spire
in separ
in super
in offensive
in convenient
in jured
Ġw in
Ġw re
Ġw ad
Ġw ol
Ġw ry
Ġw ade
Ġw ings
Ġw rest
Ġw ail
Ġw oke
Ġw ool
Ġw ides
Ġw inner
Ġw arded
Ġw ages
Ġw ield
Ġw ives
Ġw att
Ġw iles
Ġw aded
Ġw aves
Ġw retch
Ġw estern
Ġw inning
Ġw ipe
Ġw inch
Ġw ench
Ġthe or
Ġthe rmomet
Ġs in
Ġs ou
Ġs an
Ġs ly
Ġs ard
Ġs ite
Ġs har
Ġs ward
Ġs ne
Ġs ways
Ġs land
Ġs ash
Ġs ang
Ġs inner
Ġs cient
Ġs ane
Ġs illy
Ġs edges
ou ve
ou ter
ou ement
re ve
re se
re pe
re ant
re ast
re te
re wn
re ne
re land
re mpt
re cent
re vo
re aching
re entered
re jected
re present
re lieve
re historic
re commend
re cord
re ciation
re construct
re presented
re aved
re cations
ha ble
ha lo
ha ven
ha el
ha ved
ha ms
ha ste
ha unt
ha mmer
ha bits
ha ggard
ha ught
Ġo x
Ġo re
Ġo ar
Ġo st
Ġo ven
Ġo ily
Ġo min
Ġo iled
Ġo mission
Ġo val
Ġo mitted
Ġo wed
Ġo dour
Ġo live
Ġo dious
Ġo ozed
Ġo wes
er or
er ic
er ver
er red
er ant
er son
er ate
er ked
er ally
er ies
er ated
er ms
er fully
er min
er prise
er chief
er cised
er ailed
er cury
er roneous
nd on
nd et
nd ry
nd el
nd als
Ġm as
Ġm ing
Ġm ic
Ġm ur
Ġm ol
Ġm and
Ġm ig
Ġm int
Ġm ouse
Ġm ass
Ġm ult
Ġm ute
Ġm ature
Ġm aker
Ġm inted
Ġm orrow
Ġm ax
Ġm attered
Ġm agic
Ġm useum
Ġm io
Ġm umbled
Ġm uddy
Ġm asked
Ġm aj
Ġm akers
Ġm unicipal
Ġm iasm
is p
is to
is ive
is ite
is ions
is ms
is ons
is cience
is itive
is ibility
is pens
is lation
Ġb on
Ġb im
Ġb id
Ġb our
Ġb ind
Ġb ure
Ġb ite
Ġb ade
Ġb ab
Ġb led
Ġb ree
Ġb ask
Ġb ared
Ġb ait
Ġb rew
Ġb ang
Ġb ale
Ġb owing
Ġb orrow
Ġb ush
Ġb ided
Ġb ony
Ġb rig
Ġb rill
Ġb ored
Ġb isc
Ġb unk
Ġb aby
Ġb athed
Ġb idden
Ġb orders
Ġb alls
Ġb attery
Ġb icyclist
Ġb affled
Ġb ias
it it
it on
it es
it ar
it hed
it urn
it ect
it ade
it ally
it ened
it als
it aker
it icism
it uted
it anical
it worth
it jacket
on a
on om
on se
on ge
on to
on ous
on ag
on ish
on air
on zed
on zing
on iest
on pare
ed e
ed s
ed est
ed ged
ed ience
Ġc ri
Ġc ind
Ġc ul
Ġc ous
Ġc um
Ġc ave
Ġc age
Ġc ren
Ġc ens
Ġc ower
Ġc ream
Ġc ars
Ġc rank
Ġc ouncillor
Ġc uff
Ġc ities
Ġc raw
Ġc ashed
Ġc rop
Ġc airn
Ġc amps
Ġc udge
Ġc rawled
Ġc aj
Ġc redulous
Ġc oup
Ġc itade
Ġf ol
Ġf ul
Ġf ry
Ġf erv
Ġf ought
Ġf ru
Ġf iss
Ġf li
Ġf onder
Ġf use
Ġf ier
Ġf riv
Ġf ates
Ġf iled
Ġf ines
Ġf unn
Ġf aked
Ġf rail
Ġf owling
Ġf isher
Ġf uming
Ġf enced
Ġf igured
en om
en ance
en ery
en ister
en ants
en velope
en gers
en clo
en iable
en rose
en ito
en close
en kins
en uated
en etrable
en joy
as ing
as ive
as able
as per
as ible
as certain
as ingly
as ury
as hamed
as eless
as pired
Ġh ing
Ġh il
Ġh ust
Ġh ire
Ġh orr
Ġh ip
Ġh ither
Ġh inted
Ġh ides
Ġh ips
Ġh unted
Ġh ullo
Ġh ugged
es ce
es ome
es den
es irable
es pier
es wax
Ġto il
Ġto we
Ġto ff
Ġto oth
Ġto pped
Ġto wered
Ġto wer
Ġto iling
Ġto tally
or ld
or st
or med
or ical
or ably
or ating
or ney
or rupt
or ify
or ators
or respond
or aries
or dered
ll i
ll ous
ll ows
ll ian
ll arded
ing ers
ing by
ing houses
Ġd an
Ġd ot
Ġd ir
Ġd ol
Ġd ain
Ġd il
Ġd ure
Ġd ig
Ġd um
Ġd ried
Ġd au
Ġd ile
Ġd odge
Ġd az
Ġd ances
Ġd irt
Ġd ipped
Ġd ub
Ġd aily
Ġd agger
Ġd ynam
Ġd odd
Ġd iverting
Ġd ysp
Ġd erailed
ĠI ver
ĠI mag
ĠI RON
ĠI reland
Ġha lo
Ġha ft
Ġha zy
Ġha cking
Ġha uled
Ġha wk
an ge
an ul
an ist
an ked
an ged
an no
an ched
an cial
an imal
an gered
an aly
an ini
an imation
an nounced
an xious
ar l
ar re
ar ant
ar be
ar age
ar rest
ar ned
ar ian
ar let
ar ius
ar iable
ar pet
ar ley
ar gued
ar cotic
hat che
Ġin ade
Ġin for
Ġin co
Ġin ex
Ġin ho
Ġin com
Ġin cle
Ġin most
Ġin just
Ġin sect
Ġin spire
Ġin scr
Ġin aud
Ġin conven
Ġin conclus
Ġin access
Ġin clusion
Ġin offensive
Ġin human
Ġin articulate
Ġhe ath
Ġhe aled
Ġhe aler
Ġhe eled
Ġhe nce
Ġl ot
Ġl ard
Ġl ust
Ġl ack
Ġl ace
Ġl int
Ġl ass
Ġl air
Ġl ined
Ġl atch
Ġl ang
Ġl att
Ġl uc
Ġl umber
Ġl inking
Ġl onel
Ġl ane
Ġl isp
Ġp ic
Ġp ac
Ġp ion
Ġp al
Ġp ad
Ġp our
Ġp all
Ġp il
Ġp ul
Ġp ound
Ġp ag
Ġp ence
Ġp ious
Ġp atter
Ġp ile
Ġp ined
Ġp up
Ġp uck
Ġp its
Ġp ining
Ġp riv
Ġp ug
Ġp ian
Ġp airs
Ġp ins
Ġp aint
Ġp oking
Ġp ours
Ġp aro
Ġp arch
Ġp ierce
Ġp acing
Ġp ots
Ġp ulsed
Ġp ounced
Ġp hr
Ġp rud
Ġp ulse
Ġp oker
Ġp rivile
Ġp onies
Ġp hant
Ġp isto
Ġp edest
Ġn on
Ġn om
Ġn ic
Ġn est
Ġn ation
Ġn oun
Ġn ick
Ġn ail
Ġn ip
Ġn ations
Ġn atures
Ġn aked
Ġn ouve
Ġn arcotic
om on
om ach
om atic
om inant
om inable
Ġy oke
Ġy arn
Ġy awned
Ġy eoman
at re
at one
at ist
at ine
at ings
at ory
at ched
at tr
at ches
at ured
at isf
at ues
at iously
at ium
at rocious
at tempt
at uated
Ġyou ths
ve t
ve x
ve ying
ve xation
ve lvet
ve llous
ow e
ow ls
ic a
ic er
ic le
ic ence
ic ited
ic ates
ic ulous
ic izing
ic ili
ic oed
ic itations
ic ulated
ic olo
ic hael
ic arage
Ġbe ak
Ġbe ings
Ġbe have
Ġbe ech
Ġbe mused
Ġbe haved
Ġbe eswax
le w
le an
le at
le ast
le ctor
le arn
le arned
ot ter
ot ation
ot hed
ot ism
ld s
ld ri
ld ers
ld ened
Ġwas ting
Ġit em
Ġit iner
im ers
im able
im ates
im ately
im ony
im minent
im neys
im inology
Ġg ut
Ġg est
Ġg ul
Ġg ag
Ġg el
Ġg ear
Ġg ushed
Ġg ird
Ġg arr
Ġg ale
Ġg ames
Ġg reg
Ġg agged
Ġg irt
Ġg inger
Ġg orge
Ġg abled
Ġg aming
Ġg azette
Ġg aiety
id le
id ant
id ers
id ity
id iness
id acy
id opter
Ġu gl
Ġu lulation
st a
st s
st y
st ir
st ol
st am
st art
st ark
st ag
st ren
st ains
st aged
st ream
st ove
st als
st rel
st ones
st op
st ayed
st raction
st ays
st rolled
st atue
st roll
st rewn
st atues
st imates
Ġe t
Ġe re
Ġe ther
Ġe el
Ġe po
Ġe cart
Ġe jac
Ġe bony
Ġe clips
Ġe lders
se a
se ll
se ver
se vered
se vent
se arch
se aled
se ldom
se venth
Ġth ie
Ġth ither
Ġth inner
Ġth orn
Ġth irt
Ġth rees
Ġth rilled
ly n
ly mouth
ut y
ut or
ut ing
ut al
ut ive
ut ions
ut sc
ut most
ut ral
ut eness
ut hers
ut inizing
ut enants
Ġhis s
Ġhis sed
Ġhis sing
ac on
ac ard
ac able
ac led
ac ies
ac ery
ac ently
ac cur
ac iously
ac rid
ac ulate
ac ancy
ac ao
ac cident
ac hable
Ġwh im
Ġwh imp
Ġwh ither
Ġwh irl
Ġwh iff
Ġwh ipl
Ġwh ichever
Ġwh itened
ay ment
ay light
Ġwe b
Ġwe ar
Ġwe al
Ġwe lf
Ġwe ig
Ġwe aving
Ġwe lcomes
et or
et le
et her
et all
et han
et ted
et ches
ver b
ver ity
ver dict
ver batim
Ġis ol
ĠH a
ĠH ol
ĠH our
ĠH ig
ĠH ence
ĠH ott
ĠH ors
ĠH arr
ĠH ush
ĠH old
ĠH ouses
ĠH udd
ĠH ER
ĠH ardly
ĠH ullo
ĠH ynes
ĠH ales
ĠH ands
ĠH IM
ĠH yam
ĠH arley
ent ot
ent ers
ent ious
ent less
ent ertain
ent husi
ent itled
ent erprise
ent atiously
Ġon to
Ġon erous
ir led
ir ted
ir regular
ir bank
ir rit
ith ing
ion ately
ur and
ur pe
ur ous
ur ate
ur ity
ur ial
ur ities
ur iant
ur prise
ur gents
ur zon
The ir
The atre
al is
al or
al ight
al ice
al my
al oud
al esc
al og
al ier
al ific
al mon
al ism
al oon
al ties
al va
Ġre ct
Ġre ap
Ġre son
Ġre ass
Ġre nder
Ġre sp
Ġre li
Ġre no
Ġre ek
Ġre vered
Ġre inc
Ġre ctor
Ġre place
Ġre bell
Ġre action
Ġre aching
Ġre jected
Ġre told
Ġre lied
Ġre ferences
Ġre spiration
Ġre visit
Ġre nde
Ġre version
Ġre duced
Ġre assembled
Ġre efer
Ġre eds
Ġas cri
Ġas cet
Ġwith holding
Ġfor te
Ġfor be
Ġfor fe
Ġfor ged
Ġfor cing
Ġfor bade
Ġfor lorn
ad ows
ad vent
ad ding
ad just
ad mit
ad vis
ad espe
ad opt
ad uce
ad diction
ad venture
ad onna
ad dressed
ad orned
ad herents
ĠM R
ĠM ich
ĠM od
ĠM ain
ĠM all
ĠM il
ĠM ind
ĠM me
ĠM urd
ĠM uch
ĠM ount
ĠM orning
ĠM ex
ĠM ach
ĠM ons
ĠM ining
ĠM oney
ĠM any
ĠM ax
ĠM inister
ĠM arty
ĠM ost
ĠM aling
ĠM AC
ĠM anders
ĠM EAN
ĠM UST
ĠM eek
ĠM ercury
ĠM onag
ĠM ichael
ro it
ro pe
ro ck
ro of
ro ared
ro aring
ro ding
ro gate
ro ls
ro oked
ro ots
Ġst ing
Ġst ain
Ġst ap
Ġst urd
Ġst ress
Ġst owed
Ġst arry
Ġst ip
Ġst ung
Ġst ages
Ġst ony
Ġst iff
Ġst agger
Ġst yle
Ġst oring
Ġst aggering
Ġst reaks
Ġst alking
Ġst upe
Ġst oniest
Ġst ormed
Ġst omach
ce ll
ce ption
ce nded
ce iling
ce ls
Ġsa ving
Ġsa inted
Ġsa ints
Ġsa pless
Ġsa mple
Ġsa uvage
Ġsa vages
ri an
ri ous
ri ers
ri um
ri ved
ri ev
ri vers
ri otic
ri bute
ri eked
ri otism
ri etor
Ġan on
Ġan ten
Ġan gu
Ġan ony
Ġan imation
Ġan thropological
Ġan alog
ol ed
ol ome
ol ation
ol son
ol ity
ol astic
ol ph
ol ina
ol ores
ol igan
ol eric
ol omon
Ġnot ing
Ġnot able
Ġnot ified
ter ms
ter pre
ter ror
ter rified
ter flies
Ġme at
Ġme ag
Ġme chan
Ġme lted
Ġme ander
Ġme enister
Ġme adows
Ġat one
ill a
ill on
ill ust
ill ary
ill ating
ĠW ag
ĠW ire
ĠW alk
ĠW als
ĠW inner
ĠW anted
ĠW ER
ĠW AS
ĠW estern
ĠW IT
ĠW elcome
ĠW onderful
ĠW IND
ĠW rite
ĠW aylight
ich mond
ich oce
ich olson
ĠS am
ĠS ess
ĠS il
ĠS ul
ĠS to
ĠS of
ĠS end
ĠS ign
ĠS omet
ĠS had
ĠS ho
ĠS ection
ĠS part
ĠS even
ĠS wind
ĠS ounds
ĠS iam
ĠS olution
ĠS OL
ĠS wed
ĠS ingle
ĠS imon
ĠS etting
ĠS econd
ĠS ERI
ĠS inclair
ĠS outhampton
ĠS HAL
ĠS UPP
ĠS kating
ĠS pain
ĠS urprise
ĠS aloon
ĠS olomon
out ly
out house
out lined
her ing
her self
our se
our ations
our hood
Ġup right
Ġup set
Ġup turned
Ġup heav
Ġup roar
Ġup lands
Ġup holding
Ġse al
Ġse als
Ġse ating
Ġse vered
Ġse amed
Ġse ction
Ġse lected
Ġse mi
Ġse venty
Ġse rene
Ġse verity
am a
am ble
am me
am ine
am pl
am med
am ents
am use
am used
am azing
am ford
am iable
am iliar
am mat
if ice
if ull
if ying
if iable
if esting
if orms
ĠB od
ĠB ell
ĠB est
ĠB art
ĠB ig
ĠB ond
ĠB are
ĠB ert
ĠB right
ĠB read
ĠB ible
ĠB arr
ĠB loom
ĠB ush
ĠB road
ĠB AS
ĠB orough
ĠB ench
ĠB owery
ĠB eneath
ĠB IRLSTONE
ĠB enito
ĠB leat
od ic
od man
od ney
od ding
od gers
od orous
ĠThe op
ct ed
ct ing
ct ure
ct ual
ct ored
ct uous
ct rine
ain ers
ain ted
rom ance
ge ons
ge ois
Ġsh y
Ġsh ore
Ġsh red
Ġsh ine
Ġsh ower
Ġsh iver
Ġsh uff
Ġsh ines
Ġsh rill
Ġsh ivered
Ġsh uffled
Ġsh ipping
Ġsh ingle
Ġsh ifty
Ġsh iny
Ġsh ifted
Ġsh ores
Ġsh rieked
and om
and est
and eur
red eemed
Ġman e
Ġman ned
Ġman orial
Ġman gled
Ġman ifesting
Ġsu ite
Ġsu ave
Ġsu rest
Ġsu av
Ġsu its
Ġsu cking
Ġsu lph
Ġsu gar
Ġr at
Ġr im
Ġr all
Ġr ap
Ġr ag
Ġr ide
Ġr ake
Ġr uth
Ġr ider
Ġr ains
Ġr use
Ġr amp
Ġr ates
Ġr iding
Ġr otting
Ġr aked
Ġr attle
Ġr utted
Ġr ims
Ġr ural
Ġr ickets
Ġr ambles
Ġr heum
Ġr andom
Ġdo om
Ġdo cket
Ġdo cks
Ġdo omed
Ġdo zing
Ġdo gging
Ġdo ctrine
ess es
ess or
ess amine
ell er
ell ite
all ion
all el
Ġbut ton
Ġbut cher
Ġbut lers
il ess
il ine
il ment
il age
il ies
il ated
il ater
il og
pe ep
pe ering
ble w
ble ak
ble atings
Ġso ber
Ġso ared
Ġso cks
Ġso pping
Ġso bbed
Ġso vereign
mes t
mes hes
ĠâĢľ '
ĠâĢľ [
ĠâĢľ --
Ġde ple
Ġde mo
Ġde pre
Ġde fin
Ġde can
Ġde cei
Ġde cent
Ġde fect
Ġde rel
Ġde cept
Ġde posed
Ġde gre
Ġde jection
Ġde uced
Ġde eficult
Ġde wlap
Ġde xter
ind ec
ind icate
ind uce
ind ication
ind ividual
ind ifference
ind oors
ind ependent
ind ispens
ind icates
the ast
the ories
ĠA y
ĠA in
ĠA ust
ĠA ssi
ĠA bo
ĠA part
ĠA ges
ĠA ster
ĠA ssess
ĠA loy
ĠA bs
ĠA nderson
ĠA uthor
ĠA gency
ĠA cross
ĠA RE
ĠA inst
ĠA RRE
ĠA SS
ĠA bra
ĠA zof
ĠA ldri
ĠA cting
Ġk ick
Ġk ins
Ġk erchief
ch ing
ch ment
ch ology
ch ronic
ch ivalrous
ch loroform
ch imneys
-- ?âĢĿ
-- --
-- !âĢĿ
-- âĢľ'
Ġwere n
est ed
est one
est uous
est ically
est aurant
est eemed
est imable
est rian
Ġall ied
Ġall ows
Ġall uring
Ġall ude
ss ing
ss oming
ard er
ard board
ap se
ap house
ap pre
ap point
ap oc
ap ture
ap olitan
ap prove
ap artment
ap prehension
ap probation
ap ole
ap parently
ap anul
Ġno ses
Ġno vels
Ġno bler
ul a
ul ner
ul ating
ul ative
ul ham
ul sively
Ġne farious
Ġne utral
th ouse
th igh
th ird
th row
th orough
th reshold
th rong
th rilled
th rug
th olome
Ġex qu
Ġex tern
Ġex ists
Ġex em
Ġex isting
Ġex otic
Ġex pended
Ġex posure
Ġex commun
qu ess
qu ate
qu ick
qu arri
qu alities
qu erulous
qu eror
Ġare n
ound ing
ound ering
ound rel
ĠHe ath
ĠHe lp
ĠHe av
ĠHe aven
ĠHe len
ĠHe lm
to p
to pped
to ssing
ant ation
ant ages
ant agonist
Ġcon te
Ġcon vers
Ġcon sec
Ġcon vert
Ġcon stit
Ġcon stern
Ġcon seedar
Ġcon certs
Ġcon junction
ry pha
Ġout re
Ġout ward
Ġout come
Ġout fl
Ġout fit
Ġout break
Ġout cry
Ġout look
Ġout standing
Ġout numbered
ust ered
ust raded
Ġkn itted
Ġkn ives
Ġkn otted
Ġkn elt
Ġkn eeling
us es
us ade
us hes
us que
us cation
ok es
ok lyn
lo an
lo ad
lo ined
lo sion
lo af
lo gical
lo cution
own er
Ġus her
ĠC har
ĠC el
ĠC ath
ĠC av
ĠC arr
ĠC amp
ĠC hand
ĠC over
ĠC ape
ĠC oll
ĠC AR
ĠC left
ĠC elt
ĠC reek
ĠC offin
ĠC rouching
ĠC urse
ĠC lose
ĠC ongrat
ĠC OAL
ĠC rime
ĠC orrespond
ĠC urzon
ĠC rooked
ĠC ardboard
ack en
ack al
Ġwill ed
Ġcan op
Ġcan na
Ġcan nib
ive rer
son g
son al
Ġor bit
Ġor nament
Ġor ange
Ġgo ings
Ġgo gg
Ġgo bbled
Ġle ash
Ġle agues
Ġle vity
Ġle wd
Ġle etle
ck led
ck erman
un able
un com
un sc
un ited
un usual
un natural
un char
un married
un concerned
un spoken
un acqu
un ctions
un popular
un necessary
un kempt
un occupied
un ivers
un healthy
un shaken
un educated
un savour
un iforms
ace ment
ast ute
ast rous
art ial
art ificial
You ng
Ġv ow
Ġv ould
Ġv ant
Ġv ag
Ġv ish
Ġv ile
Ġv oman
Ġv ows
Ġv ale
Ġv ices
Ġv otes
Ġv oted
Ġv ivid
Ġv arn
Ġv aries
Ġv apour
Ġv oodoo
Ġv indictive
Ġv itally
Ġv enom
Ġv orld
Ġv icarage
Ġv acancy
Ġv indication
Ġv ulner
ark ed
ort ive
ort ions
ort alis
ĠT ut
ĠT own
ĠT onight
ĠT akes
ĠT ER
ĠT EN
ĠT wenty
ĠT reasurer
ĠT owers
ĠT erms
ĠT urpe
ĠT odman
ĠT apanul
Ġal as
Ġal ight
Ġal tered
Ġal tering
Ġal tar
ag le
ag ne
ag ents
ag ara
ag ued
ag itation
ag mire
ag ville
ag anini
ong enial
Ġtr am
Ġtr um
Ġtr act
Ġtr uck
Ġtr amp
Ġtr uss
Ġtr acing
Ġtr unc
Ġtr uly
Ġtr otter
Ġtr acery
Ġtr aduce
hing ton
han g
han tly
Ġhas h
Ġlo g
Ġlo be
Ġlo ath
Ġlo ci
Ġlo ves
Ġlo os
Ġlo ser
Ġlo op
Ġlo iter
Ġlo osed
Ġlo lls
Ġlo oser
Ġlo itering
Ġwor m
Ġwor ry
Ġwor ried
ig ation
ig ious
ig ions
ig ible
ig ues
ig uous
ig rated
ig gered
ig orating
Ġmo b
Ġmo ss
Ġmo ves
Ġmo pped
Ġmo ping
Ġmo aned
Ġmo pping
Ġmo cking
pp led
pp antly
ĠL ed
ĠL and
ĠL ate
ĠL ake
ĠL ep
ĠL ife
ĠL ever
ĠL ear
ĠL ater
ĠL ower
ĠL ying
ĠL eed
ĠL AR
ĠL ander
ĠL iber
ĠL arbe
ĠL odgers
ĠD one
ĠD ep
ĠD iv
ĠD isease
ĠD awn
ĠD ead
ĠD isc
ĠD io
ĠD utch
ĠD ingle
ĠD iary
ĠD ynam
ĠD etro
ĠD rive
ĠD IST
ĠD urand
ĠD olores
Ġshe af
Ġshe athed
Ġcom part
Ġcom ments
Ġcom position
Ġpo le
Ġpo se
Ġpo ol
Ġpo nder
Ġpo pped
Ġpo inter
Ġpo op
Ġpo aching
Ġpo llarded
fore st
fore ign
fore most
ist ic
ist les
ist ently
ist inct
ist urbed
ist ration
ist ribut
ist rates
ven ir
ven erable
Ġun self
Ġun imp
Ġun be
Ġun lock
Ġun ken
Ġun used
Ġun can
Ġun will
Ġun appe
Ġun iver
Ġun rel
Ġun even
Ġun cha
Ġun just
Ġun time
Ġun cont
Ġun think
Ġun nerv
Ġun armed
Ġun worthy
Ġun explained
Ġun burned
Ġun imag
Ġun spoken
Ġun safe
Ġun practical
Ġun sw
Ġun respons
Ġun rolled
Ġun occupied
Ġun prot
Ġun success
Ġun mitigated
Ġun emotion
Ġun observed
Ġun healthy
Ġun finished
Ġun curt
Ġun changed
Ġun warlike
Ġun official
Ġun conscious
Ġun solved
Ġun wield
Ġun announced
Ġun ctuous
Ġun ilater
Ġab ide
Ġab used
Ġab ashed
Ġab hor
Ġab ilities
Ġab utted
Ġab using
Ġab etting
Ġab yss
Ġab reast
Ġab ortive
int ing
int ered
int ense
int imate
int ruded
int rusion
int uition
int imately
int illating
Ġfe at
Ġfe ather
Ġfe ature
Ġfe line
Ġfe asible
Ġam ass
Ġam bit
me re
me ant
me fully
me asure
ink ed
ak ens
Ġli ver
Ġli be
Ġli king
Ġli vid
urd ly
urd ley
we ight
we ep
we ek
we aring
we aken
we lcome
we alth
we althy
hed ge
hed ged
hed ges
hed ule
ide mic
te es
te ar
te ach
te chnical
te mples
Ġj ab
Ġj ars
Ġj ug
Ġj oking
Ġj angled
Ġj acket
Ġj unction
Ġj ournal
Ġj esting
Ġj oker
Ġj ourn
Ġj uice
Ġj erked
Ġj ammed
Ġj essamine
Ġj okes
Ġj ackal
Ġro d
Ġro ll
Ġro am
Ġro les
Ġro cked
Ġro bbed
Ġro llers
Ġbr ushed
Ġbr ush
Ġbr akes
Ġbr unette
Ġbr idle
Ġbr amble
Ġbr usque
Ġbr acken
Ġqu itted
Ġqu erulous
Ġqu otation
Ġqu alific
Ġqu agmire
of ten
ers ault
wn ing
Ġag ed
Ġag ile
Ġag ape
Ġag hast
Ġag ric
Ġag encies
Ġag rees
ther s
erv es
erv ative
?" ]
um an
um ours
Ġhand y
Ġhand ker
Ġhand writing
Ġhand cuff
Ġhand iwork
are ndon
Ġpl ight
Ġpl atter
Ġpl ug
Ġpl acing
Ġpl umed
Ġpl odded
Ġpl ural
Ġpl aud
Ġpl edges
Ġpl odding
Ġpl agued
ect ive
ep er
ep istle
ie re
ie ur
Ġtw ain
Ġtw ine
Ġtw inkling
Ġtw irled
act ing
act ress
act ual
Ġmay or
ra ised
ra fter
ra iling
ra uss
ra ftered
ra zor
ass ion
ass able
ass ass
ass ail
ass istance
ass ioned
ass ault
Ġdown cast
imp lored
ran ced
ran eous
Ġbefore hand
Ġover sp
Ġover fast
Ġover pit
Ġover board
Ġover power
Ġover taking
Ġover took
Ġover pow
Ġover run
Ġover statement
Ġover fed
Ġover lap
Ġover hear
Ġover whel
Ġover due
Ġover satur
Ġaf ar
Ġaf for
be ast
be ared
be have
be aring
be gged
be long
be half
be aten
be comes
be gins
be ckoned
be cile
be longed
be reaved
itt al
!âĢĿ --
Ġpro ving
Ġpro ff
Ġpro sp
Ġpro ced
Ġpro gr
Ġpro posed
Ġpro claimed
Ġpro cured
Ġpro lific
Ġpro verb
Ġ" '
ĠG ive
ĠG ru
ĠG ower
ĠG old
ĠG iant
ĠG azette
ĠG overness
ĠG iuseppe
Ġpre med
Ġpre tt
Ġpre mon
Ġpre face
Ġpre vail
Ġpre occup
Ġpre mises
Ġpre acher
Ġpre mature
reat s
ine ering
Ġsp a
Ġsp ur
Ġsp ry
Ġsp ud
Ġsp inal
Ġsp aces
Ġsp illed
Ġsp elled
Ġsp reading
Ġsp rawled
Ġsp asm
Ġsp arse
Ġsp inning
Ġsp rinkled
Ġsp ats
Ġsp onge
ft s
ft ing
ab by
ab stru
ab ominable
ab straction
end s
end ers
end urance
ert ion
Ġthen ce
Ġnow here
ment ion
ment ioned
Ġhouse keep
ĠN one
ĠN ame
ĠN ational
ĠN aturally
ĠN ets
ĠN onpare
ĠN ether
ĠN icholson
ĠN apole
Ġtime keeper
Ġhow ling
pt ive
pt ness
pect ed
pect acled
led ged
Ġfo es
Ġfo il
Ġfo gged
Ġhere by
Ġhere abouts
el ic
el id
el ry
el ine
el ated
el aborate
el piece
el apse
ire r
ire st
ance lled
Ġown s
Ġown ed
age ment
Ġtheir s
Ġoff ers
Ġoff ence
Ġoff ended
Ġcame os
ĠE h
ĠE xt
ĠE sc
ĠE vent
ĠE gan
ĠE astern
ĠE mil
ĠE arl
ĠE stimates
ĠE ckerman
ĠE agle
Ġtwo s
ru b
ru le
ru ff
ru ited
ru bbery
ru dd
Ġad o
Ġad ject
Ġad mission
Ġad jac
Ġad orned
Ġad meet
Ġad herents
Ġad roit
Ġad hering
other hit
Ġback s
Ġback ed
Ġback woods
Ġen li
Ġen cir
Ġen rolled
Ġen ables
Ġen mity
Ġway side
ĠF our
ĠF red
ĠF ind
ĠF ive
ĠF ate
ĠF ire
ĠF ix
ĠF oll
ĠF foll
ĠF reed
ĠF orton
ĠF ifty
ĠF ramed
ĠF reaks
ĠF ille
ĠF riday
ĠF raser
ĠF lag
ĠF irbank
ĠF ulham
Ġmust n
Ġbo a
Ġbo ister
Ġbo ars
Ġbo oking
Ġbo iling
Ġbo som
Ġbo oming
pl an
pl ish
pl ary
pl ated
pl uck
pl ank
pl ants
pl ume
pl ike
pl unged
pl acard
pl antation
Ġar ouse
Ġar bit
Ġar row
Ġar senal
Ġar dour
ase ology
Murd er
gl ar
gl ad
gl aring
gl owing
gl anced
gl impse
gl ancing
ĠO ct
ĠO li
ĠO dd
ĠO pen
ĠO RDER
ĠO XSHO
ĠO thers
ĠThere in
ĠSt ay
ĠSt one
ĠSt art
ĠSt ake
ĠSt ile
ĠSt uff
ĠSt urm
ĠSt rad
ĠSt imson
ĠSt rong
ĠSt rand
ĠSt ylest
ĠSt amford
ĠSt agville
ĠSt rauss
Ġco ated
Ġco ach
Ġco oking
Ġco iled
Ġco inc
Ġco ax
Ġco bs
Ġco oked
Ġco aching
Ġco oped
Ġco cking
Ġco axed
Ġco heren
Ġco quet
Ġco axing
Ġco herent
Ġco iner
Ġco vet
Ġey elid
Ġbl ouse
Ġbl ade
Ġbl iz
Ġbl und
Ġbl aze
Ġbl unt
Ġbl unted
Ġbl uster
Ġbl asted
Ġbl uish
Ġbl anched
Ġbl ushes
Ġbl inked
au x
ci als
ci vil
ci pher
ci phered
iss aries
man ces
man servant
man uscript
man sions
man agement
Ġgood ly
Ġgood ness
Ġgood will
He aven
riend ly
Ġafter ward
Ġsha g
Ġsha ck
Ġsha ved
Ġsha rer
Ġsha ping
Ġsha pes
Ġsha wl
Ġnight mare
Ġcl ing
Ġcl atter
Ġcl oth
Ġcl ash
Ġcl otted
Ġcl ipping
Ġcl ients
Ġcl apping
Ġcl awing
Ġcl anged
Ġcl andest
Ġcl ustered
ple ased
ple asure
ple asing
med ical
Ġfir s
Ġfir mer
Ġfir ms
Ġlong s
Ġlong ing
ick ings
ĠP all
ĠP itt
ĠP ull
ĠP into
ĠP op
ĠP ope
ĠP istol
ĠP rob
ĠP sy
ĠP ierrot
ĠP lead
ĠP OR
ĠP owers
ĠP ERI
ĠP LAC
ĠP rehistoric
ĠP erson
ĠP enrose
ĠP lymouth
ĠP ayment
ĠP almy
ĠP adding
ĠP ortalis
ĠP aganini
ĠP urdley
Ġgl ide
Ġgl ory
Ġgl owing
Ġgl azed
Ġgl ories
Ġgl ances
Ġgl orify
ud ing
ud ged
Ġsm ash
Ġsm ug
Ġsm arter
Ġsm iles
Ġsm arted
Ġsm ashed
Ġsm oked
Ġsm oker
Ġsm udged
Ġcr ag
Ġcr ush
Ġcr umb
Ġcr ashed
Ġcr inging
Ġcr umbled
Ġcr owns
Ġcr iminology
Ġcr usade
Ġcle ft
ever sion
les ome
Ġlast s
Ġlast ed
Ġfriend less
ear ly
ear ned
ves ter
Ġimp ose
Ġimp ossi
Ġimp orter
Ġimp ressing
Ġimp lied
Ġimp aired
Ġimp ulsive
Ġimp recations
Ġimp enetrable
Ġimp artial
Ġimp assable
ree ched
Ġtell s
Ġtell tale
Ġgr ime
Ġgr unts
Ġgr aciously
Ġgr ammat
sh ow
sh od
sh own
sh owing
sh ield
sh irt
sh ips
sh illing
sh illings
sh owery
sh ipper
sh rubbery
Ġwell s
Ġwhere in
Ġwhere as
Ġwhere by
Ġsc ion
Ġsc out
Ġsc ull
Ġsc ars
Ġsc orn
Ġsc ored
Ġsc rawling
Ġsc enes
Ġsc rupulous
Ġsc enery
Ġsc intillating
Ġsc hedule
Ġsc abby
Ġsc reeched
Ġper ish
Ġper for
Ġper ched
Ġper ceived
Ġper formed
Ġper pet
Ġper chance
Ġper version
Ġper fumes
Ġper sever
not ed
not es
not ion
not iced
Ġbet imes
Ġbet wix
Ġob lit
Ġob server
Ġob trusive
Ġob edience
ton es
ton io
ull i
ber ately
Ġunder go
Ġunder world
Ġunder lying
Ġunder rated
Ġunder took
Ġunder gone
Ġunder worked
Ġthr ice
ign ed
ign antly
wh ose
wh iz
wh ip
ful fil
ful filling
Ġdis li
Ġdis hes
Ġdis arm
Ġdis par
Ġdis may
Ġdis heart
Ġdis arranged
Ġdis favour
Ġdis pen
Ġdis organ
Ġdis possess
Ġdis proved
Ġdis connected
Ġdis secting
Ġdis places
Ġdis grace
Ġdis obey
Ġdis engaged
Ġdis gusted
Ġdis ordered
Ġdis astrous
Ġdis pleasure
ĠJ ot
ĠJ ose
ĠJ ew
ĠJ up
ĠJ os
ĠJ ump
ĠJ ean
ĠJ udge
ĠJ ournal
ĠJ ealous
ĠJ anuary
ĠJ eune
ĠJ osh
ĠJ enkins
ĠJ asper
so aked
so oner
sp ace
sp ort
sp ite
sp hor
sp rung
sp asm
sp erity
sp rinkled
sp itals
Ġop ium
Ġold est
Ġold sters
Ġrem and
Ġrem ote
po ke
po ised
oub les
lock s
lock ed
hen ed
hen ce
hen ish
hen tic
Ġpass books
Ġend ured
Ġend angered
No vember
less on
less ons
less ingers
Ġcase ment
Ġcase ments
spect ion
spect acle
Ġwind s
Ġwind less
Ġlet ting
rest ing
rest less
Ġhar k
Ġhar t
Ġhar ried
Ġhar mon
Ġhar vest
for ced
for gotten
for saken
Ġev olved
Ġev olution
Ġev asive
ne au
ne eling
ne bulous
Ġho ok
Ġho gs
Ġho spitable
Ġho llows
Ġho spitals
Ġjust ly
Ġjust ify
de en
de fic
de vious
de mon
de cent
de fect
de velo
de arest
de vice
de aler
de jection
de viltry
de ciphered
per y
per or
per cept
per mit
per mitted
per amb
per plex
per petr
per icolo
ult ies
ult ane
ult ural
co ok
co ated
co ining
co ars
co als
co axing
co sts
ren ce
ren nial
Ġpr one
Ġpr ime
Ġpr ayed
Ġpr onounced
con ject
con cent
con vin
con spir
con stable
con science
con cluded
con seedar
con taining
con sult
con vex
Ġevery body
Ġinst ituted
Ġgreat coat
ail ing
Ġhead ed
Ġhead ing
Ġpart ies
Ġpart ition
Ġpart aken
Ġpart icip
Ġpart icle
oubt ed
Ġclear ness
fe minine
fe eling
fe atured
li est
li ved
li ves
li pse
Ġdark en
Ġdark ly
Ġdark est
Ġdark ling
Ġear shot
Ġear rings
Ġear liest
Ġever green
iz es
iz ens
til ed
Ġfar ming
Ġfar rier
pan e
pan iment
Ġdes erves
ĠLondon er
ĠDr ink
ĠDr ama
ret s
ret ion
ret ain
ret aining
ret iring
ret icent
ret ribution
ret riev
Ġpe ak
Ġpe ine
Ġpe asant
Ġpe aj
Ġpe aches
Ġpe aks
Ġpe oples
Ġpe rempt
Ġpe rennial
Ġgu ards
Ġgu itar
Ġgu arant
Ġsec ure
Ġsec uring
Ġsec lusion
Ġsec urities
ex act
ex ped
ex tr
ex ceed
ex position
ex haust
ex istence
ex tended
ex perience
ex ercised
ex ception
ex iguous
Ġdon ations
ident ity
ident ified
Ġret ribution
Ġret raced
Ġret icence
Ġhard y
Ġhard ness
Ġhard ships
pr it
pr ice
pr onounced
pr isons
pr ickings
ord inate
Ġhelp mate
mer cy
ince re
Ġdoubt fully
ĠIn ner
ĠIn stantly
ĠIn credible
ĠIn tense
ĠIn terpre
Ġpres iding
Ġpres erved
Ġpres erver
Ġch ose
Ġch urned
Ġch imer
Ġch ipped
Ġch illing
Ġch icken
Ġch oleric
Ġmean while
Ġac rid
Ġmorning s
with drew
Ġcertain ty
Ġcertain ties
Ġwork er
den y
den ing
more land
Ġfl ow
Ġfl atter
Ġfl ask
Ġfl aw
Ġfl ames
Ġfl ax
Ġfl aming
Ġfl ashing
Ġfl uid
Ġfl ickered
Ġfl attery
Ġfl uent
Ġfl anked
Ġfl oundering
Ġwr ist
Ġwr ists
Ġwr ithed
Ġwr ithing
Ġsur ge
Ġsur ges
Ġsur vey
Ġsur gical
Ġsur gery
Ġsur veying
Ġstill ness
Ġwoman kind
Ġint act
Ġint rust
Ġsure r
Ġdeath s
av ism
ey no
ey elids
Ġspe cul
Ġspe cious
Ġspe cially
Ġfact ories
Ġcur b
Ġcur s
Ġcur ly
Ġcur ves
Ġcur tly
Ġcur vature
Ġcur lew
Ġcur acao
Ġdet ain
Ġdet ach
Ġdet aching
Ġdet achment
Ġdet ermin
gr ate
gr ass
gr ained
gr ows
gr aybe
gr inning
gr assy
gr oup
gr andeur
Ġap olo
Ġinte nds
Ġread ers
Ġread ily
Ġread just
Ġread iest
Ġnew ly
cl atter
cl ue
cl oth
cl erk
cl ists
cl utch
cl asped
cl othed
Ġset s
Ġchan t
Ġchan nel
Ġchan nels
Ġblack ened
Ġblack ness
Ġblack ening
Ġblack guard
Ġsat ellite
Ġcount s
Ġcount ies
Ġcount less
Ġcount enance
Ġstran gest
Ġstran gling
Ġstran gle
ty pes
ty rant
up right
up roar
up bringing
Ġcha ps
Ġcha sed
Ġcha mp
Ġcha otic
Ġcha fing
Ġcha fed
Ġcha lk
Ġcha ndel
Ġdist ress
Ġdist ressed
Ġdist rait
Ġdist ribution
Ġdist aste
Ġdist ortion
Ġrep ay
Ġrep ute
Ġrep rodu
Ġrep orter
Ġrep ressing
Ġrep ulsed
Ġrep uted
Ġrep aired
aw s
aw ful
aw akened
aw aits
hes ied
Ġapp le
Ġapp aren
Ġwait ers
Ġmoment ous
Ġyear ned
Ġsince re
ater nal
Ġent ry
Ġent ice
Ġent ail
Ġent ering
Ġent angled
Ġent reated
Ġent ailed
Ġent ranced
Ġcons cient
Ġcons ented
Ġcons iders
Ġcons olation
ip otent
Ġside long
Ġside wise
Ġclo gs
Ġclo sest
Ġask s
Ġreason ed
ĠShe ep
Ġcour ting
Ġcour ses
Ġcour teous
Ġcour thouse
Ġfear lessly
Ġfear lessness
Ġquest s
Ġfoll ies
Ġremark ing
br ace
br ick
br ute
br ush
br istle
br unette
br ambles
br onzed
br utal
br istles
Ġbro od
Ġbro ker
Ġbro oks
ho le
ho id
ho vered
ho ping
ho pes
ho llow
ho bby
ho oligan
Ġact s
Ġact ors
Ġheart ed
Ġheart less
Ġcont rol
Ġcont orted
Ġcont raction
Ġcont ribution
Ġcont ortion
Ġcont agious
Ġcont rete
Ġcont rols
Ġcont ribute
Ġleave taking
com ic
com ings
com mit
com rades
com pens
com posure
com mercial
com bination
mo an
mo at
mo ve
mo sa
mo vements
Ġhear se
oth iere
Ġcomm ence
Ġcomm itting
Ġcomm enced
ĠR ing
ĠR ome
ĠR ain
ĠR ight
ĠR ound
ĠR ose
ĠR ear
ĠR ue
ĠR ows
ĠR ec
ĠR ank
ĠR ob
ĠR iding
ĠR oll
ĠR uft
ĠR udge
ĠR etro
ĠR ailroad
ĠR OOF
ĠR ica
ĠR ichmond
ĠR odney
ĠR estaurant
ĠR umours
ĠR otherhit
ĠR eversion
ĠR ulli
ĠR henish
ĠR eyno
ĠR othiere
Ġyoung est
Ġyoung ster
Ġyoung sters
Ġres ent
Ġres ist
Ġres iding
Ġres olved
Ġres ented
Ġres ource
Ġres ounded
Ġres ounding
Ġres igned
Ġdead ened
Ġdead lock
Ġwant on
Ġdif fer
Ġdif fers
Ġel ation
Ġel ated
Ġel ms
Ġel usive
Ġel apsed
Ġel icited
Ġel igible
ĠV an
ĠV at
ĠV ix
ĠV ague
ĠV atic
ĠV oodoo
Ġmin ing
Ġmin strel
Ġstand ardized
Ġacc urate
Ġsho es
Ġsho ved
Ġsho ps
Ġvo id
ting ed
Ġmet tle
Ġbar gained
Ġbar rister
Ġbar riers
Ġfellow ship
Ġconf ound
Ġconf ron
Ġconf isc
Ġconf ederates
Ġconf idant
ĠNow here
Ġadd s
Ġadd ing
Ġadv ising
Ġadv ices
Ġadv antages
fic iency
Ġim mem
Ġim becile
Ġsupp ers
Ġsupp orted
Ġjo int
Ġjo gged
Ġletter ing
Ġappe als
ild ford
no x
no itering
no vels
no ea
Ġsign ify
Ġdri ly
Ġdri pped
Ġdri zzle
mem ber
but ler
but terflies
Ġsil k
Ġsil vering
Ġsil ks
ĠBr ing
ĠBr iton
ĠBr onzing
ens ing
ens ils
Ġstr ay
Ġstr ings
Ġstr ung
Ġstr apped
Ġstr ata
Ġstr aggling
My stery
su its
su cceed
su itor
Ġcor k
Ġcor pse
Ġcor porations
Ġcor roding
Ġcor uscation
Then ce
Ġter se
Ġter min
Ġter rif
Ġter ribly
Ġter rific
Ġwar med
Ġwar ren
Ġwar fare
Ġwar mest
Ġfr ay
Ġfr oth
Ġfr ayed
Ġfr antic
Ġfr aternal
Ġatt ire
Ġatt ach
Ġatt ained
Ġatt itude
Ġatt raction
Ġatt enuated
Ġatt orney
land lady
land scape
cle ver
cle ared
cle aring
cle arer
Ġvis ibly
Ġte aching
Ġte mples
Ġte eming
Ġserv es
Ġfam ilies
Ġind irect
Ġind orse
Ġind oors
Ġind ifferent
Ġind istinct
Ġind ignantly
Ġsudden ness
und ulations
und ulating
ual ize
Ġbeg uiling
Ġrest s
Ġrest ing
Ġrest ored
Ġrest lessness
Ġrest oration
Ġsl id
Ġsl ap
Ġsl ack
Ġsl ate
Ġsl ab
Ġsl owed
Ġsl urred
Ġsl iding
Ġsl ush
Ġsl umb
Ġsl apped
Ġsl ots
Ġser rated
Ġser pent
Ġfore st
Ġfore man
Ġfore men
Ġfore most
Ġfore saw
Ġfore told
Ġfore cast
Ġfore arms
Ġfore castle
Ġdra ught
Ġem bo
Ġem blem
Ġem bell
Ġem bedded
Ġem igrated
Ġem issaries
Ġem peror
Ġem brace
Ġass isting
Ġass ertion
Ġkeep s
Ġkeep sake
Ġbre aker
ĠAt wood
ĠAt avism
Ġexp ose
Ġexp ensive
Ġexp onent
Ġbrother hood
Ġmurder ing
ec ided
ec essor
ec lipse
ĠY ours
Ġsw ord
Ġsw amp
Ġsw arm
Ġsw inging
Ġsw athed
Ġsw allow
Ġsw itching
Ġsw elling
Ġsw allowed
Ġsw ollen
Ġcab inet
esc aping
Ġinv ite
Ġinv oke
Ġinv iting
Ġinv aded
Ġinv ented
Ġinv ari
Ġinv isibility
Ġinv ariable
Ġinv igorating
ĠAs ked
ĠAs iatic
Ġfur red
Ġfur iously
Ġfur thest
Ġpur view
Ġpur port
Ġpur sue
Ġpur chased
Ġpur chas
Ġpur itanical
Ġpur loined
Ġpur plish
Ġstart s
Ġstart le
Ġstart ling
Ġsuggest ing
Ġsuggest iven
Ġdeep er
Ġdeep set
iv y
iv or
iv ance
iv ated
iv ocal
iv arius
serv ed
serv ing
serv ation
serv ice
Ġsing ed
Ġsing ing
Ġsing ly
Ġsto ol
Ġsto op
Ġsto pping
aut ob
aut umn
Ġmark et
Ġremem bers
Ġremem brance
Ġrun ners
Ġdev ious
Ġdev ise
Ġdev ices
Ġdev otion
Ġdev oid
Ġdev outly
ĠEngl ischer
In to
In stantly
bl ight
bl ind
bl ows
bl unt
bl otched
do er
do ings
do cum
do zen
do zens
do ctored
os ition
Ġinc urred
Ġinc ited
Ġinc iter
Ġinc losed
Ġinc redulity
Ġinc isive
Ġinc orrupt
Ġran ges
Ġneed ing
Ġneed ful
Ġneed less
Ġexc esses
Ġexpect ations
Ġinde finite
Ġinde bted
Ġinde xing
miss ed
Ġchar itable
Ġple ad
Ġple ading
Ġbelie ver
ĠMac Somebody
Ġstru ggling
Ġperson ification
Ex cept
Ġsound ly
Ġeff ace
Ġeff icient
Ġeff ete
Ġshort ness
Ġshort ening
Ġexce l
Ġguess ing
Ġguess work
Ġquestion able
Ġide als
Ġaw ry
Ġaw ait
Ġaw aits
Ġaw akens
read s
Ġcare s
Ġcare lessly
Ġcare taker
Ġhome ly
Ġhome ward
Ġhome comings
Ġhapp iness
Ġinter play
Ġinter nal
Ġinter course
Ġinter section
Ġinter fered
Ġinter mitt
Ġinter pret
Ġinter rogate
Ġext rem
Ġext ensive
Ġext raction
Ġext ricated
Ġext raneous
Ġquick er
Ġquick ness
Ġquick silver
kn ight
kn owing
kn ives
master ing
sc ent
sc ore
sc ale
sc attered
sc issors
sc rawled
sc ummed
sc owls
sc oundrel
sc rub
ĠWest s
ĠWest ville
ĠWest moreland
Ġaff ili
Ġaff licted
Ġpresent iment
Ġclose ted
Ġswe at
Ġswe eping
Ġmess engers
Ġche at
Ġche ering
Ġche cks
Ġche aper
Ġche mist
Ġche wed
Ġche ckered
Ġdirect ly
Ġdirect ions
Ġdirect ors
Ġra ising
Ġra ises
Ġworld ly
Ġanswer ing
full er
og y
og enes
wor m
wor ry
wor shipper
Ġhur ting
ĠGod no
ĠGod speed
pre y
pre cious
pre lim
pre historic
pre mises
pre server
pre caution
pre servation
Ġten acious
Ġten ement
Ġhigh road
ors ley
Ġdr ain
Ġdr um
Ġdr aped
Ġdr aining
Ġdr unk
Ġdr ummed
Ġpast ed
Ġpast ing
Ġste er
Ġtruth s
Ġtruth ful
ier ies
Ġsent ences
Ġinqu ired
Ġinqu isitive
Ġeas ed
Ġeas es
So ld
So oner
Ġesc ort
Ġbad ges
Ġfall s
Ġfall acies
Ġnor theast
Ġref ers
Ġref lected
Ġref resh
Ġref using
Ġref urnished
Ġref olded
Ġref lector
Ġsub tly
Ġsub ordinates
Ġsub scribing
Ġsub sided
Ġsub ordinate
Ġring ed
Ġring let
Ġlear ning
Ġtrain ing
Ġimag ining
Ġimag ines
Ġimag inings
Ġfront al
Ġhusband s
Ġmon arch
Ġmon uments
Ġmon olith
Ġmon opo
Ġmaster s
Ġmaster piece
Ġrec urred
Ġrec ital
Ġrec ourse
Ġrec apture
Ġrec ruited
Ġkind est
Ġkind liness
Ġconv ince
Ġconv olution
Ġconv ulsive
Ġconv ulsively
Ġcomple ting
Ġcomple ted
Ġfoot ing
Ġfoot man
Ġfoot men
Ġfoot path
Ġhold er
Ġ1 6
Ġ1 64
ene mies
ener gy
Ġdro ps
Ġdro pping
Ġdro oping
Ġdeal t
Ġdeal er
Ġdeal ers
Ġconce ption
Ġconce ivably
Ġcold ness
ale ct
ĠAn ger
ĠAn cient
ĠAn nie
ĠAn tonio
Ġimport s
Ġimport ed
Ġremember ing
ian ites
ser ious
ser ies
ser geant
ten ing
ten ant
ten acious
Ġbed side
Ġbed ding
Ġblood ed
Ġblood shot
Ġblood stain
Ġblood thirsty
Ġlau ndry
Ġpath ological
Ġstud ies
your selves
Ġcry stals
arri ved
arri ves
Ġconn ive
Ġconn ivance
Ġseem ing
Ġseem ingly
Ġboot y
Ġboot mark
Ġlarge ly
how ling
light s
some what
some where
Ġir is
Ġir ony
Ġir repro
Ġir revo
Ġir retriev
Ġhum oured
ste el
ste pped
ste althy
Ġmyst ification
ĠJack son
night s
tr ay
tr ust
tr ick
tr ained
tr ains
tr agic
tr immed
tr adespe
tr ampl
tr oubles
where ver
ins isted
ins urance
ins ignificant
ins ula
ins istently
reg ained
reg arded
reg istered
reg istration
hand led
hand some
Ġfre ckles
Ġfre ckled
Ġlaw cour
Ġlaw lessness
Ġlaw suits
Ġpu zzle
Ġprom ises
Ġprom inent
Ġadm its
Ġadm onish
Ġadm irer
ĠFor get
ĠFor mosa
Ġobject ive
ob vious
ob trusive
ob taining
pro vin
pro fessor
pro gress
pro duced
pro perty
pro sperity
pro ficiency
Ġtre nd
Ġtre spass
Ġtre asury
Ġcent er
Ġcand les
Ġcand idate
Ġcap s
Ġcap tive
Ġcap tured
Ġinspector s
Ġless er
Ġless on
Ġless ons
ific ent
Ġoffic ious
Ġoffic ially
Ġdisc losing
Ġfull est
Ġlate ly
Ġnum b
Ġreco ver
Ġreco iled
Ġreco vering
Ġsafe guard
Ġvill as
Ġvill agers
Ġpocket s
Ġpocket book
Ġfog s
Ġgray ish
Ġhope ful
Ġhope lessly
can yon
cri ption
clock s
ia h
Ġsk ill
Ġsk ins
Ġsk irt
Ġsk etches
Ġsk irted
Ġhor n
Ġlist less
Ġstate ments
Ġtrust ing
Ġtrust ee
Ġboy ish
Ġconsider ate
Ġaccount ed
over come
over coat
over looking
over turned
over looked
over stimul
over whel
Ġsle nder
Ġsol es
Ġsol atium
Ġsol icitations
Ġbur ial
Ġbur gle
Ġbur rows
Ġcol onel
Ġbeaut ifull
Ġatte nding
Ġdevil ish
St ates
St aphouse
part y
Ġwatch man
Ġwatch ful
Ġwatch pocket
Ġbu y
Ġbu col
Ġbu ys
Ġbu bbling
Ġbu xom
Ġland ed
Ġland marks
Ġnarr ated
Ġnarr ating
Ġnarr atives
Ġgener ation
Ġsend s
Ġindic ating
Ġdraw s
Ġinquir ingly
iet h
iet al
iet ies
mark ed
sha red
sha ping
sha mefully
under clothes
ĠU se
ĠU rgent
Ġsn ug
Ġsn orted
Ġsn uggled
Ġsn atches
Ġsn iggered
Ġsimp lic
Ġopp rob
Ġopp osed
Ġmid way
Ġmid day
Ġhon ours
Ġgri pped
Ġgri zzle
ĠWith out
Ġru bb
before hand
form idable
mon th
mon ton
mon ths
mon ster
mon strous
Ġlead er
Ġlead ed
ĠDo ck
ĠDo ctor
ĠDo yle
Ġpost ing
Ġpost man
Ġpost ulant
ruct ive
Ġglad es
Ġeffect s
Ġeffect ed
Ġeffect ually
Ġeffect ively
cent red
ool master
ool ogy
zz ling
Ġfather s
Ġhall oa
Ġpat ting
Ġpat ted
Ġpat ched
Ġpat rolmen
Ġpat rolman
Ġpat riotic
Ġreal m
Ġreal izing
Ġmem ories
Ġmem orable
ĠBo x
ĠBo ots
ĠBo arder
Ġserious ness
after ward
after thoughts
cro p
cul ine
cul minated
Ġtri es
Ġtri pping
Ġtri pha
Ġtri pod
inc redible
inc reased
Ġbes otted
Ġbes pectacled
ĠIs land
Ġpen alties
Ġpen knives
Ġpen insula
Ġnerv ed
Ġnerv ing
ĠWar ning
ĠWar ned
ours es
Ġprob abilities
Ġappro val
Ġappro pri
Ġappro ximate
Ġcommon er
Ġcommon ers
For get
down ward
Ġsix th
Ġsix ty
Ġsharp ers
Ġsharp ened
Ġdress er
Ġthick er
ĠMan son
ĠMan ager
ĠMan gles
ĠWh itaker
Ġdel usion
Ġdel inqu
Ġdel icacy
Ġdel uged
Ġdel iverer
appe aring
Ġroad s
Ġpress es
Ġdescri bing
ring es
ring ing
Ġtry st
Ġbig gest
Ġfire arms
Ġund id
Ġund ress
Ġund eceived
Ġund eniable
Ġund esirable
Ġund isturbed
Ġund oubted
Ġund ecided
ĠMar cini
ĠMar quess
Ġstra w
Ġstra itjacket
Ġsun ken
Ġsun set
Ġsun lit
ĠTh ird
ĠTh rowing
ĠTh reads
ĠTh orsley
ĠTo o
ĠTo gether
ounc ing
Ġarrest s
Ġarrest ing
Ġexplan atory
ax ation
ib ou
ib re
inct ion
Ġmed itation
Ġmed itations
Ġmed ioc
Ġmed allion
Ġfix ing
Ġyellow ish
ĠHer man
Ġred ouble
Ġred dened
Ġred istribut
Ġreg ister
Ġreg ards
Ġreg aining
Ġform ing
Ġform ation
Ġmeant ime
unt urned
unt arily
Ġvi per
Ġprofess ed
Ġbook keeper
Ġarri ves
Ġcoll ars
Ġcoll ected
Ġcoll abor
Ġcoll iery
Ġcoll apsing
Ġcoll ector
Ġcoll ieries
Ġclean er
Ġclean ing
Ġclean ly
Ġclean liness
Ġcontin ents
Ġcontin ual
Ġinvestig ate
Ġinvestig ated
Ġinvestig ations
Ġinvestig ators
An other
An thropological
To gether
cal f
cal culation
ded uctions
ded uction
gu est
gu ide
gu iding
gu ides
gu ilty
gu ineas
Ġest imation
Ġest imate
head ing
head lines
Ġsort ing
oured ly
Ġcard iac
Ġcause less
str ain
str ation
str ained
str ung
str aining
str aggling
Ġrel ic
Ġrel ate
Ġrel ented
Ġrel atives
Ġrel apsed
Ġrel axing
Ġrel apsing
Ġrel entless
Ġrel axation
Ġsum med
Ġsum mits
Ġlie utenants
Ġjud ged
Ġjud ging
Ġroof ed
Ġquiet er
Ġeng ines
Ġeng ulf
Ġpublic ly
Ġpublic ation
Ġpublic ity
Ġstraight er
Ġstraight ening
,' âĢĿ
cr ity
cr ash
cr atic
cr ouched
cr ouching
cr umble
cr aggy
cr iticism
cum locution
tic ed
tic oats
Ġve re
Ġve ek
Ġve hic
Ġve xed
Ġve ndet
Ġri pe
Ġri pped
Ġri bs
Ġri pen
Ġri fts
Ġtouch ing
Ġwit hal
Ġwater mark
rel ation
rel ax
rel igious
Ġbound ed
Ġbound ary
Ġlit he
Ġlit erally
Ġlit igation
Ġele ments
Ġele ction
Ġele gant
Ġele vated
Ġexper iment
Ġexper iences
ĠCo ok
ĠCo ast
ĠCo als
ĠCo vent
ĠCo aling
ĠCo sta
impen etrable
Ġcommun al
Ġcommun icative
Ġfresh ly
Ġfresh ness
Ġcentre s
ĠWhite hall
fl ap
fl ask
fl aring
fl ickered
par lour
par agraph
par chment
she er
Ġsy stems
Ġsy ringes
Ġmaid s
Ġmaid servants
Ġfolk s
Ġlim iting
Ġlim itations
Ġpay er
Ġpay ment
Ġpay ments
keep ers
Ġdef y
Ġdef ied
Ġdef ined
Ġdef aced
Ġdef ying
Ġdef iled
Ġdef erred
count s
count y
count ed
count ries
dis position
dis armed
dis cern
dis arranged
dis quiet
dis adv
dis organization
dis grace
dis appearing
gate way
now here
now ledged
view s
Ġtall er
inter ference
inter ruption
inter vals
inter vened
inter minable
inter section
inter fered
Ġwall ed
Ġbright ness
Ġflo ated
Ġflo ating
Ġtor ches
Ġtor ture
Ġtor rent
Ġtor tured
Ġtor tuous
Ġhat s
Ġrespect ed
Ġrespect ful
Ġrespect ability
ĠLy nch
Ġsett les
Ġdistr ust
Ġwarning s
aven ge
aff ect
aff ord
aff ected
pit ch
pit iful
round ed
than ks
Ġed itions
Ġed itors
Ġed ifice
Ġsqu int
Ġsqu irm
Ġsqu alls
Ġsqu alor
Ġdare n
att ire
att ached
att itude
Ġgun pow
Ġgame keeper
Ġfort ress
Ġfort alice
Ġsuper iors
Ġrough shod
Ġval id
Ġval ves
Ġval ued
Ġunf ruit
Ġunf ounded
Ġunf ramed
Ġunf altering
Ġunf amiliar
Ġunf riendly
Ġthank ful
Ġthank fulness
Ġclaim ing
Ġclaim ant
Ġacqu ire
Ġacqu iring
Ġfollow ers
Ġconfess ing
Ġterror ism
Ġpursu ing
Ġpursu ers
work ers
Ġconvict ed
Ġconvict ions
Ġattempt ing
Th ink
Th ick
Th ursday
Th reats
cha p
cha in
just ification
Ġwild est
Ġmad ly
Ġmad dest
Ġmad dening
Ġbreat he
Ġbreat hings
Ġfif th
Ġfree ze
Ġhair s
Ġgas ps
Ġrevol ved
Ġrevol ting
Ġrevol vers
Ġrevol ution
Ġforg iving
ĠSome body
Ġlocal ity
Ġlocal ize
Ġcomp act
Ġcomp unction
Ġcomp ilation
Ġcomp assion
ext raordinarily
Ġchild ish
Ġchild less
Ġspecial ism
Ġspecial ists
Ġsatisf ying
Ġpurpose less
Ġrecogn izing
Ġrecogn izes
Ġgeneral ization
every one
every where
mb ling
ĠK ent
ĠK indly
ĠK NO
ĠK neeling
ĠK nox
Ġident ified
Ġident ifying
Ġty pes
Ġty rants
res idence
res umed
res olution
Ġmis erable
Ġmis carried
Ġmis directed
Ġmis behave
Ġmis calculation
Ġcond one
Ġcond uctor
Ġcond emn
Ġcond esce
Ġcond ensing
Ġfan light
Ġfan cies
Ġfashion ed
Ġfashion able
Ġins ure
Ġins ult
Ġins ists
Ġins ane
Ġins urgents
Ġins incere
let ters
ĠWas hington
Ġshru g
Ġshru bs
Ġshru gging
Ġrail ing
Ġdec ade
Ġdec orations
Ġdec reased
Ġdec oration
Ġdec orators
Ġspir ited
Ġfool s
Ġfool ed
ĠEvery where
ĠEvery body
Ġwrong ed
ĠRe ad
ĠRe ady
ĠRe bell
ĠRe ming
ĠRe gency
ĠRe cogn
ĠRe member
ĠUn ique
Ġviol in
Ġviol ins
Ġce aseless
Ġfa wning
Ġfa irest
Ġfright ens
Ġpack ed
Ġpack ages
Ġgirl s
Ġgirl ish
Ġgirl hood
ĠHug uen
alter cation
Ġstick s
Ġstick ing
Ġstair case
Ġang ular
ĠWhere ver
ĠBe hind
ĠBe hold
ĠAl as
ĠAl ton
ĠAl ways
ĠAl together
ĠAl manac
ĠAl bert
ĠTr agedy
ĠTr apping
Ġbrown s
Ġplan ing
Ġplan ter
Ġplan ning
Ġpret ense
Ġpret entious
ĠNew s
ĠNew castle
medi ately
Ġkeen ing
Ġguard ians
bell s
wind s
wind lass
Ġast uteness
Ġsad der
Ġsad dest
Ġmouth s
Ġmouth ful
Ġcru de
Ġcru dest
Ġfin er
Ġfin est
Ġfin ances
Ġfin ancial
Ġfail ing
Ġfail ure
Ġhang ed
Ġhang man
Ġhang ings
Ġlad s
Ġlad en
Ġport ly
Ġsuccess es
apid ated
Ġconclus ively
Ġcompl ied
Ġcompl icate
Ġcompl ication
Ġcompl iments
Ġcompl acently
cont ent
cont ains
cont ented
cont orted
cont rolling
cont rived
cont ortions
expect ing
expect ation
expect ations
Ġcho col
Ġdifferen tly
Ġemploy s
Ġemploy ees
Ġhurried ly
Ġbitter ness
Ġlaugh s
Ġiron ical
Ġiron works
Ġbuild er
Ġwitness box
mp oraries
occ ur
sm oking
sm iled
sm iling
sm uggled
wr ote
wr apped
wr itten
wr apper
Ġ2 1
Ġ2 6
Ġ2 00
Ġmod el
Ġmod ified
Ġmod erate
Ġden ial
Ġden ying
Ġden ounce
Ġden ouement
Ġden izens
Ġdim med
Ġdim ming
Ġdim inish
Ġdest iny
arch way
sec ured
rig id
ĠSh ort
ĠSh ipping
ĠSh iple
ĠSh orst
ĠSh uman
Ġsuff ice
Ġsuff ering
Ġsuff iced
Ġsuff oc
Ġsuff erer
Ġmoat s
Ġgrim y
Ġgrim ed
moor land
Ġexceed s
Ġhonour ably
Ġprofession als
Ġcorrespond s
Ġcorrespond ing
fall en
good ness
ral ia
vo ices
Ġsal ver
Ġsal uted
Ġsal vation
Ġsal oons
Ġpi ps
Ġpi ety
Ġpi geon
Ġbear ings
set ting
ĠMor an
ĠMor land
Ġanx iously
Ġanx ieties
ĠWill esden
pend ant
ĠCross ing
Ġgover ned
Ġpossess ed
Ġpossess es
Ġpossess or
Ġpossess ing
Ġpossess ions
Ġclerk s
possi bilities
possi bility
Ġmethod ical
pres ently
pres umably
Ġsleep s
Ġsleep lessness
Barrymore s
With out
Where ver
bre ed
bre ast
bre ach
bre aking
bac helor
back ed
back ground
cur se
cur sed
cur iously
call ing
fer ocity
ming led
might y
police man
Ġwood ed
Ġwood lands
Ġslo p
Ġbund led
Ġfut ile
Ġdull ed
Ġpar ishes
Ġpar liament
Ġpar agraph
Ġpar cels
Ġpar allel
Ġpar ietal
Ġyew s
Ġbeat s
iment ary
Ġgate way
Ġgran ge
Ġut tering
Ġut ensils
ĠSm all
then ce
think s
Ġorgan ic
Ġleg ally
Ġleg acy
Ġleg islation
une asiness
Ġtrap door
conv ulsed
conv incing
conv alesc
Ġworking man
Ġintim ately
Ġconsult ant
Ġcourt iers
Ġadventure r
Ġattack s
Ġcolour less
Ġnervous ness
Ġneighbour ing
chair s
Ġbreath lessness
Ġcipher s
Some what
chan ced
des k
des erved
des olate
des erts
des igns
des pised
des cended
fort ably
lit ter
lit tered
natural ist
past ed
past ure
past ures
pass es
pass ing
pass enger
pass ionately
pothes es
sur ly
sur prising
sur viving
wise ly
Ġtest s
Ġtest ed
Ġtest ily
Ġtest ified
Ġtest imon
Ġtest imony
Ġtreat ing
inv ited
inv isible
Ġcre aking
Ġcre ases
Ġcre ased
Ġcre aked
Ġcre eping
Ġcre eper
Ġfate ful
Ġinj ure
Ġinj uring
Ġinj unction
Ġinj unctions
Ġlur k
Ġlur id
Ġlur ks
atic s
Ġemer ge
Ġemer gency
Ġweak est
Ġweak ness
Ġweak nesses
Ġreve aled
Ġreve ller
Ġreve rence
Ġrelie ve
Ġforget fulness
Ġstri p
Ġdefinite ly
ĠAd vertise
ĠAd venture
ĠAd olph
ĠAfter wards
ĠCom mit
ĠCom mons
ĠCom parative
ĠCom mercial
Ġgrass es
Ġremain der
Ġhandsome ly
Ġintrodu cing
ĠBrown ers
ĠYork shire
mission ary
Ġinterview ed
Ġ18 00
Ġ18 65
blood stained
blood thirsty
clo ser
did n
dark ened
great er
great est
mir ched
Ġwis p
Ġwis hing
hall oa
happ ily
Ġfurn isher
Ġfrank ly
Ġfrank est
Ġfierce ly
Ġlif eless
Ġlun ched
Ġlun atic
Ġlun che
Ġbell ow
Ġbell adonna
Ġur ge
Ġur chin
Ġeight een
Ġthousand s
etr ical
Ġrecon noitering
ĠShafter s
Ġsearch ing
ĠCar bon
ĠCar olina
interest s
Ġjourney s
Ġbrand ing
hard ship
pool s
conf ident
conf used
conf usion
conf idences
conf ederates
Ġexpress ing
Ġexpress ly
Ġexpress ions
ĠAny one
ĠAny way
Ġtype writing
go es
port raits
port icoed
sa fer
Ġmut ilation
Ġmut ilated
Ġble nd
Ġble at
Ġble aker
Ġbal m
Ġbal anced
Ġbal ustraded
Ġcunning ly
Ġfle cked
Ġfight s
Ġhunt s
Ġdi agr
Ġdi alect
Ġdream s
Ġdream er
Ġinf irm
Ġinf requent
Ġinf atuated
Ġinit ial
Ġinit iated
Ġinit iation
Ġinit iate
Ġincl ine
Ġincl ining
Ġincl uding
Ġpun y
Ġpun ished
Ġpun ishes
Ġpun ctual
Ġgro ans
Ġgro cer
Ġgro aning
Ġthreat en
Ġthreat ens
Ġhist orical
Ġren ting
Ġren ted
ĠMay er
Ġann ual
Ġann ouncing
ĠSouth sea
Ġsucceed ing
Ġlegend s
Ġvan ishes
Ġje ers
Ġje mmy
Ġart ificial
ĠPro blem
ĠPro gress
Ġimpl icate
Ġimpl acable
Ġscent ed
Ġthrow back
Ġevent ful
Ġhost ile
Ġhost elry
Ġdesert ion
Ġchuck les
Ġexcited ly
Ġcheer ily
Ġstead ied
Ġstead fast
Ġshotgun s
Ġadmir al
Ġopportun e
Ġestabl ishment
country man
country side
Ġmurmur ings
investig ate
Man or
Man sel
Re gist
Sc arlet
bro ached
bro oding
ele ven
ele gant
ele gance
jo ined
jo inted
jo vial
sy mm
sy stems
sy lvan
spe ak
spe ech
vis ualize
Ġaven ges
Ġaven gers
Ġaven ging
Ġwand s
Ġwand ered
Ġsens ible
Ġban e
Ġban ished
Ġban ishment
Ġbag s
Ġbank er
Ġbank ing
Ġcar ouse
Ġcar go
Ġcar bolic
Ġcar ibou
Ġcorrid ors
Ġhy pnot
Ġhy potheses
Ġhabit ation
Ġhabit ually
Ġnet work
Ġrain ing
Ġdep th
Ġdep uty
Ġneg ative
Ġneg lect
Ġtrail ed
ĠOr me
ĠOr dn
short est
short hand
coll ar
coll ect
coll abor
coll apsed
coll iery
coll ector
Ġappre hend
Ġdrift s
Ġabsor b
board inghouses
Ġmotion ing
Ġexclam ations
Br itish
cor oner
cor ruption
cor pse
cor porations
hil us
hil ism
na e
pat ents
pat ient
pat ible
pat ience
pat ches
pat riotism
ugg ish
val ise
vill age
vill ains
vill agers
Ġver ified
Ġver itable
Ġver ify
Ġver batim
Ġtin ned
Ġaud itors
Ġspect ators
Ġspect acle
Ġmer ry
Ġmer ged
Ġmer riment
Ġmount ain
Ġcaut ions
Ġcaut ioned
Ġink ling
Ġinfl icted
Ġlen gthe
Ġlen gthy
Ġlink s
Ġgall ant
Ġgall ows
Ġgall op
Ġgall oping
Ġgall antry
Ġgall eries
Ġequ ipped
Ġequ estrian
sequ ence
Ġrese mbled
Ġstro ve
Ġstro ke
Ġstro de
Ġstro lling
rif ice
ored ly
Ġdepend ents
Ġkitchen s
Ġprete nding
Ġbold est
Ġartic les
Ġartic ulate
Ġblind ed
Ġblind ly
ĠJim my
conce ivably
consider ation
consider ations
consider ably
Ġaccept ing
Ġsurround ing
Ġapart ments
Ġelb ows
Ġoccup y
Ġoccup ant
Ġoccup ants
Ġassass ins
Ġassass ination
Ġexpert s
Ġcheck ing
Ġcheck mated
Ġrecall s
Ġcomplex ion
Ġtremb led
Ġvillain ous
Ġpleasant ly
Any one
Ġintellig ent
Ġintellig ible
Ġintellig ences
ER Y
Engl ischer
che ek
che cks
che eks
che wed
che erfully
dri ver
dri fting
del icacy
del iberate
fit ter
hor se
hor rified
prom ised
prom ises
prom inently
prom ptness
sure s
war ned
Ġtal es
Ġtal ented
help ing
Ġsch olastic
Ġsick ness
Ġmaterial ized
Ġcro aking
Ġcro aker
Ġcro oked
Ġfiend s
asy lum
Ġhate ful
Ġpick er
Ġbelong s
Ġbelong ing
Ġbelong ings
stand ardized
vert ently
Ġrequ ire
Ġreck oned
Ġstore keepers
Ġsepar ation
Ġsepar ating
Ġrust y
Ġrust ic
Ġrare fied
Ġrude ly
Ġsoot he
Ġdecl ined
Ġdecl aring
Ġdecl aration
ĠAr chie
ĠAr senal
ĠAr rive
Ġconspir ing
Ġconspir ators
ĠCount ies
ĠCaliforn ians
Ġvol untarily
ĠLook ed
Ġbrut ally
rail way
Ġbog ie
Ġcost s
Ġcost ly
Ġshape ly
Ġclass ical
ĠPr ince
Ġgrotesque ly
ignor ant
Ġdisap probation
ĠJust ice
Ġinstinct ively
fee ble
Ġactive ly
Ġcommand ing
Ġadvance ment
suff ered
clear ly
Ġtemper ament
Ġattend ance
Ġpenetr able
Ġpenetr ating
Ġcorrect ly
criminal s
Ġsupernatural ists
Ġsolemn ity
Ġinflu ences
Ġassoci ations
Ġassoci ates
lay er
sl im
sl ate
sl ag
sl aughter
sl umbered
sl uggish
tre es
tre ason
tre asure
tre acher
tre spass
tre mbling
Ġ3 1
Ġ3 7
Ġou vrier
Ġer ror
Ġwise ly
Ġsen ile
Ġsen ility
Ġsen iors
ham let
Ġmar ble
Ġmar ched
Ġmar vel
Ġmar gins
Ġmar vellous
Ġband y
Ġband ed
Ġbul k
Ġbul bous
Ġfer rule
Ġfro ze
Ġfro sty
Ġfond ly
Ġhun ter
Ġhun ched
Ġhun ters
Ġpin ch
Ġpin point
Ġpin na
Ġpin fire
Ġpers istence
imul ation
Ġgra ver
Ġgra ven
Ġgra ves
Ġgra zier
Ġgreet ing
stru ggles
Ġrespons ive
Ġstream s
amb ling
Ġship load
Ġrum ble
Ġdeli berately
Ġdelight ful
--' âĢĿ
Ġexult ing
Ġexped itions
ĠCon an
ĠCon queror
Ġgossi ps
Ġgossi ping
ĠLe aning
Ġsheet s
Ġsheep ish
Ġaband ons
Ġrock ing
Ġprop rietor
Ġprop hesied
Ġprodu ct
Ġprodu ces
abs ence
abs olute
Ġblank ly
Ġblank ets
Ġclever ly
Ġclever ness
Ġobt use
Ġobt ruded
Ġprot ected
Ġprot ecting
Ġprot ective
Ġfarm house
Ġfarm houses
Ġpeep ing
Ġintent ions
Ġblackmail er
Ġimm une
Ġimm utable
Ġimm aculate
sub mission
sub jected
sub marine
sub stitution
Ġhorse back
Ġmembers hip
secret ary
remember ing
Ġrecommend ing
Ġdevelop ments
Ġassassin ations
Ġschool master
Be g
Every thing
Wh om
Wh ile
Wh ichever
Wh itworth
cab man
char ge
char red
dest ructive
em ned
eff icient
eff acement
fellow ship
figure s
gest ure
gest ures
gest iculated
mar le
mar red
ric ation
sus pected
Ġtunn els
instant ly
Ġwest ward
respect ive
respect ability
reason s
reason ing
Ġmat ted
Ġmat hem
Ġmal odorous
Ġmus ical
Ġmus cle
Ġmag net
Ġmag istrates
Ġmoust ached
Ġcord ially
Ġcustom er
Ġcustom ers
Ġfun ction
Ġfun ctions
Ġinn ate
Ġgap s
Ġgather ings
sett ling
account s
Ġisland s
ĠHob bs
Ġforth with
Ġsail or
Ġanno ying
ĠWater ford
Ġshr unken
Ġmante l
Ġrid dle
Ġrid iculous
Ġdeb ate
Ġdeb ates
Ġdeb onair
Ġnois iest
too ed
Ġconven ience
Ġconven iences
Ġknock ing
Ġaltern ately
Ġaltern atives
ĠDe her
ĠDe ep
ĠDe utsc
ĠDe acon
Ġshel tering
Ġcomb ated
Ġcomfort s
Ġuncle an
Ġproper ly
ĠGard en
Ġencour age
Ġcool er
Ġcool ie
Ġcool ies
Ġclim b
Ġclim ate
Ġclim bing
Ġscri pt
Ġscri bbling
Ġscand alous
Ġoblig ations
Ġoper ation
Ġoper ating
deep ly
deep ened
deep ening
Ġclearing house
Ġpeace able
exc use
exc using
pract itioner
pract ically
Ġintense ly
Ġappl ication
Ġaccom pany
Ġaccom paniment
Ġoccur s
Ġoccur ring
Ġconfident ly
Ġconfident ially
suggest ion
suggest ive
Ġcorrobor ates
dog s
Ġrefer ring
prob ability
Ġgrie ve
Ġgrie ved
Ġcolle en
strong est
Ġsystem atic
Ġtweed s
Ġappreci able
Brother s
difficult ies
complete ly
Ġerr atic
Ġerr oneous
Ġpersu asion
Ġparaly ze
Ġsupreme ly
God speed
OU SLY
OU TRAGE
Pr oud
Pr ints
Pr incetown
Pr inting
ST ERY
bank book
cir cle
cir cumlocution
cart ridges
cart ilage
dom estic
dist rict
dist inction
danger ous
fact ors
fright ened
fright ful
hum ble
hum orous
hum ouredly
hum oredly
io crity
law less
mal ice
mess ing
mess enger
net ism
shad ed
tall er
wood en
Ġ4 1
Ġ4 7
Ġrom antic
Ġtur f
Ġtur rets
Ġtiger ish
Ġsac rifice
ref ined
ref lected
remon strance
Ġmir y
Ġmir rors
Ġmix ing
Ġchat ting
Ġchat tering
Ġcat kins
Ġcult ured
Ġfain ting
Ġdu pe
Ġdar ned
Ġdar lin
Ġdom inate
Ġdom inant
Ġdom inated
Ġdom estic
Ġdom icili
Ġdom ineering
Ġdus ky
Ġdiss ent
Ġdiss olved
Ġdiss atisf
Ġdiss imulation
Ġinfinite ly
Ġlat ent
Ġlat ticed
Ġlid s
Ġlab our
Ġlab ours
Ġlab oured
Ġlab elled
Ġpet ulant
Ġpet ticoats
Ġporter s
Ġphys ic
Ġnur sed
Ġnur sery
imag ining
Ġgn aws
Ġep istle
Ġep idemic
ete en
Ġstout ish
ĠBl aker
ĠAT TENTA
ĠAT TE
quest ions
quest ioned
Ġconvey s
Ġvain ly
Ġuncom fortably
Ġbran ch
Ġspan ner
Ġspan ned
Ġfold s
play s
play ing
Ġclum sily
ĠPar ade
Ġsmart ly
Ġcrit icizing
Ġscr atched
Ġscr utinizing
Ġscr ambling
Ġscar f
Ġscar red
Ġscar let
Ġhospital ity
exp ress
exp ression
exp ressing
exp losion
Ġsurm ounted
Ġintru ded
gray ish
Ġchapter s
Ġcontent ment
ĠVictor ia
Ġemb arked
Ġemotion al
Ġexception ally
Ġchest nut
Ġmonograph s
Ġ17 1
Ġ17 30
Ġ17 42
Ġ17 50
Ġirregular s
Ġirregular ity
observ es
Ġrecoll ections
Ġtriump hantly
Ġundert one
Ġundert aking
Ġregard ing
Ġengine ered
Ġrig our
contin uing
small er
Ġlegal ize
Ġreconstruct ion
Ġrenew al
English man
Ġdisappoint ing
Ġdisappoint ingly
Ġassured ly
Ġburglar ies
susp ense
susp icious
.. ..
AS SIN
ED IT
Mar ley
OL O
Or der
Un less
Un til
Un welcome
Un happily
bes ide
bes poke
bes mirched
cap able
cond itions
cond uctor
cond emned
care ful
dep artment
descri bed
fle cked
gri pped
gri zzled
gri zzling
home ward
lim bs
met ier
new comer
pell et
rit es
rit ious
swe ep
swe pt
wonder ful
Ġid leness
Ġid lers
Ġid iot
Ġaut ocr
Ġaut omatic
Ġaut hentic
Ġavail ed
Ġavail able
Ġwid ened
Ġward er
Ġshat tering
Ġsom ersault
Ġmor al
Ġmor ose
Ġmoth s
Ġbas ic
Ġbot anist
Ġblo nde
Ġblo ssoming
Ġbuck et
Ġcy clist
Ġcy clists
Ġcal culation
Ġcal ibre
Ġcarri es
Ġfac ulties
Ġfaint est
Ġtool s
Ġded uced
Ġdam n
Ġdam per
Ġlum bered
Ġpill ar
Ġpill ow
Ġpill ared
Ġpolit ician
Ġyell s
lead s
acqu itted
acqu ittal
Ġwithd rew
Ġwithd rawn
ĠMY CR
ĠMY STERY
ĠMont pens
ĠMont gom
ĠMont alva
Ġstar ved
Ġstar lit
Ġstuff ed
cel ona
ĠBar i
ĠBar clay
ĠBar berton
ĠBar celona
Ġrue fully
Ġraw est
Ġdemon strate
Ġdemon stration
ĠAm id
ĠAgain st
Ġexh umed
Ġexer cised
ĠCl ues
ĠCl arendon
Ġvast ness
Ġvig orous
Ġtrait ress
Ġtrans action
Ġtrans fixed
Ġtrans figured
Ġloyal ty
Ġcompo sure
venge ance
Ġunt ouched
Ġunt iring
Ġunt idiness
Ġfee bly
Ġbrick work
Ġpluck ing
Ġprof its
Ġprof iles
Ġprof ane
ĠGl ad
ĠGerman y
Ġspl ash
Ġspl uttered
Ġspl intered
Ġspark led
Ġspite ful
ĠNotting ham
else where
Ġoffend ers
Ġcover let
earnest ness
Ġimper fectly
Ġimper sonal
Ġgrad ients
Ġperiod ically
Ġobtain ing
def iance
dead lock
Ġprim itive
Ġearn s
Ġflut ing
Ġflut ter
Ġflut tering
Ġintr icate
Ġintr usive
Ġspeed ily
Ġapolog ized
class es
Ġchamber maid
hope less
compl icated
Ġresident ial
Ġfrown ed
Ġframe work
Ġattent ive
Ġtemp estuous
prep aring
track ed
Ġprompt ly
Ġprompt ness
Ġcapital ist
particular s
particular ly
Ġcirc led
Ġcirc ular
Ġcirc uit
Ġengage ment
ĠKn eller
Ġinsist ent
occasion ally
Ġutter ly
Ġutter ance
Ġ187 2
Ġ187 4
Ġ187 6
Ġ188 3
Ġ188 4
Ġbusy body
Ġlantern s
Ġcultiv ated
Ġcultiv ations
Ġcultiv ating
Ġrigid ly
histor ian
Ġanticip ated
Ġanticip ates
ĠTelegraph ic
ĠVandeleur s
Ad venture
Ch inese
Dark ly
Dark ness
Even ing
High ly
Ne al
Ne arer
aj ar
bur glar
bag s
cher s
cross ed
cross ing
dr ink
dr aped
dr unk
dr unken
fear lessness
gle am
gle amed
kind ly
kind ness
pu blic
pur suit
pur chased
path way
rat ory
sk ull
sw ollen
sight s
sof t
sof tening
six ty
tim ed
tim bered
tal ent
trave lling
vi olent
vas eline
wing ed
want on
Ġ[ "
Ġz est
Ġz ig
Ġz inc
Ġz oology
Ġtight er
Ġtight ly
Ġtight ness
Ġtight ening
Ġalo ft
Ġack nowledged
Ġtheat rical
Ġoil can
Ġborder land
Ġcaus ing
Ġhol es
Ġdab bed
Ġdab bler
Ġdign ified
Ġdict ation
Ġdict ate
Ġdict ated
Ġdict ator
Ġdwell ings
ĠIron hill
Ġhaz els
Ġhast en
Ġhast ily
arn ation
Ġinspect ed
Ġinspect ion
Ġhero es
Ġpit ches
Ġpit iless
Ġpol ite
Ġpol ished
Ġpra ise
Ġpra ised
Ġpawn er
Ġnin eteen
Ġbew are
Ġbew ailing
Ġgent ry
Ġglo ve
Ġglo ves
stud ents
Ġeat s
Ġetern ity
Ġweird est
ĠHA D
Ġrejo in
Ġrejo iced
Ġasce nd
Ġasce nds
Ġforbid den
Ġforbid ding
ĠMid dle
ĠMid dleton
ĠMid ianites
Ġstag s
Ġstag nate
Ġstretch ing
Ġstimul ation
Ġstimul ated
Ġancest ral
Ġath wart
ĠWood house
ĠSe a
ĠSe lf
ĠSe clusion
ĠSe bast
Ġsequ el
Ġselect ion
Ġrou ge
Ġrou ges
Ġrout e
ĠAber deen
ĠAber marle
child hood
Ġexert ed
Ġconver se
Ġconver sed
Ġconject ured
Ġconject ures
Ġconstruct or
Ġbyg one
Ġleis ured
Ġleather s
Ġleather y
artic le
artic les
Ġtrous er
Ġtrick s
Ġtrick y
ĠDark est
Ġposit ively
Ġunif orms
Ġabst raction
Ġabst ainers
tempt ation
offic es
offic ers
Ġprofit less
Ġprofit ably
Ġprecaut ion
harm less
Ġfox hound
ĠEx cept
ĠEx cellent
ĠEx change
ĠEx perience
Ġadvertise ments
glass es
ĠOb jection
ĠOld more
ĠOff icial
ĠOff icer
Ġbless ing
Ġblunder ing
Ġshame ful
Ġshame fully
Ġshaft s
ĠPres umably
Ġgrow th
Ġperplex ing
Ġbetr ay
Ġobli que
Ġobsc ene
Ġobsc ured
possess ion
neighb ouring
neighb ourhood
Ġflag ons
Ġflank s
Ġflank ing
Ġrepro ved
Ġrepro ving
Ġrepro ach
Ġrepro ached
Ġrepres enting
Ġrepres entative
comm utation
comm ands
Ġcommit tee
Ġcommiss ions
Ġminister s
Ġaccess ory
Ġaccident al
Ġsuppos itit
Ġincre ased
Ġincre asingly
household ers
scr aggy
scream s
scream ed
scream ing
Ġsweep er
Ġraven ous
Ġdram a
Ġdram atist
proceed ing
Ġtreason able
Ġdiscreet ly
Stand ing
Ġlands men
Ġrelation ship
Ġelect ed
Ġdefend ers
Ġfortun ately
Ġrailroad s
Ġcelebr ate
Ġ29 3
column s
Ġcarpet ed
Ġcarpet less
Ġnegro id
Ġdescend ant
Ġcrook s
Ġquarre lling
Ġglimmer ing
character s
character istic
Ġmalign antly
Ġmalign ancy
settle ment
settle ments
Ġshrink s
Ġdebt or
Ġdemand s
Ġshelter less
Ġendeavour ing
Ġepis ode
question ing
Ġruffian ly
Ġruffian ism
suspic ions
suspic iously
Ġexhib it
Ġexhib ited
Ġexhib iting
Ġexhib itions
Ġshrewd ness
15 43
AT TENTA
Abs urdly
Bo ys
De ep
De ath
Danger ous
Had n
IC OLO
Jac ob
Post ed
RE IG
Su pposing
Simp ly
Signor a
bu ilt
bul k
bus hy
burn ing
cig ar
citiz en
equ ivocal
eager ness
fur iously
flo ated
fail ure
frank ly
foot print
gro id
gro cer
gro aned
greet ing
hung ry
lod gers
mis took
mat ted
mat ches
mag istrate
mag netism
pha lic
pow ers
ris k
run s
tri angle
try ing
town ship
turn ing
wis est
wis ps
wis dom
wit nesses
whis ky
ï»¿ "
Ġing len
Ġze alous
Ġignor ant
Ġtim ber
Ġtail or
Ġtense ly
Ġtender ly
Ġtender ness
init iation
inst ance
inst inct
inqu ire
inqu iring
inspect ing
inspect ion
Ġwo olly
Ġsim ultane
Ġske leton
Ġsod a
Ġsway ed
Ġsway ing
Ġsque al
Ġsque aled
Ġsque aling
refer ring
report ing
recoll ections
Ġobe ying
Ġmould s
Ġmould ed
Ġmast ered
Ġbol t
Ġbol ted
Ġbol ts
Ġbust le
Ġbun ch
Ġbart enders
Ġbull ets
educ ation
Ġcas ually
Ġcow ardly
Ġcell s
Ġcart ridges
Ġcart ridge
Ġcran ing
Ġcran ium
Ġcran iology
Ġcrest s
Ġcounc il
Ġfet ed
Ġfet ish
Ġfet ched
Ġfles hy
Ġfruit less
Ġfasc inating
asse mbly
Ġhind ered
Ġhudd ling
llen ged
Ġda is
Ġdru g
ĠIN JU
ĠIN SPECT
Ġinad vertently
Ġlion ess
Ġlap ping
Ġloun ge
Ġloun gers
Ġloun ging
Ġlawn s
Ġpan nik
Ġpri est
Ġpred ict
Ġpred ominant
Ġpred ecessor
Ġpend ant
Ġpend ants
Ġpend ulous
Ġpens ions
Ġnut ritious
Ġnav y
Ġbeam s
Ġgar b
Ġgum med
Ġgains aid
stra bly
stern ly
Ġwhip cord
alert ness
Ġash ore
Ġascertain ed
adv ance
adv ised
ĠMed iocrity
Ġstam ped
Ġsand bag
Ġsaint ly
Ġmeasure s
Ġmeasure ment
ĠSu icide
ĠSte ve
ĠSte am
ĠSte ndals
Ġseason s
ĠBro ken
ĠBro oks
ĠBro oklyn
ĠBank s
Ġshud der
Ġshield ed
Ġsund ial
Ġric her
Ġric hes
Ġric hest
Ġrad iance
Ġrul er
Ġrul ing
Ġrul ings
Ġdock er
peculiar ly
peculiar ities
ĠApp ly
ĠApp arently
ĠApp reciation
Ġkiss es
appro aching
Ġneat ly
Ġnecess arily
thro bbing
thick er
thick ly
Ġexagger ate
ĠContin ental
Ġorch id
unc outh
unc ongenial
agon izing
Ġtrim ming
Ġtrim mings
Ġloaf ing
ĠLat imer
ĠDesmond s
Ġcomment ed
Ġcommend ation
Ġunc outh
Ġunc arpet
Ġunc ancelled
telegr aph
Ġjun ctions
Ġjum ping
Ġjury men
Ġbris ker
Ġbrass work
Ġplant ation
Ġprov oke
ĠGu ard
ĠGu ilt
ĠGu ildford
Ġpreci pice
Ġsport ing
Ġsport sman
aband oned
ĠNe olithic
ĠNe apolitan
ĠNe groid
ĠEd ison
ĠEd itor
ĠEd monton
Ġarch itect
ĠOF FIC
ĠOut fitter
ĠStand back
aud acious
Ġglit tered
Ġcrack ing
Ġcrack led
Ġimpro per
Ġimprison ed
shoot er
Ġpersec uting
Ġobst acles
forward ed
devil ish
person ality
Ġprinci ple
Ġprinci ples
Ġprinci pal
conclus ion
conclus ions
constant ly
return ing
prot ection
prot ruded
Ġpreserv ing
Ġpreserv ative
Ġpreserv atives
Ġchronic ler
Ġsurv ivor
Ġintol erant
Ġspecim ens
Ġenthusi ast
commend ation
Ġresort s
Ġconfine ment
Ġaddition al
success ion
Ġwarm ly
Ġattract s
Ġattract ive
Ġattract ions
Ġforesee ing
Ġassist ants
Ġassail ant
doll ars
Ġincess ant
Ġexcite ments
Ġextinct ion
Ġsteam er
Ġsentiment al
Ġescap ade
Ġrefres hing
Ġmonot one
Ġmonot ony
Ġmonot onous
Ġrecess es
Ġconnect s
Ġpuff y
Ġpuff ed
Ġpuff ing
obsc ure
obsc ured
obsc urity
Ġdiscol ourations
Ġdiscour age
Ġdiscour aged
Ġdiscour teous
Ġwhisk ers
shape less
Ġsnar l
Ġoppress ors
Ġgriev ously
Ġpostp oned
Ġillust ration
Ġillum ination
Ġillum inate
Ġillum inated
Ġmedd lesome
Ġmedic o
Ġmedic ine
Ġmedic os
Ġvibr ant
Ġvibr ated
Ġvibr ating
guess ed
crow d
crow ding
crow ded
Ġeditor ials
Ġcomprom ised
Ġtyp hoid
result s
windows ill
Ġastute ly
Ġsaddle bag
Ġcraft y
Ġorganiz ations
Ġinfam y
Ġtroubles ome
Ġimplic ating
special ty
murde rer
Ġpretext s
conceal ment
delight ed
Ġrequis ite
Ġgruff ness
Ġcrisp ness
effect ive
Ġcordial ity
Ġsoldier ly
Ġsacrific ed
Ġbenev olent
Ġuncommon ly
Ġscrap book
Ġscarce ly
Ġembarrass ed
Ġcalcul ate
Ġimperious ness
Admir al
Admir ation
Admir able
Ġathle te
Ġcommission er
iograp hy
Ġfidget ed
Ġfidget ing
Ġanecd otes
ĠEliz a
17 42
17 50
Al ways
Al ready
Ar rest
Ar senal
Ben ito
Col our
Col umn
Californ ia
Californ ians
Contin ue
Contin ental
Dev on
Dev iltry
En ough
En ormous
Foul mire
Folk estone
Im possible
Im mediately
LO W
LO CK
Mor land
Mor iarty
OF T
Old more
Off ice
Off icial
Po ssess
Po ints
Phil ip
Phil adelphia
Sh ould
Sh lessingers
Spe ak
Spe nder
York shire
bon ny
bull et
bull dog
cand le
cand idacy
cru el
cru dest
dut y
dut ies
dull est
dign ified
dign itary
dread s
fight er
fil aments
gthe ning
grave l
hol ed
hol es
hide ous
ipl ied
list ened
list less
mm a
mad ness
mach ine
mach inery
motion less
narr ow
narr ative
pal m
pri est
pier cing
privile ge
privile ges
sn apped
sn orter
sent ence
sol ve
sol id
spl ashed
spl otched
scientific ally
van ished
zig zagged
zig zag
Ġting led
Ġting ling
Ġtend s
Ġtear ing
Ġtax es
hell ish
hear thrug
Ġax e
Ġax iom
Ġapr on
Ġapr oned
Ġastr ay
Ġastr onom
inf ection
inf ested
instruct ive
instruct ions
Ġwil ful
Ġwil ting
Ġwig wam
Ġwake ful
Ġwreath s
Ġtheft s
Ġsack ed
relie f
relie ved
repro ach
recei ves
recei ving
revol ver
revol ting
recall ing
recogn ized
recogn ize
hal ting
Ġomn iscience
Ġomn ipotent
Ġmes hes
Ġmes hwork
Ġmour ning
Ġmour ned
Ġmum mified
Ġmask s
Ġbri bed
Ġbri ef
Ġbod ed
Ġbod ies
Ġbud get
Ġbiograp her
Ġbiograp hy
Ġcu ps
Ġcu plike
Ġcough ing
Ġfab ricated
Ġfab rication
Ġflood s
Ġflood ed
Ġfulf illed
Ġfulf ilment
Ġtoler ant
Ġtoler ate
Ġdise ases
Ġdise ased
Ġditch like
Ġham let
Ġham pered
Ġinert ia
Ġinsuff icient
Ġinsuff erable
Ġhed ged
Ġhed ges
Ġlux urious
Ġlux uriant
Ġpard on
Ġpard oned
Ġpite ous
Ġpite ously
Ġpert urbed
Ġpert inacity
Ġpaw ky
Ġyield ed
Ġbeet le
Ġbeet ling
Ġbearer s
immedi ate
immedi ately
Ġgor ges
Ġgor illa
Ġgod s
Ġgod less
Ġgait ers
Ġgross ness
star ved
star vation
stimul ating
severe ly
Ġthum bed
Ġthum ping
Ġthumb print
Ġthorough ly
Ġthorough fare
accompl ice
accompl ished
Ġwhims ical
Ġweigh s
Ġweigh ing
alien ating
Ġrecei pt
Ġrecei ving
Ġaspir ation
Ġaspir ations
admir ation
admir able
ĠMans ion
ĠMans ions
roll able
Ġstir red
Ġstir ring
Ġstamp ing
Ġsaun tered
Ġsaun tering
Ġant agonist
Ġant iqu
Ġanatom y
Ġanatom ical
Ġnotor ious
Ġnotor iously
ille gal
ĠWhe ther
ĠWhe reat
ĠWind le
ĠWind sor
ĠSw an
ĠSw iftly
ĠSpe ak
ĠSpe aking
ĠSimp ly
ĠSimp son
ĠSignor a
ĠBE LOW
ĠBel ow
ĠBel gian
Ġsupers ede
Ġsupers cription
Ġrud eness
Ġrud imentary
essential s
Ġdeco y
Ġdeco yed
index ed
index ing
ĠAugust o
Ġking dom
Ġkenn els
Ġkenn elled
appl ies
appl ied
threat s
threat ened
Ġexter ior
Ġexter minated
Ġexte nd
Ġexte nds
Ġexec ution
Ġexec utor
Ġkno cked
Ġkno cks
ĠCre ep
ĠCre eping
ĠCra ven
ĠCra bbe
aston ished
aston ishment
Ġvar ied
Ġvar iety
Ġvest ry
ĠTra fal
ĠTra jan
Ġalter ation
Ġalter ative
Ġtraver se
Ġtraver sed
Ġloc ate
Ġloc ally
Ġmood ily
ĠLou is
ĠLou vre
Ġcomparative ly
Ġunrave lled
Ġunrave lling
Ġunivers al
Ġunivers ally
introdu ced
introdu cing
intellig ent
intellig ible
Ġfel on
Ġfel ony
Ġami ability
Ġami abilities
temper ature
Ġjail er
Ġjump y
Ġroyste rer
Ġroyste rers
Ġplough s
associ ated
associ ates
Ġovershad owed
Ġovershad ows
Ġpropit ious
Ġpropit iate
Ġprovin ces
Ġprovin cials
Ġproport ion
Ġproport ions
Ġprovis ion
Ġprovis ions
Ġpreced ing
Ġpreced ence
Ġspo il
Ġspo ils
ĠNi agara
ĠNi hilism
ĠNear ly
Ġenlar ged
Ġenlar ges
ĠFe el
ĠFe bru
ĠFore st
ĠFore man
ĠFoul mire
ĠStud y
ĠStud ents
Ġcops es
Ġcoars er
Ġcoars eness
Ġblast ing
Ġclink ers
Ġclank ing
Ġclutch ing
ĠPo e
ĠPo ints
ĠPath ology
ĠPath ological
Ġglist ened
Ġglist ening
Ġsmould ered
Ġsmould ering
Ġsmooth ly
Ġcleans er
Ġimpet us
Ġimpet uous
Ġimprove ment
Ġscrew ed
Ġscuff le
Ġscuff ling
Ġperil ous
Ġperman ent
Ġperman ently
Ġperform ance
Ġpercept ible
Ġpercept ibly
Ġdisre pair
Ġdisre pute
span ner
span iel
Ġremind ed
forbid ding
deb t
deb ate
dec ide
dec isions
renew ed
renew ing
contr ary
contr acted
confess ed
construct ion
Ġpartners hip
Ġdespair ing
Ġdespot isms
Ġpeat y
exult ing
exult ation
prison ers
Ġchurch man
cloud s
achie ved
achie vements
Ġdisturb ance
Ġentangle ment
Ġconsum mate
Ġconsum ptive
Ġsidewalk s
Ġgips y
Ġgips ies
Ġcontract or
comfort able
ĠRo ss
ĠRo yal
ĠRes isting
ĠRes zkes
Ġresc ue
Ġresc ued
Ġminim um
Ġminim ized
Ġconfirm ation
Ġadvis er
Ġadvis able
Ġsupple ment
Ġappeal ingly
Ġsilhou ette
Ġsilhou etted
supp ly
supp osition
super ior
Ġindisc reet
Ġindisc retion
undert aker
undert aken
Ġslim y
Ġslant ing
Ġslant wise
Ġexplo it
Ġexplo sive
Interest ed
Interest ing
Ġexcav ations
Ġexcav ating
Ġexcell ence
Ġexcell ently
event ually
worth less
Ġstealth ily
Ġrecur ring
Ġ10 9
Ġ12 7
Ġbittern s
Ġirres olute
Ġirres olution
profession al
profession als
Ġtreasure s
Ġpenitent iary
Ġengra ved
Ġengra ving
bitter ly
bitter ness
interrupt ed
interrupt ing
Ġsquire s
Ġcrossroad s
attack s
attack ed
Ġvalu eless
Ġvalu ables
Ġunfair ly
Thr own
Thr ice
Ġwilder ness
extreme ly
extravag ant
extravag ance
Ġmisc arry
Ġmisc reant
Ġinsens ible
Ġinsens ibly
Ġglee fully
Ġselfish ness
smart est
wrong ed
Ġ24 9
Ġpiqu ed
Ġpiqu ant
curt ains
Ġfatig ue
Ġfatig uing
surround ings
Ġrevel ry
Ġreverent ial
Ġ189 2
Ġ189 5
blackmail ed
Ġbanquet ing
corrobor ation
corrobor ated
chest ed
warning s
complex ioned
wheel er
Ġmusc les
Ġmusc ular
Ġmagn ates
Ġmagn ificent
Ġcounters ign
Ġcounters igns
distract ing
distract ions
Ġdissu aded
Ġdissu ading
Ġstolid ly
method ical
method ically
compliment ed
Ġbaul k
Ġbaul ks
engine er
Ġprair ie
Ġprair ies
Ġbewild ered
Ġbewild ering
Ġroug her
Ġroug hened
commun icative
Ġelectric ity
discuss ing
triump h
triump hant
Ġingen ious
Ġingen uity
Ġinadmiss able
Ġinadmiss ible
Ġbrisk ly
Ġprecipit ous
Ġprecipit ated
abandon ing
Ġimplicit ly
Ġrequisition ed
ĠElizab eth
ĠElizab ethan
counter acting
sensational ism
Ġinherit ance
Ġlichen s
Ġcircumspect ly
.] âĢĿ
18 84
164 7
?.. .
Ag neau
Bl indly
Bar tholome
Bra vo
Bel ow
Bird y
Bog s
Brad shaw
Con cerning
Cle arly
Cont agious
Cons ervative
Di ogenes
Der by
Dri ving
Dant on
DON ALD
Ep ilog
Es her
Ere cted
Equ ally
Fore most
Find ing
Fright en
Free men
Fair dale
Foll owed
Frequ ently
Ga elic
Gener ally
Hor rible
Hug o
Hob son
Hender son
IV Y
Ind ies
Irish woman
Ju an
Jon athan
Jud ging
Journey s
Kno cking
KER VIL
Le ave
Lan cet
Lind er
Law ler
Mur illo
Mort imers
Mey ers
Need less
OS ED
Ox ford
Other wise
Pen ang
Pat rolman
Pain ful
Police men
Pho sphor
Penn sylvan
Pres umably
PER ICOLO
Rel igions
Rob bed
RIC T
RIG HT
Se lf
Sn ap
Sur geons
Ste ady
Sign als
Span iard
Sub marine
Stoo ping
TW RIGHT
Tr acey
Tor onto
Twe lve
Telegr am
Und oubtedly
Under ground
Vis ited
Vill as
Victor ian
Vien i
Wor king
Wess on
Wil cox
Wind le
Walter s
author ities
bir ths
bal anced
bri bed
bod ied
bond age
bran ch
breat hing
bright est
bask et
biz arre
brew er
bos om
bash ful
bird s
chat ting
cred itor
cra ft
cult ivated
carri ages
corrid or
congrat ulations
dar bies
dro pped
dam n
dod ged
dus k
div ided
dwell ing
diar ies
dron ed
dwar fish
diam onds
daunt less
eas ier
eag led
emiss ary
elect rical
fo aming
fat igues
fro zen
furn iture
fran cs
fel ony
fav ours
flan ked
fool scap
fring ed
fold ing
fiend ish
fiance e
gall antry
glo ss
gra vity
gran ite
gossi p
gips y
hun ters
iave llian
jer king
jun cture
jum ped
jud icious
jealous ly
ket tle
kne e
kno cked
lis ping
lur king
lun ching
lament ations
mid dle
mut ual
mould er
mill ions
mout hed
mant elpiece
mast iff
mort em
mix ed
murm ur
moust ache
nast y
oper ator
pom pous
pay er
pol ished
pun ish
press ure
pick pockets
patter n
penn y
pistol s
phys ician
phr aseology
rout e
ratt led
rasc als
shat tered
sch oolmaster
squ at
sust ained
sun burned
sum mit
simp le
sau vage
sne aked
sail ors
sli p
soul s
sque als
surm ises
simul ated
snat ched
tw isted
tit les
tid iest
tong s
tran scribing
treat ment
tish ly
trop ics
trait or
tunn el
tugg ing
tumbled own
twit ched
vac ant
vict ory
virt ue
wist fully
wiz ened
witch craft
wreath s
xy sm
ĠQu arter
ĠQue en
Ġtat tooed
Ġtid y
Ġtac iturn
Ġtro ops
Ġtil ted
Ġtact ics
Ġtren chers
Ġtens ion
Ġtape red
height s
heap s
Ġaver ted
Ġaqu iline
Ġaus picious
Ġapost olic
intern ational
infall ibly
infer ior
instit uted
inspire s
insepar able
insuper able
Ġwre ck
Ġwol f
Ġwrest led
Ġwides pread
Ġwield ed
Ġwatt les
Ġtheor izing
Ġthermomet er
Ġsou venir
Ġsan ction
Ġsard onic
Ġshar k
Ġsne ered
Ġsland ered
Ġsang uine
Ġscient ist
reve llers
rese arches
repe ated
represent ations
halo es
haught y
Ġost entatiously
Ġomin ous
Ġmas culine
Ġming led
Ġmic robe
Ġmur ky
Ġmol est
Ġmand ate
Ġmig ratory
Ġmult iplied
Ġmax illary
Ġmaj estically
Ġmiasm atic
Ġbon net
Ġbim etall
Ġbour geois
Ġbure au
Ġbab bling
Ġbree zy
Ġbask ets
Ġbrew ing
Ġbale ful
Ġbrig ade
Ġbrill iance
Ġbisc uits
Ġbunk er
Ġcri ppled
Ġcind ers
Ġcul prit
Ġcous ins
Ġcum ulative
Ġcren elated
Ġcens ure
Ġcower ing
Ġcraw l
Ġcairn s
Ġcudge l
Ġcaj oled
Ġcitade l
Ġfol iage
Ġful some
Ġferv our
Ġfru its
Ġfiss ure
Ġfli ppantly
Ġfier cest
Ġfriv olity
Ġfines se
Ġfunn y
Ġfisher man
enclo sures
ascertain ed
Ġhing es
Ġhil arious
Ġhust led
Ġhorr ors
Ġhither to
espier re
Ġtowe l
Ġtower ing
Ġdan gling
Ġdir ge
Ġdol ichoce
Ġdain ty
Ġdil apidated
Ġdum ps
Ġdau bed
Ġdile mma
Ġdaz zled
Ġdub ious
Ġdynam ite
Ġdodd ering
Ġdysp noea
ĠIver nian
ĠImag ine
anno yed
analy sis
hatche t
Ġinade quate
Ġinfor mer
Ġinco herent
Ġinex orably
Ġinho spitable
Ġincom patible
Ġincle ment
Ġinjust ices
Ġinscr utable
Ġinaud ible
Ġinconven ience
Ġinconclus ive
Ġinaccess ible
Ġlust rous
Ġlint el
Ġlang uid
Ġlatt ice
Ġluc idity
Ġlonel iness
Ġpic nic
Ġpac ify
Ġpion eer
Ġpal ace
Ġpad locked
Ġpall id
Ġpil ot
Ġpul p
Ġpag ination
Ġpup ils
Ġpuck er
Ġpriv acy
Ġpug nacious
Ġpian o
Ġparo xysm
Ġparch ment
Ġphr ases
Ġprud ence
Ġprivile ge
Ġphant om
Ġpisto lling
Ġpedest al
Ġnic hes
Ġnick name
Ġnouve aux
attr active
Ġitiner ant
Ġgut tering
Ġgest ure
Ġgul ped
Ġgel atine
Ġgird ed
Ġgarr ulous
Ġgreg arious
Ġginger ly
Ġgorge ous
idopter a
Ġugl iness
stol en
stam ped
start ing
stag gered
stren gthening
statues que
Ġepo ch
Ġecart e
Ġejac ulated
Ġeclips es
sevent eenth
Ġthie ves
Ġthorn bush
Ġthirt ieth
accur ately
Ġwhimp ering
Ġwhipl ash
Ġwelf are
Ġweig hed
Ġisol ated
ĠHol born
ĠHig gins
ĠHott entot
ĠHors om
ĠHarr ingby
ĠHudd led
ĠHER ALD
entertain ing
enthusi ast
irrit ability
alight ed
almon er
Ġrect ified
Ġreson ant
Ġreass uring
Ġresp onse
Ġreli able
Ġreno vated
Ġreinc arnation
Ġrebell ing
Ġrende zvous
Ġascri bed
Ġascet icism
Ġforbe ar
Ġforfe it
advent urous
adjust ing
advis ability
adopt ed
ĠMich igan
ĠMod ern
ĠMil man
ĠMurd och
ĠMount ains
ĠMex borough
ĠMach iavellian
ĠMons ieur
ĠMarty rs
ĠMaling ering
ĠMAC DONALD
ĠMonag han
ĠMichael mas
roof s
Ġstap le
Ġsturd ily
Ġstip ulated
Ġstiff ened
Ġstupe fying
ceiling ed
Ġanten nae
Ġangu ish
Ġanony mous
Ġanalog ous
Ġmeag re
Ġmechan ical
Ġmeander ings
illust rious
ĠWag ner
ĠWalk er
ĠWals ling
ĠWER E
ĠWIT H
ĠWIND LE
ĠSess ions
ĠSil vester
ĠSul ky
ĠSto ck
ĠSof tly
ĠSomet ime
ĠShad well
ĠSho cking
ĠSpart an
ĠSwind on
ĠSOL UTION
ĠSwed ish
ĠSERI OUSLY
ĠSHAL L
ĠSUPP OSED
Ġupheav al
amuse ment
ĠBod ies
ĠBell iver
ĠBart ons
ĠBare lli
ĠBert illon
ĠBright on
ĠBread th
ĠBarr ow
ĠBloom sbury
ĠBush man
ĠBAS KERVIL
ĠTheop hilus
Ġshuff ling
Ġsuav ity
Ġsulph ur
Ġrall ied
Ġrap port
Ġruth less
Ġramp ant
Ġrheum atic
Ġdocket ing
Ġbutton ed
peep ed
Ġdeple ted
Ġdemo cratic
Ġdepre cating
Ġdefin ition
Ġdecan ter
Ġdecei ves
Ġdefect s
Ġderel ict
Ġdecept ive
Ġdegre es
Ġdeeficult y
Ġdexter ity
indec ision
indispens able
ĠAust ralia
ĠAssi zes
ĠAbo ve
ĠAster oid
ĠAssess ments
ĠAloy sius
ĠAbs urd
ĠAinst ree
ĠARRE ST
ĠASS ASSIN
ĠAbra hams
ĠAldri ge
Ġkick ing
Ġkins man
chronic les
appre ciation
appoint ment
apoc rypha
thorough ness
throng s
Ġexqu isite
Ġextern al
Ġexem plary
Ġexcommun icated
quarri es
ĠHeav ily
ĠHelen a
ĠHelm dale
Ġconte mporaries
Ġconvers ations
Ġconsec utive
Ġconstit utions
Ġconstern ation
Ġoutward ly
Ġoutfl ame
loaf ers
ĠChar lie
ĠCel tic
ĠCath olic
ĠCav alier
ĠCarr uthers
ĠCamp den
ĠChand os
ĠColl ege
ĠCAR TWRIGHT
ĠCongrat ulate
ĠCrime an
ĠCorrespond ing
Ġcanop y
Ġcannib alism
Ġgogg le
uncom promising
unsc rupulous
unchar itable
unconcerned ly
unacqu ainted
univers ity
unsavour y
Young ish
Ġvag ueness
Ġvale t
Ġvarn ished
Ġvenom ous
Ġvulner able
ĠTER ROR
ĠTurpe y
ĠTapanul i
Ġtrum pery
Ġtruck s
Ġtramp led
Ġtruss ed
Ġtrunc ated
Ġloos eness
Ġloop holes
ĠLep idoptera
ĠLever ton
ĠLear n
ĠLeed s
ĠLAR GE
ĠLiber al
ĠLarbe y
ĠDep artment
ĠDiv ision
ĠDawn ing
ĠDisc ourses
ĠDynam ics
ĠDetro it
ĠDIST RICT
ĠDurand o
Ġcompart ment
Ġponder ing
Ġunself ish
Ġunimp assioned
Ġunbe nds
Ġunken nel
Ġuncan ny
Ġunwill ing
Ġunappe asable
Ġuniver se
Ġunrel enting
Ġuncha llenged
Ġunjust ifiable
Ġuntime ly
Ġuncont rollable
Ġunthink able
Ġunnerv ed
Ġunimag inative
Ġunsw athed
Ġunrespons ive
Ġunprot ected
Ġunsuccess ful
Ġunemotion al
Ġuncurt ained
Ġunwield y
Ġunilater al
Ġfeather s
Ġfeature less
Ġamass ed
Ġambit ions
measure s
Ġlibe l
weaken ing
Ġjab bed
Ġjug gling
Ġjourn als
Ġbrusque ly
Ġqualific ations
Ġquagmire s
Ġagric ultural
Ġhandker chief
Ġhandcuff s
Ġplaud its
rafter s
assass ins
assail ant
Ġoversp read
Ġoverpit ched
Ġoverpower ing
Ġoverpow ered
Ġoverwhel ming
Ġoversatur ated
Ġaffor ded
belong ing
Ġproff ered
Ġprosp erous
Ġproced ure
Ġprogr amme
ĠGru esome
ĠGold ini
Ġpremed itated
Ġprett ily
Ġpremon ition
Ġpreoccup ations
Ġsparse ly
abstru se
Ġhousekeep ing
ĠNonpare il
ĠNapole on
ĠExt ract
ĠEsc urial
ĠEvent ually
ĠEmil ia
ĠEckerman n
ruff ian
rudd y
Ġadject ives
Ġadjac ent
Ġenli ven
Ġencir cled
ĠFix ing
ĠFoll ow
ĠFfoll iott
ĠFreed om
Ġboister ous
pluck ed
Ġarbit rary
ĠOli ver
ĠOdd s
ĠOXSHO TT
ĠSturm ash
ĠStrad ivarius
ĠStylest own
Ġcoach man
Ġcoinc ide
Ġcoheren tly
Ġcoquet tishly
Ġbliz zard
Ġblund ered
civil ization
Ġclatter ing
Ġclandest ine
ĠPop ham
ĠProb ably
ĠPsy chology
ĠPOR LOCK
ĠPLAC ED
ĠPerson ally
ĠPalmy ra
ĠPadding ton
Ġcrumb ling
Ġimpossi bilities
Ġimporter s
Ġgrammat ical
Ġscull ery
Ġscrupulous ly
Ġperfor mances
Ġperpet ual
Ġpersever ance
Ġbetwix t
Ġoblit erated
whiz zing
Ġdisli ked
Ġdispar ity
Ġdisheart ened
Ġdispen sed
Ġdisorgan ized
ĠJup iter
ĠJos iah
ĠJealous y
ĠJosh ua
spasm odic
Ġharmon y
Ġhogs head
defic ient
demon strably
develo ped
percept ions
peramb ulation
perplex ity
perpetr ated
coars eness
conject ures
concent ration
convin ced
conspir acy
consult ed
Ġparticip ation
Ġpeaj acket
Ġperempt ory
Ġguarant ee
exped ition
extr act
exceed ingly
exhaust ed
ĠInterpre ter
Ġchimer ical
Ġflax en
Ġsurvey s
Ġintrust ed
Ġspecul ating
Ġdetermin ation
graybe ard
Ġapolo getic
Ġreadjust ed
clutch ings
uproar iously
Ġchamp agne
Ġchandel ier
Ġdistaste ful
Ġreprodu ced
Ġapparen t
Ġconscient ious
Ġcontrete mps
commit tee
compens ation
ĠRec ord
ĠRob espierre
ĠRoll ing
ĠRuft on
ĠRetro spection
ĠRotherhit he
ĠReyno lds
ĠVix en
ĠVague ly
ĠVatic an
ĠVoodoo ism
Ġconfron ted
Ġconfisc ated
Ġimmem orial
succeed ed
Ġtermin ate
Ġterrif ying
Ġslumb ers
Ġdraught sman
Ġembo ldened
Ġembell ished
Ġinvari ably
Ġpurchas able
Ġsuggestiven ess
autob iography
docum ent
Ġincorrupt ible
Ġintermitt ent
Ġinterpret ation
Ġextrem ity
Ġaffili ated
prelim inary
Ġrefresh ment
Ġringlet s
Ġmonarch y
Ġmonolith s
Ġmonopo ly
Ġ164 4
Ġirrepro achable
Ġirrevo cable
Ġirretriev ably
tradespe ople
trampl ing
Ġlawcour ts
provin cial
overstimul ation
overwhel med
Ġbeautifull y
Ġbucol ic
Ġsimplic ity
Ġopprob rium
Ġrubb ish
Ġtripha mmer
Ġappropri ate
Ġdelinqu encies
Ġmedioc re
Ġredistribut ed
Ġcollabor ating
Ġengulf ed
Ġvehic les
Ġvendet ta
disquiet ing
disadv antage
disgrace ful
Ġgunpow der
Ġunfruit ful
ĠKNO W
Ġcondesce nd
ĠRebell ion
ĠReming ton
ĠRecogn izing
ĠHuguen ots
Ġchocol ate
ĠShiple y
Ġsuffoc ation
Ġparliament ary
convalesc ent
Ġtestimon ials
ĠAdvertise ments
ĠCommit tees
Ġfurnisher s
Ġlunche on
ĠCarbon ari
Ġdiagr am
Regist ry
jovial ity
symm etrical
Ġhypnot ic
ĠOrdn ance
collabor ator
Ġlengthe ned
treacher ous
Ġmathem atics
Ġmagnet ic
ĠDeutsc he
Ġdomicili ary
Ġdissatisf ied
Ġchestnut s
EDIT OR
Ġautocr at
Ġauthentic ity
ĠMYCR OFT
ĠMontpens ier
ĠMontgom ery
Ġcircuit ous
ĠSebast ian
Ġsuppositit ious
REIG N
Ġinglen ook
Ġsimultane ous
ĠINJU RED
ĠINSPECT OR
Ġpannik in
Ġuncarpet ed
ĠOFFIC E
Ġastronom er
Ġwigwam s
Ġantiqu arian
ĠTrafal gar
ĠFebru ary
Bartholome w
Epilog ue
Phosphor us
Pennsylvan ia
Ġbimetall ic
Ġdolichoce phalic
ĠBASKERVIL LE
