{
  "version": "1.0",
  "truncation": null,
  "padding": null,
  "added_tokens": [
    {
      "id": 0,
      "content": "<|endoftext|>",
      "single_word": false,
      "lstrip": false,
      "rstrip": false,
      "normalized": true,
      "special": true
    }
  ],
  "normalizer": null,
  "pre_tokenizer": {
    "type": "ByteLevel",
    "add_prefix_space": false,
    "trim_offsets": true,
    "use_regex": true
  },
  "post_processor": {
    "type": "ByteLevel",
    "add_prefix_space": true,
    "trim_offsets": false,
    "use_regex": true
  },
  "decoder": {
    "type": "ByteLevel",
    "add_prefix_space": true,
    "trim_offsets": true,
    "use_regex": true
  },
  "model": {
    "type": "BPE",
    "dropout": null,
    "unk_token": null,
    "continuing_subword_prefix": "",
    "end_of_word_suffix": "",
    "fuse_unk": false,
    "byte_fallback": false,
    "ignore_merges": false,
    "vocab": {
      "<|endoftext|>": 0,
      "!": 1,
      "\"": 2,
      "#": 3,
      "$": 4,
      "%": 5,
      "&": 6,
      "'": 7,
      "(": 8,
      ")": 9,
      "*": 10,
      "+": 11,
      ",": 12,
      "-": 13,
      ".": 14,
      "/": 15,
      "0": 16,
      "1": 17,
      "2": 18,
      "3": 19,
      "4": 20,
      "5": 21,
      "6": 22,
      "7": 23,
      "8": 24,
      "9": 25,
      ":": 26,
      ";": 27,
      "<": 28,
      "=": 29,
      ">": 30,
      "?": 31,
      "@": 32,
      "A": 33,
      "B": 34,
      "C": 35,
      "D": 36,
      "E": 37,
      "F": 38,
      "G": 39,
      "H": 40,
      "I": 41,
      "J": 42,
      "K": 43,
      "L": 44,
      "M": 45,
      "N": 46,
      "O": 47,
      "P": 48,
      "Q": 49,
      "R": 50,
      "S": 51,
      "T": 52,
      "U": 53,
      "V": 54,
      "W": 55,
      "X": 56,
      "Y": 57,
      "Z": 58,
      "[": 59,
      "\\": 60,
      "]": 61,
      "^": 62,
      "_": 63,
      "`": 64,
      "a": 65,
      "b": 66,
      "c": 67,
      "d": 68,
      "e": 69,
      "f": 70,
      "g": 71,
      "h": 72,
      "i": 73,
      "j": 74,
      "k": 75,
      "l": 76,
      "m": 77,
      "n": 78,
      "o": 79,
      "p": 80,
      "q": 81,
      "r": 82,
      "s": 83,
      "t": 84,
      "u": 85,
      "v": 86,
      "w": 87,
      "x": 88,
      "y": 89,
      "z": 90,
      "{": 91,
      "|": 92,
      "}": 93,
      "~": 94,
      "¡": 95,
      "¢": 96,
      "£": 97,
      "¤": 98,
      "¥": 99,
      "¦": 100,
      "§": 101,
      "¨": 102,
      "©": 103,
      "ª": 104,
      "«": 105,
      "¬": 106,
      "®": 107,
      "¯": 108,
      "°": 109,
      "±": 110,
      "²": 111,
      "³": 112,
      "´": 113,
      "µ": 114,
      "¶": 115,
      "·": 116,
      "¸": 117,
      "¹": 118,
      "º": 119,
      "»": 120,
      "¼": 121,
      "½": 122,
      "¾": 123,
      "¿": 124,
      "À": 125,
      "Á": 126,
      "Â": 127,
      "Ã": 128,
      "Ä": 129,
      "Å": 130,
      "Æ": 131,
      "Ç": 132,
      "È": 133,
      "É": 134,
      "Ê": 135,
      "Ë": 136,
      "Ì": 137,
      "Í": 138,
      "Î": 139,
      "Ï": 140,
      "Ð": 141,
      "Ñ": 142,
      "Ò": 143,
      "Ó": 144,
      "Ô": 145,
      "Õ": 146,
      "Ö": 147,
      "×": 148,
      "Ø": 149,
      "Ù": 150,
      "Ú": 151,
      "Û": 152,
      "Ü": 153,
      "Ý": 154,
      "Þ": 155,
      "ß": 156,
      "à": 157,
      "á": 158,
      "â": 159,
      "ã": 160,
      "ä": 161,
      "å": 162,
      "æ": 163,
      "ç": 164,
      "è": 165,
      "é": 166,
      "ê": 167,
      "ë": 168,
      "ì": 169,
      "í": 170,
      "î": 171,
      "ï": 172,
      "ð": 173,
      "ñ": 174,
      "ò": 175,
      "ó": 176,
      "ô": 177,
      "õ": 178,
      "ö": 179,
      "÷": 180,
      "ø": 181,
      "ù": 182,
      "ú": 183,
      "û": 184,
      "ü": 185,
      "ý": 186,
      "þ": 187,
      "ÿ": 188,
      "Ā": 189,
      "ā": 190,
      "Ă": 191,
      "ă": 192,
      "Ą": 193,
      "ą": 194,
      "Ć": 195,
      "ć": 196,
      "Ĉ": 197,
      "ĉ": 198,
      "Ċ": 199,
      "ċ": 200,
      "Č": 201,
      "č": 202,
      "Ď": 203,
      "ď": 204,
      "Đ": 205,
      "đ": 206,
      "Ē": 207,
      "ē": 208,
      "Ĕ": 209,
      "ĕ": 210,
      "Ė": 211,
      "ė": 212,
      "Ę": 213,
      "ę": 214,
      "Ě": 215,
      "ě": 216,
      "Ĝ": 217,
      "ĝ": 218,
      "Ğ": 219,
      "ğ": 220,
      "Ġ": 221,
      "ġ": 222,
      "Ģ": 223,
      "ģ": 224,
      "Ĥ": 225,
      "ĥ": 226,
      "Ħ": 227,
      "ħ": 228,
      "Ĩ": 229,
      "ĩ": 230,
      "Ī": 231,
      "ī": 232,
      "Ĭ": 233,
      "ĭ": 234,
      "Į": 235,
      "į": 236,
      "İ": 237,
      "ı": 238,
      "Ĳ": 239,
      "ĳ": 240,
      "Ĵ": 241,
      "ĵ": 242,
      "Ķ": 243,
      "ķ": 244,
      "ĸ": 245,
      "Ĺ": 246,
      "ĺ": 247,
      "Ļ": 248,
      "ļ": 249,
      "Ľ": 250,
      "ľ": 251,
      "Ŀ": 252,
      "ŀ": 253,
      "Ł": 254,
      "ł": 255,
      "Ń": 256,
      "Ġt": 257,
      "he": 258,
      "Ġa": 259,
      "in": 260,
      "Ġw": 261,
      "Ġthe": 262,
      "Ġs": 263,
      "ou": 264,
      "re": 265,
      "ha": 266,
      "Ġo": 267,
      "er": 268,
      "nd": 269,
      "Ġm": 270,
      "is": 271,
      "âĢ": 272,
      "Ġb": 273,
      "it": 274,
      "on": 275,
      "ed": 276,
      "Ġc": 277,
      "Ġf": 278,
      "en": 279,
      "Ġof": 280,
      "as": 281,
      "Ġh": 282,
      "es": 283,
      "Ġto": 284,
      "or": 285,
      "ll": 286,
      "ing": 287,
      "Ġd": 288,
      "ĠI": 289,
      "Ġha": 290,
      "an": 291,
      "ar": 292,
      "Ġand": 293,
      "hat": 294,
      "Ġin": 295,
      "Ġhe": 296,
      "Ġl": 297,
      "Ġp": 298,
      "Ġn": 299,
      "om": 300,
      "Ġy": 301,
      "at": 302,
      "âĢľ": 303,
      "âĢĿ": 304,
      "Ġyou": 305,
      "ve": 306,
      "Ġthat": 307,
      "ow": 308,
      "ic": 309,
      "Ġbe": 310,
      "le": 311,
      "ot": 312,
      "ld": 313,
      "Ġwas": 314,
      "Ġit": 315,
      "im": 316,
      "Ġg": 317,
      "id": 318,
      "Ġu": 319,
      "st": 320,
      "Ġe": 321,
      "se": 322,
      "Ġth": 323,
      "ly": 324,
      "ut": 325,
      "Ġhis": 326,
      "ac": 327,
      "Ġwh": 328,
      "ay": 329,
      "Ġwe": 330,
      "gh": 331,
      "et": 332,
      "ver": 333,
      "Ġis": 334,
      "ĠH": 335,
      "ent": 336,
      "Ġon": 337,
      "ir": 338,
      "ith": 339,
      "ould": 340,
      "ĠĠ": 341,
      "ion": 342,
      "Ġhad": 343,
      "ur": 344,
      "The": 345,
      "al": 346,
      "Ġre": 347,
      "Ġas": 348,
      "Ġwith": 349,
      "Ġfor": 350,
      "ad": 351,
      ".âĢĿ": 352,
      "Ġhave": 353,
      "ght": 354,
      "ĠM": 355,
      "ro": 356,
      "Ġst": 357,
      "ce": 358,
      "Ġsa": 359,
      "ri": 360,
      "Ġan": 361,
      "ol": 362,
      "Ġnot": 363,
      "ter": 364,
      "Ġme": 365,
      "Ġat": 366,
      "ill": 367,
      "ĠW": 368,
      "Ġmy": 369,
      "ich": 370,
      "ĠS": 371,
      "Ġhim": 372,
      "out": 373,
      "her": 374,
      "ome": 375,
      "our": 376,
      "Ġup": 377,
      "Ġse": 378,
      "am": 379,
      "if": 380,
      "ĠB": 381,
      "ore": 382,
      "Ġwhich": 383,
      "ke": 384,
      "od": 385,
      "ĠThe": 386,
      "ct": 387,
      "ain": 388,
      "rom": 389,
      "ge": 390,
      "Ġsh": 391,
      "Ġsaid": 392,
      "?âĢĿ": 393,
      "and": 394,
      "red": 395,
      "Ġthis": 396,
      "Ġman": 397,
      "ight": 398,
      "Ġsu": 399,
      "Ġr": 400,
      "Ġdo": 401,
      "ess": 402,
      "ell": 403,
      "all": 404,
      "Ġbut": 405,
      "il": 406,
      "pe": 407,
      "ble": 408,
      "Ġfrom": 409,
      "Ġso": 410,
      "mes": 411,
      "ĠâĢľ": 412,
      "Ġde": 413,
      "'s": 414,
      "very": 415,
      "ind": 416,
      "the": 417,
      "ĠA": 418,
      "olmes": 419,
      "Ġk": 420,
      "ch": 421,
      "--": 422,
      "one": 423,
      "Ġwere": 424,
      "est": 425,
      "Ġall": 426,
      "Ġbeen": 427,
      "ss": 428,
      "Ġupon": 429,
      "ard": 430,
      "Ġone": 431,
      "ap": 432,
      "Ġno": 433,
      "Ġwould": 434,
      "ul": 435,
      "Ġne": 436,
      ".\"": 437,
      "th": 438,
      "Ġwhe": 439,
      "Ġex": 440,
      "Ġyour": 441,
      "qu": 442,
      "Ġare": 443,
      "ound": 444,
      "ĠHe": 445,
      "Ġthere": 446,
      "to": 447,
      "ant": 448,
      "Ġcon": 449,
      "Ġby": 450,
      "ry": 451,
      "Ġout": 452,
      ",âĢĿ": 453,
      "ĠHolmes": 454,
      "Ġwho": 455,
      "ust": 456,
      "Ġkn": 457,
      "us": 458,
      "ĠĠĠĠ": 459,
      "ok": 460,
      "ation": 461,
      "lo": 462,
      "own": 463,
      "Ġsee": 464,
      "Ġus": 465,
      "ĠC": 466,
      "ack": 467,
      "Ġsome": 468,
      "Ġwill": 469,
      "ous": 470,
      "Ġcan": 471,
      "ive": 472,
      "Ġher": 473,
      "son": 474,
      "ĠIt": 475,
      "Ġor": 476,
      "Ġgo": 477,
      "Ġle": 478,
      "ck": 479,
      "Ġour": 480,
      "un": 481,
      "Ġcould": 482,
      "ace": 483,
      "ast": 484,
      "art": 485,
      "ame": 486,
      "You": 487,
      "ĠMr": 488,
      "Ġv": 489,
      "Ġvery": 490,
      "lf": 491,
      "ark": 492,
      "ate": 493,
      "ort": 494,
      "ĠT": 495,
      "Ġal": 496,
      "ag": 497,
      "ong": 498,
      "ure": 499,
      "Ġtr": 500,
      "âĢĻ": 501,
      "hing": 502,
      "han": 503,
      "Ġhas": 504,
      "Ġif": 505,
      "Ġlo": 506,
      "Ġwor": 507,
      "ig": 508,
      "Ġmo": 509,
      "pp": 510,
      "ĠL": 511,
      "ĠD": 512,
      "Ġshe": 513,
      "Ġcom": 514,
      "Ġpo": 515,
      "Ġwhat": 516,
      "ice": 517,
      "fore": 518,
      "Ġthey": 519,
      "ist": 520,
      "Ġany": 521,
      "ven": 522,
      "Ġwhen": 523,
      "Ġun": 524,
      "Ġab": 525,
      "int": 526,
      "Ġfe": 527,
      "Ġam": 528,
      "me": 529,
      "ink": 530,
      "ough": 531,
      "ak": 532,
      "Ġli": 533,
      "ond": 534,
      "urd": 535,
      "Ġshould": 536,
      "Ġknow": 537,
      "we": 538,
      "hed": 539,
      "ouse": 540,
      "Ġthem": 541,
      "ide": 542,
      "te": 543,
      "ime": 544,
      "Ġj": 545,
      "Ġro": 546,
      "Ġbr": 547,
      "ake": 548,
      "Ġqu": 549,
      "Ġmore": 550,
      "atson": 551,
      "of": 552,
      "ers": 553,
      "able": 554,
      "wn": 555,
      "Ġag": 556,
      "ther": 557,
      "urn": 558,
      "erv": 559,
      "?\"": 560,
      "um": 561,
      "Ġhand": 562,
      "are": 563,
      "Ġpl": 564,
      "ect": 565,
      "self": 566,
      "ĠWatson": 567,
      "ep": 568,
      "ie": 569,
      "ence": 570,
      "Ġtw": 571,
      "act": 572,
      "Ġmay": 573,
      "ought": 574,
      "way": 575,
      "ra": 576,
      "ass": 577,
      "Ġdown": 578,
      "Ġinto": 579,
      "imp": 580,
      "ran": 581,
      "ite": 582,
      "Ġbefore": 583,
      "It": 584,
      "Ġover": 585,
      "ĠBut": 586,
      "Ġaf": 587,
      "be": 588,
      "'t": 589,
      "itt": 590,
      "!âĢĿ": 591,
      "Ġpro": 592,
      "ade": 593,
      "Ġ\"": 594,
      "ĠG": 595,
      "Ġpre": 596,
      "Ġsay": 597,
      "reat": 598,
      "ady": 599,
      "ĠĠĠĠĠĠ": 600,
      "Ġcome": 601,
      "Ġdid": 602,
      "ave": 603,
      "ious": 604,
      "ĠĠĠĠĠĠĠ": 605,
      "ine": 606,
      "Ġsp": 607,
      "Ġabout": 608,
      "Ġthan": 609,
      "ft": 610,
      "ked": 611,
      "oun": 612,
      "Ġother": 613,
      "ried": 614,
      "ĠSir": 615,
      "ab": 616,
      "end": 617,
      "ert": 618,
      "Ġthink": 619,
      "Ġthen": 620,
      "Ġnow": 621,
      "ment": 622,
      "Ġhouse": 623,
      "cc": 624,
      "his": 625,
      "ose": 626,
      "ĠN": 627,
      "Ġtime": 628,
      "Ġhow": 629,
      "Ġonly": 630,
      "pt": 631,
      "pect": 632,
      "that": 633,
      "led": 634,
      "har": 635,
      "Ġfo": 636,
      "Ġhere": 637,
      "el": 638,
      "ire": 639,
      "ĠMc": 640,
      "Ġagain": 641,
      "ance": 642,
      "Ġown": 643,
      "ife": 644,
      "age": 645,
      "Ġtheir": 646,
      "Ġoff": 647,
      "Well": 648,
      "nder": 649,
      "Ġcame": 650,
      "Ġface": 651,
      ",\"": 652,
      "ĠE": 653,
      "Ġtwo": 654,
      "ru": 655,
      "Ġad": 656,
      "other": 657,
      "ning": 658,
      "ĠYou": 659,
      "Ġback": 660,
      "ger": 661,
      "Ġen": 662,
      "Ġway": 663,
      "Ġlook": 664,
      "ĠF": 665,
      "Ġmust": 666,
      "Ġday": 667,
      "ved": 668,
      "Ġbo": 669,
      "pl": 670,
      "Ġar": 671,
      "ase": 672,
      "Murd": 673,
      "gl": 674,
      "ĠO": 675,
      "ĠThere": 676,
      "ath": 677,
      "ĠSt": 678,
      "Murdo": 679,
      "Ġco": 680,
      "Ġey": 681,
      "Ġbl": 682,
      "au": 683,
      "ci": 684,
      "ĠWe": 685,
      "ress": 686,
      "ish": 687,
      "iss": 688,
      "ally": 689,
      "man": 690,
      "ity": 691,
      "Ġgood": 692,
      "He": 693,
      "riend": 694,
      "Ġafter": 695,
      "Ġsha": 696,
      "Ġnight": 697,
      "Ġget": 698,
      "Ġcl": 699,
      "right": 700,
      "ple": 701,
      "med": 702,
      "Ġfir": 703,
      "uch": 704,
      "Ġlong": 705,
      "ick": 706,
      "ood": 707,
      "ĠP": 708,
      "Ġlike": 709,
      "ise": 710,
      "Ġgl": 711,
      "Ġnever": 712,
      "ud": 713,
      "Ġsm": 714,
      "Ġcr": 715,
      "Ġcle": 716,
      "Ġroom": 717,
      "ount": 718,
      "ever": 719,
      "les": 720,
      "Ġthought": 721,
      "Ġlast": 722,
      "ies": 723,
      "ittle": 724,
      "ew": 725,
      "Ġmight": 726,
      "Ġfriend": 727,
      "Ġsir": 728,
      "urned": 729,
      "ear": 730,
      "ves": 731,
      "Ġimp": 732,
      "ree": 733,
      "Ġtell": 734,
      "Ġeyes": 735,
      "air": 736,
      "Ġgr": 737,
      "'ll": 738,
      "sh": 739,
      "Ġwell": 740,
      "Ġnothing": 741,
      "Ġwhere": 742,
      "Ġfirst": 743,
      "Ġheard": 744,
      "Ġsc": 745,
      "Ġper": 746,
      "not": 747,
      "Ġbet": 748,
      "Ġword": 749,
      "Ġmoor": 750,
      "But": 751,
      "Ġob": 752,
      "enry": 753,
      "What": 754,
      "ton": 755,
      "There": 756,
      "ull": 757,
      "Ġmade": 758,
      "ened": 759,
      "atter": 760,
      "ber": 761,
      "ving": 762,
      "ings": 763,
      "Ġunder": 764,
      "Ġlittle": 765,
      "Ġthr": 766,
      "Ġke": 767,
      "ssi": 768,
      "ign": 769,
      "ff": 770,
      "wh": 771,
      "Ġmuch": 772,
      "ary": 773,
      "owed": 774,
      "ful": 775,
      "ward": 776,
      "Ġdis": 777,
      "ions": 778,
      "ĠJ": 779,
      "Ġsuch": 780,
      "so": 781,
      "sp": 782,
      "Ġfind": 783,
      "Ġleft": 784,
      "Ġop": 785,
      "ask": 786,
      "Ġold": 787,
      "Ġrem": 788,
      "ps": 789,
      "ue": 790,
      "po": 791,
      "omet": 792,
      "ĠMcMurdo": 793,
      "oub": 794,
      "Ġdoor": 795,
      "ated": 796,
      "thing": 797,
      "lock": 798,
      "hen": 799,
      "Ġpass": 800,
      "Ġend": 801,
      "ĠHenry": 802,
      "No": 803,
      "less": 804,
      "Ġcase": 805,
      "spect": 806,
      "Ġwind": 807,
      "Ġlet": 808,
      "And": 809,
      "ness": 810,
      "rest": 811,
      "Ġhar": 812,
      "ared": 813,
      "for": 814,
      "get": 815,
      "Ġev": 816,
      "Ġeven": 817,
      "Yes": 818,
      "ne": 819,
      "Ġho": 820,
      "Ġjust": 821,
      "de": 822,
      "per": 823,
      "ult": 824,
      "ertain": 825,
      "ile": 826,
      "Ġthese": 827,
      "ĠIf": 828,
      "co": 829,
      "lp": 830,
      "ren": 831,
      "Ġpr": 832,
      "Ġsaw": 833,
      "con": 834,
      "Ġevery": 835,
      "gg": 836,
      "Ġinst": 837,
      "Ġgreat": 838,
      "ail": 839,
      "ily": 840,
      "ason": 841,
      "Ġhead": 842,
      "Ġpart": 843,
      "ĠThat": 844,
      "Ġmost": 845,
      "Ġyet": 846,
      "oubt": 847,
      "ait": 848,
      "Ġcried": 849,
      "We": 850,
      "Ġtake": 851,
      "Ġmake": 852,
      "ict": 853,
      "ody": 854,
      "orning": 855,
      "ondon": 856,
      "ervill": 857,
      "Ġclear": 858,
      "askervill": 859,
      "fe": 860,
      "li": 861,
      "arry": 862,
      "Ġonce": 863,
      "Ġdark": 864,
      "Ġlight": 865,
      "Ġasked": 866,
      "Ġsame": 867,
      "you": 868,
      "Ġfound": 869,
      "Ġround": 870,
      "omething": 871,
      "Ġaway": 872,
      "Ġear": 873,
      "Ġever": 874,
      "Ġhands": 875,
      "iz": 876,
      "til": 877,
      "Ġmatter": 878,
      "Ġfar": 879,
      "pan": 880,
      "Ġdes": 881,
      "oman": 882,
      "Ġits": 883,
      "ĠLondon": 884,
      "ĠDr": 885,
      "hy": 886,
      "ret": 887,
      "Ġput": 888,
      "Ġpap": 889,
      "Ġname": 890,
      "Ġright": 891,
      "Ġdone": 892,
      "ĠThen": 893,
      "Ġpe": 894,
      "Ġgu": 895,
      "ĠWhat": 896,
      "Ġsec": 897,
      "Ġthrough": 898,
      "Ġlife": 899,
      "ex": 900,
      "ial": 901,
      "Ġdon": 902,
      "Ġans": 903,
      "Ġhimself": 904,
      "ellow": 905,
      "Ġwindow": 906,
      "Ġtook": 907,
      "ather": 908,
      "ident": 909,
      "askerville": 910,
      "reet": 911,
      "Ġret": 912,
      "Ġhard": 913,
      "pr": 914,
      "ougl": 915,
      "ord": 916,
      "Ġhelp": 917,
      "ross": 918,
      "ouglas": 919,
      "ced": 920,
      "Ġmind": 921,
      "ĠAnd": 922,
      "mer": 923,
      "ince": 924,
      "Ġdoubt": 925,
      "ĠIn": 926,
      "leton": 927,
      "Ġpres": 928,
      "ered": 929,
      "Ġpoint": 930,
      "Ġch": 931,
      "Ġmean": 932,
      "odge": 933,
      "apleton": 934,
      "Ġac": 935,
      "Ġmen": 936,
      "Ġmorning": 937,
      "aster": 938,
      "alk": 939,
      "with": 940,
      "Ġcertain": 941,
      "Ġgive": 942,
      "Ġwork": 943,
      "ause": 944,
      "Holmes": 945,
      "That": 946,
      "den": 947,
      "ied": 948,
      "igh": 949,
      "ms": 950,
      "more": 951,
      "ner": 952,
      "orr": 953,
      "Ġmurd": 954,
      "ular": 955,
      "Ġuntil": 956,
      "Ġplace": 957,
      "ng": 958,
      "Ġsomething": 959,
      "Ġfl": 960,
      "Ġagainst": 961,
      "Ġlooked": 962,
      "ald": 963,
      "ined": 964,
      "Ġwr": 965,
      "Ġsur": 966,
      "Ġstill": 967,
      "Ġenough": 968,
      "Ġwoman": 969,
      "Ġint": 970,
      "olice": 971,
      "Ġseen": 972,
      "'ve": 973,
      "ott": 974,
      "Ġsure": 975,
      "Ġdeath": 976,
      "av": 977,
      "here": 978,
      "Ġcall": 979,
      "ory": 980,
      "Ġbec": 981,
      "ĠDouglas": 982,
      "ey": 983,
      "Ġspe": 984,
      "Ġfact": 985,
      "harles": 986,
      "Ġcur": 987,
      "Ġhour": 988,
      "Ġdet": 989,
      "oment": 990,
      "Ġthose": 991,
      "Ġknew": 992,
      "Gint": 993,
      "gr": 994,
      "side": 995,
      "was": 996,
      "Ġap": 997,
      "had": 998,
      "ery": 999,
      "Ġtoo": 1000,
      "anger": 1001,
      "Ġinte": 1002,
      "Ġread": 1003,
      "Ġnew": 1004,
      "gether": 1005,
      "Ginty": 1006,
      "cl": 1007,
      "ces": 1008,
      "Ġturned": 1009,
      "Ġset": 1010,
      "Ġchan": 1011,
      "Ġgot": 1012,
      "ach": 1013,
      "Ġblack": 1014,
      "Ġsat": 1015,
      "Ġcount": 1016,
      "Ġstran": 1017,
      "ĠBaskerville": 1018,
      "Ġpossi": 1019,
      "ty": 1020,
      "up": 1021,
      "Ġcha": 1022,
      "Ġdist": 1023,
      "ical": 1024,
      "imer": 1025,
      "Ġrep": 1026,
      "ways": 1027,
      "ĠStapleton": 1028,
      "aw": 1029,
      "Ġ'": 1030,
      "hes": 1031,
      "Ġapp": 1032,
      "Ġwait": 1033,
      "Ġmoment": 1034,
      "ised": 1035,
      "Ġtold": 1036,
      "Ġyear": 1037,
      "ained": 1038,
      "hind": 1039,
      "Ġsince": 1040,
      "Ġhalf": 1041,
      "ater": 1042,
      "Ġwithout": 1043,
      "ortimer": 1044,
      "Ġinstant": 1045,
      "aid": 1046,
      "ned": 1047,
      "Ġent": 1048,
      "Ġtak": 1049,
      "Ġwent": 1050,
      "Ġcons": 1051,
      "ĠMrs": 1052,
      "ween": 1053,
      "ip": 1054,
      "Ġside": 1055,
      "Ġclo": 1056,
      "Ġthree": 1057,
      "Ġask": 1058,
      "ĠCharles": 1059,
      "ged": 1060,
      "Ġreason": 1061,
      "ĠShe": 1062,
      "which": 1063,
      "ition": 1064,
      "Ġcour": 1065,
      "Ġlay": 1066,
      "Ġfear": 1067,
      "Ġquest": 1068,
      "Ġfoll": 1069,
      "Ġremark": 1070,
      "br": 1071,
      "iness": 1072,
      "Ġgi": 1073,
      "ĠMortimer": 1074,
      "ister": 1075,
      "Ġbro": 1076,
      "ho": 1077,
      "ject": 1078,
      "Ġact": 1079,
      "Ġheart": 1080,
      "Ġcont": 1081,
      "Ġleave": 1082,
      "Ġfew": 1083,
      "az": 1084,
      "com": 1085,
      "mo": 1086,
      "Ġhear": 1087,
      "Ġpolice": 1088,
      "oth": 1089,
      "Ġseemed": 1090,
      "arker": 1091,
      "Ġcomm": 1092,
      "Ġanything": 1093,
      "ĠR": 1094,
      "Ġwife": 1095,
      "Ġyoung": 1096,
      "sel": 1097,
      "Ġwhy": 1098,
      "Ġres": 1099,
      "ĠThey": 1100,
      "Ġdead": 1101,
      "Ġwhole": 1102,
      "Ġshall": 1103,
      "Ġinterest": 1104,
      "'m": 1105,
      "ling": 1106,
      "sed": 1107,
      "Ġwant": 1108,
      "rew": 1109,
      "Ġdif": 1110,
      "Ġdanger": 1111,
      "Ġel": 1112,
      "ents": 1113,
      "Ġcompan": 1114,
      "wards": 1115,
      "ĠV": 1116,
      "ready": 1117,
      "Ġmin": 1118,
      "Ġbehind": 1119,
      "Ġstand": 1120,
      "Ġalso": 1121,
      "arrymore": 1122,
      "Ġacc": 1123,
      "Ġocc": 1124,
      "Ġsho": 1125,
      "Ġvo": 1126,
      "ĠMcGinty": 1127,
      "Ġbetween": 1128,
      "Ġopen": 1129,
      "lie": 1130,
      "ting": 1131,
      "have": 1132,
      "Ġmet": 1133,
      "Ġbar": 1134,
      "Ġfellow": 1135,
      "ute": 1136,
      "ĠSc": 1137,
      "Ġconf": 1138,
      "ĠThis": 1139,
      "ĠNow": 1140,
      "Ġadd": 1141,
      "Ġadv": 1142,
      "Ġsmall": 1143,
      "selves": 1144,
      "!\"": 1145,
      "Mc": 1146,
      "fic": 1147,
      "Ġim": 1148,
      "Ġlodge": 1149,
      "ĠHis": 1150,
      "Ġsupp": 1151,
      "Ġalways": 1152,
      "Ġjo": 1153,
      "Ġdays": 1154,
      "Ġunderst": 1155,
      "Ġletter": 1156,
      "Ġappe": 1157,
      "ix": 1158,
      "ild": 1159,
      "no": 1160,
      "Ġsign": 1161,
      "Ġdri": 1162,
      "ows": 1163,
      "Ġthing": 1164,
      "ĠMy": 1165,
      "herlock": 1166,
      "Ġcannot": 1167,
      "mem": 1168,
      "Ġwords": 1169,
      "Ġevening": 1170,
      "but": 1171,
      "ted": 1172,
      "Ġsil": 1173,
      "Ġstood": 1174,
      "ĠBr": 1175,
      "this": 1176,
      "usiness": 1177,
      "spector": 1178,
      "ens": 1179,
      "Ġlady": 1180,
      "idence": 1181,
      "ached": 1182,
      "room": 1183,
      "Ġstr": 1184,
      "pped": 1185,
      "My": 1186,
      "su": 1187,
      "ither": 1188,
      "Ġcor": 1189,
      "Ġtogether": 1190,
      "Then": 1191,
      "Ġwithin": 1192,
      "Ġbetter": 1193,
      "ped": 1194,
      "Ġter": 1195,
      "inal": 1196,
      "atch": 1197,
      "ower": 1198,
      "ations": 1199,
      "ched": 1200,
      "my": 1201,
      "xt": 1202,
      "Ġwar": 1203,
      "haps": 1204,
      "ished": 1205,
      "Ġfr": 1206,
      "Ġatt": 1207,
      "Ġmyself": 1208,
      "day": 1209,
      "land": 1210,
      "ĠBarker": 1211,
      "Ġpassed": 1212,
      "Ġpaper": 1213,
      "cle": 1214,
      "Ġbody": 1215,
      "Ġgone": 1216,
      "aced": 1217,
      "entle": 1218,
      "Ġvis": 1219,
      "ggest": 1220,
      "dden": 1221,
      "ek": 1222,
      "Ġte": 1223,
      "Ġserv": 1224,
      "Ġfam": 1225,
      "Ġind": 1226,
      "imes": 1227,
      "uth": 1228,
      "Ġwhom": 1229,
      "Ġsudden": 1230,
      "ĠOn": 1231,
      "Ġcountry": 1232,
      "ngl": 1233,
      "ature": 1234,
      "ention": 1235,
      "Ġdoes": 1236,
      "ushed": 1237,
      "wered": 1238,
      "Ġvoice": 1239,
      "fter": 1240,
      "und": 1241,
      "ual": 1242,
      "ont": 1243,
      "ense": 1244,
      "Ġbeg": 1245,
      "Ġgave": 1246,
      "Ġrest": 1247,
      "Ġbrought": 1248,
      "Ġsurpr": 1249,
      "Ġsl": 1250,
      "Ġser": 1251,
      "ĠBarrymore": 1252,
      "Ġexam": 1253,
      "Ġcrime": 1254,
      "ficult": 1255,
      "Ġfore": 1256,
      "Ġhound": 1257,
      "Ġdra": 1258,
      "Ġem": 1259,
      "Ġass": 1260,
      "Ġdear": 1261,
      "there": 1262,
      "Ġnear": 1263,
      "Ġexpl": 1264,
      "Ġalready": 1265,
      "actly": 1266,
      "Ġkeep": 1267,
      "Ġcourse": 1268,
      "Ġbre": 1269,
      "Ġbeing": 1270,
      "ĠAt": 1271,
      "Ġnext": 1272,
      "Ġexp": 1273,
      "Ġbrother": 1274,
      "irect": 1275,
      "Ġanswered": 1276,
      "Ġacross": 1277,
      "Ġmurder": 1278,
      "Ġtaken": 1279,
      "ec": 1280,
      "ople": 1281,
      "ĠY": 1282,
      "Ġsw": 1283,
      "oud": 1284,
      "ons": 1285,
      "Ġcab": 1286,
      "esc": 1287,
      "ans": 1288,
      "Ġinv": 1289,
      "Ġanother": 1290,
      "Ġord": 1291,
      "Ġhowever": 1292,
      "Ġsecret": 1293,
      "Ġpossible": 1294,
      "Ġunderstand": 1295,
      "him": 1296,
      "oke": 1297,
      "Ġbusiness": 1298,
      "ĠAs": 1299,
      "Ġcertainly": 1300,
      "rer": 1301,
      "Ġfur": 1302,
      "aring": 1303,
      "Ġpur": 1304,
      "Ġthings": 1305,
      "Ġstart": 1306,
      "ĠWhen": 1307,
      "Ġsuggest": 1308,
      "Ġdeep": 1309,
      "McMurdo": 1310,
      "How": 1311,
      "Why": 1312,
      "iv": 1313,
      "men": 1314,
      "serv": 1315,
      "Ġsing": 1316,
      "Ġheld": 1317,
      "Ġgentle": 1318,
      "ider": 1319,
      "ety": 1320,
      "Ġsto": 1321,
      "ĠSherlock": 1322,
      "Ġyears": 1323,
      "aut": 1324,
      "bly": 1325,
      "ouble": 1326,
      "Ġmark": 1327,
      "Ġbest": 1328,
      "Ġremem": 1329,
      "rible": 1330,
      "Ġrun": 1331,
      "Ġdev": 1332,
      "lood": 1333,
      "ager": 1334,
      "Ġquite": 1335,
      "ĠEngl": 1336,
      "Ġvisit": 1337,
      "If": 1338,
      "In": 1339,
      "bl": 1340,
      "do": 1341,
      "os": 1342,
      "rade": 1343,
      "uck": 1344,
      "wer": 1345,
      "arried": 1346,
      "Ġinc": 1347,
      "Ġwhile": 1348,
      "ĠHall": 1349,
      "ĠMiss": 1350,
      "Ġnote": 1351,
      "Ġmany": 1352,
      "Ġran": 1353,
      "Ġneed": 1354,
      "Ġexc": 1355,
      "Ġexpect": 1356,
      "Ġstrange": 1357,
      "Ġdifficult": 1358,
      "Ġelse": 1359,
      "its": 1360,
      "onet": 1361,
      "ash": 1362,
      "Ġinde": 1363,
      "irl": 1364,
      "ĠSo": 1365,
      "Ġpeople": 1366,
      "meric": 1367,
      "miss": 1368,
      "Ġchar": 1369,
      "Ġple": 1370,
      "Ġbelie": 1371,
      "ĠMac": 1372,
      "Ġstru": 1373,
      "Ġshowed": 1374,
      "Ġgoing": 1375,
      "onder": 1376,
      "Ġperson": 1377,
      "Ġgiven": 1378,
      "Ex": 1379,
      "house": 1380,
      "Ġsound": 1381,
      "Ġboth": 1382,
      "Ġeff": 1383,
      "Ġthough": 1384,
      "Ġshort": 1385,
      "Ġexce": 1386,
      "Ġguess": 1387,
      "Ġquestion": 1388,
      "band": 1389,
      "ev": 1390,
      "ken": 1391,
      "win": 1392,
      "would": 1393,
      "Ġide": 1394,
      "Ġaw": 1395,
      "read": 1396,
      "Ġcare": 1397,
      "Ġfive": 1398,
      "Ġhome": 1399,
      "Ġhus": 1400,
      "Ġtown": 1401,
      "Ġhapp": 1402,
      "Ġinter": 1403,
      "ĠHow": 1404,
      "ains": 1405,
      "Ġrather": 1406,
      "alley": 1407,
      "Ġext": 1408,
      "Ġamong": 1409,
      "Ġquick": 1410,
      "iew": 1411,
      "feren": 1412,
      "kn": 1413,
      "master": 1414,
      "sc": 1415,
      "Ġwalk": 1416,
      "ank": 1417,
      "iminal": 1418,
      "Ġwhite": 1419,
      "ird": 1420,
      "ĠWest": 1421,
      "estrade": 1422,
      "ection": 1423,
      "Ġaff": 1424,
      "Ġpresent": 1425,
      "Ġchance": 1426,
      "Ġclose": 1427,
      "bed": 1428,
      "from": 1429,
      "ired": 1430,
      "Ġswe": 1431,
      "Ġmess": 1432,
      "Ġche": 1433,
      "Ġdirect": 1434,
      "Ġstep": 1435,
      "Ġra": 1436,
      "cket": 1437,
      "aged": 1438,
      "Ġworld": 1439,
      "igure": 1440,
      "Ġabs": 1441,
      "ĠNo": 1442,
      "ĠStreet": 1443,
      "Ġanswer": 1444,
      "Ġhardly": 1445,
      "Ġfollowed": 1446,
      "Ġfamily": 1447,
      "cy": 1448,
      "full": 1449,
      "og": 1450,
      "use": 1451,
      "wor": 1452,
      "Ġtable": 1453,
      "Ġtalk": 1454,
      "Ġhur": 1455,
      "otel": 1456,
      "ĠGod": 1457,
      "Ġpapers": 1458,
      "aldwin": 1459,
      "Ġspeak": 1460,
      "Ġfacts": 1461,
      "ient": 1462,
      "pre": 1463,
      "Ġten": 1464,
      "Ġable": 1465,
      "Ġhigh": 1466,
      "ors": 1467,
      "Ġdr": 1468,
      "Ġlar": 1469,
      "Ġpast": 1470,
      "atur": 1471,
      "Ġste": 1472,
      "Ġshow": 1473,
      "Ġyourself": 1474,
      "Ġtruth": 1475,
      "upon": 1476,
      "Ġstrong": 1477,
      "Ġindeed": 1478,
      "Don": 1479,
      "ee": 1480,
      "ier": 1481,
      "tt": 1482,
      "what": 1483,
      "Ġsent": 1484,
      "Ġinqu": 1485,
      "Ġeas": 1486,
      "urred": 1487,
      "alked": 1488,
      "ĠWell": 1489,
      "ĠAmeric": 1490,
      "used": 1491,
      "Ġseems": 1492,
      "Ġalone": 1493,
      "Ġcoming": 1494,
      "ression": 1495,
      "Ġreport": 1496,
      "So": 1497,
      "ually": 1498,
      "Ġesc": 1499,
      "Ġturn": 1500,
      "oul": 1501,
      "Ġmiss": 1502,
      "Ġbad": 1503,
      "Ġfall": 1504,
      "Ġnor": 1505,
      "idge": 1506,
      "Ġref": 1507,
      "Ġsub": 1508,
      "Ġring": 1509,
      "--âĢĿ": 1510,
      "Ġlear": 1511,
      "ung": 1512,
      "Ġtrain": 1513,
      "Ġimag": 1514,
      "Ġfront": 1515,
      "Ġidea": 1516,
      "Ġhusband": 1517,
      "bo": 1518,
      "by": 1519,
      "ible": 1520,
      "ining": 1521,
      "ream": 1522,
      "ern": 1523,
      "Ġmon": 1524,
      "Ġmaster": 1525,
      "ang": 1526,
      "arr": 1527,
      "Ġweek": 1528,
      "ĠHouse": 1529,
      "Ġrec": 1530,
      "Ġmeet": 1531,
      "Ġshot": 1532,
      "Ġsoon": 1533,
      "Ġkind": 1534,
      "Ġconv": 1535,
      "Ġknown": 1536,
      "Ġcomple": 1537,
      "Ġfeel": 1538,
      "Ġfoot": 1539,
      "Ġhold": 1540,
      "Ġdetect": 1541,
      "Ġchair": 1542,
      "Ġstruck": 1543,
      "'d": 1544,
      "Mr": 1545,
      "come": 1546,
      "fin": 1547,
      "lan": 1548,
      "Ġ1": 1549,
      "ited": 1550,
      "ene": 1551,
      "ener": 1552,
      "Ġdro": 1553,
      "ars": 1554,
      "Ġuse": 1555,
      "aces": 1556,
      "riv": 1557,
      "Ġdeal": 1558,
      "ants": 1559,
      "Ġconce": 1560,
      "Ġcold": 1561,
      "Ġshad": 1562,
      "Ġreturn": 1563,
      "Ġbaronet": 1564,
      "Ġsuppose": 1565,
      "ale": 1566,
      "ience": 1567,
      "ove": 1568,
      "ug": 1569,
      "Ġbit": 1570,
      "Ġfigure": 1571,
      "Ġheav": 1572,
      "Ġeach": 1573,
      "als": 1574,
      "illed": 1575,
      "outh": 1576,
      "ames": 1577,
      "ĠAn": 1578,
      "Ġwhose": 1579,
      "ushing": 1580,
      "Ġbring": 1581,
      "Ġimport": 1582,
      "Ġcompanion": 1583,
      "Ġremember": 1584,
      "fully": 1585,
      "could": 1586,
      "ian": 1587,
      "ler": 1588,
      "nes": 1589,
      "ser": 1590,
      "ten": 1591,
      "vious": 1592,
      "Ġbed": 1593,
      "Ġblood": 1594,
      "Ġlau": 1595,
      "Ġpath": 1596,
      "owing": 1597,
      "Ġreally": 1598,
      "Ġstud": 1599,
      "amp": 1600,
      "ĠLestrade": 1601,
      "rank": 1602,
      "ably": 1603,
      "Ġcriminal": 1604,
      "Ġopened": 1605,
      "most": 1606,
      "Ġaddress": 1607,
      "Ġbelieve": 1608,
      "This": 1609,
      "ying": 1610,
      "your": 1611,
      "Ġcry": 1612,
      "arri": 1613,
      "legr": 1614,
      "Ġconn": 1615,
      "Ġseem": 1616,
      "Ġpoor": 1617,
      "aking": 1618,
      "been": 1619,
      "Ġboot": 1620,
      "Ġreturned": 1621,
      "Ġlarge": 1622,
      "how": 1623,
      "light": 1624,
      "mpt": 1625,
      "some": 1626,
      "Ġir": 1627,
      "inary": 1628,
      "Ġwish": 1629,
      "Ġhum": 1630,
      "ates": 1631,
      "ste": 1632,
      "Ġeither": 1633,
      "Ġready": 1634,
      "Ġreached": 1635,
      "Ġmyst": 1636,
      "oney": 1637,
      "thy": 1638,
      "tered": 1639,
      "ledge": 1640,
      "airs": 1641,
      "Ġkept": 1642,
      "ĠJack": 1643,
      "Ġevident": 1644,
      "ized": 1645,
      "Ġsecond": 1646,
      "Ġsurely": 1647,
      "night": 1648,
      "tr": 1649,
      "where": 1650,
      "ins": 1651,
      "reg": 1652,
      "reen": 1653,
      "hand": 1654,
      "Ġcut": 1655,
      "Ġfre": 1656,
      "Ġline": 1657,
      "Ġlaw": 1658,
      "Ġlater": 1659,
      "Ġpu": 1660,
      "Ġprom": 1661,
      "ating": 1662,
      "Ġstory": 1663,
      "ĠWhy": 1664,
      "ĠBaldwin": 1665,
      "estig": 1666,
      "Ġleast": 1667,
      "Ġtrouble": 1668,
      "Ġfeet": 1669,
      "itting": 1670,
      "Ġadm": 1671,
      "ĠFor": 1672,
      "Ġobject": 1673,
      "like": 1674,
      "Ġmeans": 1675,
      "Ġorder": 1676,
      "Exactly": 1677,
      "Ġmessage": 1678,
      "Donald": 1679,
      "On": 1680,
      "Sure": 1681,
      "fess": 1682,
      "ob": 1683,
      "pro": 1684,
      "sition": 1685,
      "tly": 1686,
      "Ġtre": 1687,
      "Ġcent": 1688,
      "Ġcand": 1689,
      "Ġcap": 1690,
      "arter": 1691,
      "Ġinspector": 1692,
      "Ġless": 1693,
      "Ġpower": 1694,
      "Ġeager": 1695,
      "veral": 1696,
      "uring": 1697,
      "ific": 1698,
      "ĠCh": 1699,
      "aker": 1700,
      "ĠGar": 1701,
      "Ġspoke": 1702,
      "Ġoffic": 1703,
      "Ġperhaps": 1704,
      "Ġdisc": 1705,
      "Ġcalled": 1706,
      "Ġstanding": 1707,
      "undred": 1708,
      "pter": 1709,
      "tain": 1710,
      "uge": 1711,
      "Ġfull": 1712,
      "Ġtowards": 1713,
      "anced": 1714,
      "ara": 1715,
      "Ġled": 1716,
      "Ġlate": 1717,
      "Ġnum": 1718,
      "Ġyes": 1719,
      "ative": 1720,
      "vered": 1721,
      "utes": 1722,
      "Ġreco": 1723,
      "Ġsafe": 1724,
      "Ġdoing": 1725,
      "Ġsomeone": 1726,
      "Ġvill": 1727,
      "Ġalong": 1728,
      "Ġcomes": 1729,
      "Ġpocket": 1730,
      "Ġfog": 1731,
      "Ġgray": 1732,
      "Ġevidence": 1733,
      "Ġhope": 1734,
      "odymaster": 1735,
      "Ġbecause": 1736,
      "can": 1737,
      "cri": 1738,
      "clock": 1739,
      "ia": 1740,
      "min": 1741,
      "into": 1742,
      "Ġwalked": 1743,
      "Ġsk": 1744,
      "Ġsit": 1745,
      "Ġfour": 1746,
      "Ġhor": 1747,
      "Ġhill": 1748,
      "arm": 1749,
      "arance": 1750,
      "Ġlist": 1751,
      "icular": 1752,
      "Ġwhis": 1753,
      "vers": 1754,
      "Ġstate": 1755,
      "Ġtrust": 1756,
      "Ġanyone": 1757,
      "Ġothers": 1758,
      "Ġlooking": 1759,
      "Ġboy": 1760,
      "orris": 1761,
      "Ġconsider": 1762,
      "Ġaccount": 1763,
      "Ġfurther": 1764,
      "Ġraised": 1765,
      "Ġheavy": 1766,
      "Ġcandle": 1767,
      "Did": 1768,
      "Oh": 1769,
      "du": 1770,
      "king": 1771,
      "over": 1772,
      "ract": 1773,
      "Ġwon": 1774,
      "Ġsle": 1775,
      "Ġsol": 1776,
      "Ġbur": 1777,
      "Ġcol": 1778,
      "Ġcarry": 1779,
      "asion": 1780,
      "any": 1781,
      "Ġbeaut": 1782,
      "aynes": 1783,
      "ceed": 1784,
      "Ġatte": 1785,
      "aint": 1786,
      "Ġtrack": 1787,
      "Ġlove": 1788,
      "aught": 1789,
      "ciety": 1790,
      "ney": 1791,
      "Ġpract": 1792,
      "Ġsuddenly": 1793,
      "Ġdevil": 1794,
      "atural": 1795,
      ".'": 1796,
      "Is": 1797,
      "St": 1798,
      "lt": 1799,
      "part": 1800,
      "pose": 1801,
      "Ġwatch": 1802,
      "ouch": 1803,
      "Ġbu": 1804,
      "Ġhundred": 1805,
      "Ġlow": 1806,
      "Ġland": 1807,
      "Ġnarr": 1808,
      "icag": 1809,
      "Ġgener": 1810,
      "iding": 1811,
      "ently": 1812,
      "Ġstreet": 1813,
      "Ġsend": 1814,
      "Ġseveral": 1815,
      "Ġsusp": 1816,
      "ĠAll": 1817,
      "ards": 1818,
      "loom": 1819,
      "Ġlived": 1820,
      "ption": 1821,
      "Ġbox": 1822,
      "ize": 1823,
      "ĠBrother": 1824,
      "Ġindic": 1825,
      "Ġdraw": 1826,
      "Ġsingular": 1827,
      "Ġpleas": 1828,
      "ttie": 1829,
      "Ġinquir": 1830,
      "Ġdetective": 1831,
      "icago": 1832,
      "aving": 1833,
      "iet": 1834,
      "mark": 1835,
      "ossi": 1836,
      "sha": 1837,
      "under": 1838,
      "ĠU": 1839,
      "Ġsn": 1840,
      "Ġsimp": 1841,
      "Ġopp": 1842,
      "ering": 1843,
      "Ġmid": 1844,
      "âĢĺ": 1845,
      "Ġhon": 1846,
      "Ġdrew": 1847,
      "Ġgri": 1848,
      "Ġstation": 1849,
      "cei": 1850,
      "Ġsave": 1851,
      "ĠWith": 1852,
      "Ġru": 1853,
      "them": 1854,
      "oking": 1855,
      "before": 1856,
      "Ġeye": 1857,
      "Ġobvious": 1858,
      "form": 1859,
      "Ġentered": 1860,
      "aze": 1861,
      "Ġsurprise": 1862,
      "Ġbreak": 1863,
      "rers": 1864,
      "Ġgentleman": 1865,
      "Ġcomplete": 1866,
      "Sir": 1867,
      "ches": 1868,
      "mon": 1869,
      "ured": 1870,
      "inally": 1871,
      "Ġsight": 1872,
      "nded": 1873,
      "Ġmist": 1874,
      "Ġmine": 1875,
      "Ġoften": 1876,
      "enty": 1877,
      "ĠMorris": 1878,
      "iled": 1879,
      "ility": 1880,
      "que": 1881,
      "Ġlead": 1882,
      "ortun": 1883,
      "ĠDo": 1884,
      "Ġpost": 1885,
      "inted": 1886,
      "were": 1887,
      "rang": 1888,
      "ruct": 1889,
      "ĠOne": 1890,
      "Ġlikely": 1891,
      "Ġglad": 1892,
      "Ġrooms": 1893,
      "orrow": 1894,
      "Ġwaiting": 1895,
      "Ġremarkable": 1896,
      "Ġminutes": 1897,
      "Ġsilence": 1898,
      "Ġtelegr": 1899,
      "atures": 1900,
      "Ġeffect": 1901,
      "arriage": 1902,
      "Ġsuspic": 1903,
      "Ah": 1904,
      "Not": 1905,
      "She": 1906,
      "Watson": 1907,
      "cent": 1908,
      "ool": 1909,
      "well": 1910,
      "yond": 1911,
      "zz": 1912,
      "ĠâĢĺ": 1913,
      "Ġwonder": 1914,
      "Ġsli": 1915,
      "ermiss": 1916,
      "iting": 1917,
      "Ġfell": 1918,
      "Ġfather": 1919,
      "Ġhotel": 1920,
      "llent": 1921,
      "Ġhall": 1922,
      "Ġpat": 1923,
      "Ġbeyond": 1924,
      "othes": 1925,
      "stone": 1926,
      "see": 1927,
      "acter": 1928,
      "Ġreal": 1929,
      "Ġmem": 1930,
      "ĠBo": 1931,
      "ĠBodymaster": 1932,
      "aped": 1933,
      "Ġmove": 1934,
      "harp": 1935,
      "Ġoffice": 1936,
      "cia": 1937,
      "ship": 1938,
      "Ġkey": 1939,
      "Ġparticular": 1940,
      "Ġhours": 1941,
      "Ġoccurred": 1942,
      "Ġterrible": 1943,
      "Ġserious": 1944,
      "Ġswear": 1945,
      "Ġlearned": 1946,
      "ĠChicago": 1947,
      "ermissa": 1948,
      "Cha": 1949,
      "When": 1950,
      "after": 1951,
      "cro": 1952,
      "cul": 1953,
      "hn": 1954,
      "ohn": 1955,
      "ping": 1956,
      "will": 1957,
      "when": 1958,
      "Ġtri": 1959,
      "inc": 1960,
      "Ġsister": 1961,
      "Ġmoney": 1962,
      "isf": 1963,
      "ison": 1964,
      "Ġbes": 1965,
      "Ġcir": 1966,
      "ĠIs": 1967,
      "Ġhaving": 1968,
      "Ġlod": 1969,
      "Ġpen": 1970,
      "Ġnerv": 1971,
      "Ġforward": 1972,
      "olute": 1973,
      "ĠWar": 1974,
      "ours": 1975,
      "ĠBaynes": 1976,
      "geant": 1977,
      "Ġbutler": 1978,
      "blem": 1979,
      "Ġsociety": 1980,
      "Ġoutside": 1981,
      "ush": 1982,
      "Ġvalley": 1983,
      "Ġplay": 1984,
      "Ġprob": 1985,
      "cial": 1986,
      "Ġobserv": 1987,
      "Ġcurious": 1988,
      "Ġappro": 1989,
      "Ġcommon": 1990,
      "irlstone": 1991,
      "Ġconceal": 1992,
      "Ġstudy": 1993,
      "Chapter": 1994,
      "For": 1995,
      "dle": 1996,
      "down": 1997,
      "fect": 1998,
      "vent": 1999,
      "Ġill": 2000,
      "Ġsix": 2001,
      "Ġsharp": 2002,
      "ising": 2003,
      "ital": 2004,
      "Ġcig": 2005,
      "Ġhuge": 2006,
      "Ġdress": 2007,
      "owly": 2008,
      "ides": 2009,
      "Ġthick": 2010,
      "They": 2011,
      "ĠMan": 2012,
      "Ġsake": 2013,
      "ĠWh": 2014,
      "ctor": 2015,
      "Ġdel": 2016,
      "appe": 2017,
      "Ġwhether": 2018,
      "Ġused": 2019,
      "Ġview": 2020,
      "Ġfelt": 2021,
      "Ġknowledge": 2022,
      "Ġroad": 2023,
      "rave": 2024,
      "Ġpress": 2025,
      "ments": 2026,
      "ĠFrom": 2027,
      "Ġfriends": 2028,
      "Ġeverything": 2029,
      "ails": 2030,
      "Ġdescri": 2031,
      "ighb": 2032,
      "Ġbroken": 2033,
      "ashion": 2034,
      "ĠMacDonald": 2035,
      "'re": 2036,
      "As": 2037,
      "By": 2038,
      "iver": 2039,
      "ror": 2040,
      "ring": 2041,
      "Ġtry": 2042,
      "Ġtimes": 2043,
      "Ġsoul": 2044,
      "has": 2045,
      "Ġmention": 2046,
      "Ġbig": 2047,
      "Ġfire": 2048,
      "Ġdut": 2049,
      "Ġduring": 2050,
      "Ġnone": 2051,
      "icked": 2052,
      "Ġgloom": 2053,
      "Ġund": 2054,
      "ĠMar": 2055,
      "Ġstay": 2056,
      "Ġstra": 2057,
      "iful": 2058,
      "Ġsun": 2059,
      "Ġourselves": 2060,
      "ĠTh": 2061,
      "ĠTo": 2062,
      "Ġtrue": 2063,
      "Ġlost": 2064,
      "Ġrose": 2065,
      "ief": 2066,
      "Ġproblem": 2067,
      "reature": 2068,
      "ounc": 2069,
      "Ġarrest": 2070,
      "icture": 2071,
      "Ġwaited": 2072,
      "Ġquestions": 2073,
      "Ġbroke": 2074,
      "ĠVermissa": 2075,
      "Ġcorner": 2076,
      "Ġexplan": 2077,
      "Ġstarted": 2078,
      "ĠEngland": 2079,
      "ĠEnglish": 2080,
      "ceived": 2081,
      "Ġtelegram": 2082,
      "Now": 2083,
      "ax": 2084,
      "aim": 2085,
      "ape": 2086,
      "cer": 2087,
      "ding": 2088,
      "ib": 2089,
      "oll": 2090,
      "sing": 2091,
      "uation": 2092,
      "inct": 2093,
      "ination": 2094,
      "inner": 2095,
      "Ġmed": 2096,
      "Ġfing": 2097,
      "Ġfix": 2098,
      "enn": 2099,
      "lled": 2100,
      "Ġlive": 2101,
      "Ġyellow": 2102,
      "velo": 2103,
      "aybe": 2104,
      "ĠHer": 2105,
      "Ġred": 2106,
      "Ġreg": 2107,
      "Ġform": 2108,
      "Ġmeant": 2109,
      "amed": 2110,
      "Ġdog": 2111,
      "arded": 2112,
      "unt": 2113,
      "Ġvi": 2114,
      "ĠLet": 2115,
      "Ġquarter": 2116,
      "itted": 2117,
      "Ġprofess": 2118,
      "Ġbook": 2119,
      "Ġarri": 2120,
      "Ġcoll": 2121,
      "Ġclean": 2122,
      "should": 2123,
      "ĠJames": 2124,
      "Ġevents": 2125,
      "gged": 2126,
      "Ġdarkness": 2127,
      "Ġbecame": 2128,
      "Ġstranger": 2129,
      "Ġcontin": 2130,
      "Ġoccasion": 2131,
      "Ġshook": 2132,
      "Ġappeared": 2133,
      "Ġservice": 2134,
      "Ġsurprised": 2135,
      "ecause": 2136,
      "Ġinvestig": 2137,
      "blic": 2138,
      "Ġcharacter": 2139,
      "Ġaware": 2140,
      "ĠGarcia": 2141,
      "arah": 2142,
      "croft": 2143,
      "An": 2144,
      "Have": 2145,
      "To": 2146,
      "cal": 2147,
      "ded": 2148,
      "gu": 2149,
      "long": 2150,
      "Ġest": 2151,
      "head": 2152,
      "Ġsort": 2153,
      "Ġsitting": 2154,
      "oured": 2155,
      "Ġmot": 2156,
      "Ġcard": 2157,
      "Ġcause": 2158,
      "Ġdied": 2159,
      "Ġluck": 2160,
      "ided": 2161,
      "str": 2162,
      "Ġrel": 2163,
      "olk": 2164,
      "tern": 2165,
      "ĠBy": 2166,
      "Ġsum": 2167,
      "ages": 2168,
      "ague": 2169,
      "Ġabove": 2170,
      "Ġfeatures": 2171,
      "Ġlie": 2172,
      "Ġthemselves": 2173,
      "Ġjud": 2174,
      "Ġroof": 2175,
      "Ġquiet": 2176,
      "Ġplans": 2177,
      "ield": 2178,
      "raord": 2179,
      "rances": 2180,
      "irely": 2181,
      "ĠEttie": 2182,
      "Ġeng": 2183,
      "Ġarran": 2184,
      "who": 2185,
      "Ġremarked": 2186,
      "hold": 2187,
      "Ġjob": 2188,
      "Ġcorre": 2189,
      "Ġassure": 2190,
      "ference": 2191,
      "Ġshadow": 2192,
      "serve": 2193,
      "Ġpublic": 2194,
      "ĠBoss": 2195,
      "Ġstraight": 2196,
      ",'": 2197,
      "Because": 2198,
      "One": 2199,
      "Very": 2200,
      "cr": 2201,
      "cum": 2202,
      "ges": 2203,
      "ives": 2204,
      "tic": 2205,
      "vol": 2206,
      "Ġve": 2207,
      "Ġri": 2208,
      "Ġtouch": 2209,
      "Ġwit": 2210,
      "Ġwater": 2211,
      "rel": 2212,
      "erk": 2213,
      "erhaps": 2214,
      "Ġbound": 2215,
      "only": 2216,
      "Ġhut": 2217,
      "orm": 2218,
      "orn": 2219,
      "Ġinside": 2220,
      "Ġlit": 2221,
      "Ġele": 2222,
      "ĠMason": 2223,
      "Ġstared": 2224,
      "ĠSarah": 2225,
      "they": 2226,
      "their": 2227,
      "ĠAmes": 2228,
      "Ġneighb": 2229,
      "Ġexper": 2230,
      "ĠHere": 2231,
      "Ġtherefore": 2232,
      "ĠCo": 2233,
      "ĠCushing": 2234,
      "ately": 2235,
      "Ġlips": 2236,
      "Ġago": 2237,
      "umb": 2238,
      "impen": 2239,
      "Ġspent": 2240,
      "Ġsprang": 2241,
      "ĠFrances": 2242,
      "cient": 2243,
      "Ġgetting": 2244,
      "Ġglass": 2245,
      "Ġground": 2246,
      "ĠJohn": 2247,
      "Ġwindows": 2248,
      "ĠInspector": 2249,
      "azed": 2250,
      "Ġcommun": 2251,
      "Ġdrive": 2252,
      "Ġsilent": 2253,
      "Ġnearly": 2254,
      "Ġdirection": 2255,
      "ĠAmerica": 2256,
      "regson": 2257,
      "Ġfresh": 2258,
      "Ġcentre": 2259,
      "Ġsituation": 2260,
      "ossible": 2261,
      "azement": 2262,
      "ĠWhite": 2263,
      "Who": 2264,
      "fl": 2265,
      "gn": 2266,
      "iar": 2267,
      "par": 2268,
      "rimpen": 2269,
      "she": 2270,
      "ume": 2271,
      "ze": 2272,
      "Ġsy": 2273,
      "Ġmaid": 2274,
      "Ġfair": 2275,
      "Ġfolk": 2276,
      "ases": 2277,
      "aro": 2278,
      "Ġlim": 2279,
      "Ġpay": 2280,
      "Ġpicture": 2281,
      "icy": 2282,
      "Ġstaring": 2283,
      "cept": 2284,
      "illor": 2285,
      "keep": 2286,
      "Ġmanner": 2287,
      "Ġdoctor": 2288,
      "Ġdef": 2289,
      "onely": 2290,
      "ths": 2291,
      "aken": 2292,
      "Ġtwenty": 2293,
      "Ġsays": 2294,
      "erton": 2295,
      "place": 2296,
      "Here": 2297,
      "Ġcloud": 2298,
      "point": 2299,
      "Ġearth": 2300,
      "Ġbecome": 2301,
      "Ġnews": 2302,
      "Ġpossibly": 2303,
      "Ġentirely": 2304,
      "ĠScow": 2305,
      "Ġappearance": 2306,
      "Ġsigns": 2307,
      "Ġdrawn": 2308,
      "Ġincident": 2309,
      "Ġaffair": 2310,
      "Ġimportance": 2311,
      "Ġconnection": 2312,
      "Ġmystery": 2313,
      "ouncillor": 2314,
      "At": 2315,
      "Good": 2316,
      "bit": 2317,
      "cess": 2318,
      "count": 2319,
      "dis": 2320,
      "gan": 2321,
      "gate": 2322,
      "now": 2323,
      "nest": 2324,
      "old": 2325,
      "uff": 2326,
      "view": 2327,
      "wo": 2328,
      "Ġtall": 2329,
      "Ġair": 2330,
      "inion": 2331,
      "inter": 2332,
      "Ġwall": 2333,
      "Ġmarried": 2334,
      "Ġbright": 2335,
      "ities": 2336,
      "ony": 2337,
      "Ġcof": 2338,
      "Ġcreature": 2339,
      "Ġflo": 2340,
      "Ġtor": 2341,
      "Ġhat": 2342,
      "aned": 2343,
      "Ġgreen": 2344,
      "Ġthin": 2345,
      "ution": 2346,
      "Ġrespect": 2347,
      "road": 2348,
      "Ġstone": 2349,
      "ĠBaker": 2350,
      "ĠBirlstone": 2351,
      "ĠLy": 2352,
      "Ġshoulders": 2353,
      "ected": 2354,
      "Ġglanced": 2355,
      "Ġears": 2356,
      "Ġpresence": 2357,
      "orror": 2358,
      "avour": 2359,
      "clus": 2360,
      "Ġsett": 2361,
      "Ġdistr": 2362,
      "Ġinteresting": 2363,
      "Ġdangerous": 2364,
      "Ġwarning": 2365,
      "Ġbegin": 2366,
      "Ġexamined": 2367,
      "agedy": 2368,
      "Ġeasy": 2369,
      "Ġescaped": 2370,
      "Ġofficial": 2371,
      "Ġnumber": 2372,
      "versation": 2373,
      "Ġbeautiful": 2374,
      "Ġmiddle": 2375,
      "Ġbeside": 2376,
      "ĠManor": 2377,
      "Ġduty": 2378,
      "Ġexplanation": 2379,
      "ennaro": 2380,
      "Do": 2381,
      "aven": 2382,
      "aff": 2383,
      "certain": 2384,
      "even": 2385,
      "fast": 2386,
      "lady": 2387,
      "morrow": 2388,
      "pit": 2389,
      "round": 2390,
      "sit": 2391,
      "than": 2392,
      "Ġed": 2393,
      "Ġsqu": 2394,
      "Ġbott": 2395,
      "ones": 2396,
      "Ġcross": 2397,
      "Ġcarried": 2398,
      "Ġcaught": 2399,
      "Ġfine": 2400,
      "orry": 2401,
      "ingly": 2402,
      "Ġdare": 2403,
      "Ġlamp": 2404,
      "Ġlonely": 2405,
      "att": 2406,
      "ote": 2407,
      "Ġgun": 2408,
      "Ġgame": 2409,
      "ster": 2410,
      "Ġfort": 2411,
      "terday": 2412,
      "Ġsuper": 2413,
      "Ġrough": 2414,
      "iles": 2415,
      "ssess": 2416,
      "apped": 2417,
      "Ġexactly": 2418,
      "loy": 2419,
      "Ġgoes": 2420,
      "Ġval": 2421,
      "ĠLa": 2422,
      "ĠLady": 2423,
      "ĠDev": 2424,
      "Ġunf": 2425,
      "Ġamazement": 2426,
      "Ġknows": 2427,
      "umn": 2428,
      "Ġplaced": 2429,
      "raw": 2430,
      "ĠGregson": 2431,
      "Ġthank": 2432,
      "about": 2433,
      "Ġthinking": 2434,
      "ccles": 2435,
      "ĠNot": 2436,
      "els": 2437,
      "Ġafterwards": 2438,
      "Ġclaim": 2439,
      "Ġimpossible": 2440,
      "Ġscene": 2441,
      "Ġacqu": 2442,
      "Ġfollow": 2443,
      "bridge": 2444,
      "Ġconfess": 2445,
      "ĠMycroft": 2446,
      "Ġterror": 2447,
      "Ġslowly": 2448,
      "Ġexpression": 2449,
      "Ġpursu": 2450,
      "work": 2451,
      "Ġimagine": 2452,
      "Ġconvict": 2453,
      "Ġattempt": 2454,
      "raordinary": 2455,
      "Dr": 2456,
      "His": 2457,
      "Our": 2458,
      "Th": 2459,
      "bb": 2460,
      "cha": 2461,
      "eed": 2462,
      "ghed": 2463,
      "just": 2464,
      "op": 2465,
      "Ġess": 2466,
      "Ġage": 2467,
      "Ġwild": 2468,
      "Ġsense": 2469,
      "ouple": 2470,
      "Ġmad": 2471,
      "Ġbreat": 2472,
      "Ġfif": 2473,
      "Ġfree": 2474,
      "Ġhair": 2475,
      "anlan": 2476,
      "Ġlaid": 2477,
      "Ġpull": 2478,
      "Ġnatural": 2479,
      "Ġgas": 2480,
      "ential": 2481,
      "Ġrevol": 2482,
      "Ġforg": 2483,
      "adog": 2484,
      "ceive": 2485,
      "olog": 2486,
      "ĠSome": 2487,
      "Ġshut": 2488,
      "Ġrushed": 2489,
      "Ġkilled": 2490,
      "together": 2491,
      "Ġusual": 2492,
      "ouses": 2493,
      "cked": 2494,
      "unning": 2495,
      "again": 2496,
      "Ġlocal": 2497,
      "Ġcomp": 2498,
      "Ġposition": 2499,
      "isted": 2500,
      "Ġbrain": 2501,
      "Ġhanded": 2502,
      "Ġtwice": 2503,
      "bered": 2504,
      "ĠGrimpen": 2505,
      "ccess": 2506,
      "Ġarm": 2507,
      "Ġarms": 2508,
      "cience": 2509,
      "icket": 2510,
      "Ġglance": 2511,
      "Ġsmile": 2512,
      "Ġperfect": 2513,
      "Ġobserve": 2514,
      "ometimes": 2515,
      "Ġparts": 2516,
      "Ġclearly": 2517,
      "ext": 2518,
      "expl": 2519,
      "Ġpoints": 2520,
      "Ġchild": 2521,
      "Ġmurde": 2522,
      "Ġwriting": 2523,
      "Ġspecial": 2524,
      "Ġsatisf": 2525,
      "Ġtaking": 2526,
      "Ġbroad": 2527,
      "azing": 2528,
      "Ġresult": 2529,
      "Ġcompany": 2530,
      "Ġminute": 2531,
      "ĠScanlan": 2532,
      "Ġsergeant": 2533,
      "Ġpurpose": 2534,
      "Ġsingle": 2535,
      "Ġhappened": 2536,
      "known": 2537,
      "finite": 2538,
      "rivate": 2539,
      "Ġlaughed": 2540,
      "Ġpromise": 2541,
      "Ġrecogn": 2542,
      "Ġgeneral": 2543,
      "cerned": 2544,
      "Ġfloor": 2545,
      "adogan": 2546,
      "Baskerville": 2547,
      "cious": 2548,
      "don": 2549,
      "every": 2550,
      "ky": 2551,
      "mb": 2552,
      "rough": 2553,
      "ued": 2554,
      "ĠK": 2555,
      "Ġident": 2556,
      "Ġty": 2557,
      "Ġtwe": 2558,
      "Ġtried": 2559,
      "Ġtheory": 2560,
      "res": 2561,
      "erm": 2562,
      "Ġmis": 2563,
      "edly": 2564,
      "edding": 2565,
      "Ġcond": 2566,
      "Ġfan": 2567,
      "Ġfashion": 2568,
      "Ġhorror": 2569,
      "ories": 2570,
      "Ġins": 2571,
      "Ġinform": 2572,
      "Ġpale": 2573,
      "Ġnature": 2574,
      "let": 2575,
      "Ġanger": 2576,
      "ĠWas": 2577,
      "ĠThese": 2578,
      "Ġshru": 2579,
      "Ġrail": 2580,
      "Ġdec": 2581,
      "Ġkill": 2582,
      "aph": 2583,
      "Ġneither": 2584,
      "ĠCouncillor": 2585,
      "Ġworse": 2586,
      "ĠLodge": 2587,
      "ĠDid": 2588,
      "Ġwhatever": 2589,
      "Ġque": 2590,
      "arer": 2591,
      "impse": 2592,
      "itten": 2593,
      "ĠGennaro": 2594,
      "Ġspir": 2595,
      "Ġfool": 2596,
      "ĠEvery": 2597,
      "ĠEccles": 2598,
      "Ġways": 2599,
      "udden": 2600,
      "Ġthoughts": 2601,
      "spond": 2602,
      "Ġopinion": 2603,
      "ictim": 2604,
      "Ġearly": 2605,
      "Ġwrong": 2606,
      "Ġclosed": 2607,
      "ĠRe": 2608,
      "Ġattention": 2609,
      "Ġexplain": 2610,
      "Ġswif": 2611,
      "Ġgentlemen": 2612,
      "door": 2613,
      "Ġdifficulty": 2614,
      "readful": 2615,
      "Ġdrink": 2616,
      "Ġmissing": 2617,
      "Ġsubject": 2618,
      "Ġbedroom": 2619,
      "Ġboots": 2620,
      "Ġvillage": 2621,
      "ĠUn": 2622,
      "ĠWarren": 2623,
      "Ġobserved": 2624,
      "Ġviol": 2625,
      "Ġarrived": 2626,
      "icycle": 2627,
      "ĠScowrers": 2628,
      "ĠLyons": 2629,
      "Ġdistrict": 2630,
      "Your": 2631,
      "body": 2632,
      "face": 2633,
      "gth": 2634,
      "morning": 2635,
      "oly": 2636,
      "ook": 2637,
      "time": 2638,
      "vage": 2639,
      "ines": 2640,
      "Ġsorry": 2641,
      "Ġce": 2642,
      "Ġcouple": 2643,
      "Ġfa": 2644,
      "Ġfright": 2645,
      "Ġhung": 2646,
      "ork": 2647,
      "Ġdinner": 2648,
      "ances": 2649,
      "Ġpack": 2650,
      "Ġpage": 2651,
      "Ġpaid": 2652,
      "lden": 2653,
      "Ġgle": 2654,
      "Ġgirl": 2655,
      "Ġgrave": 2656,
      "stant": 2657,
      "Ġthrew": 2658,
      "Ġthird": 2659,
      "ĠHug": 2660,
      "enture": 2661,
      "alter": 2662,
      "Ġrepe": 2663,
      "Ġreceived": 2664,
      "Ġstick": 2665,
      "Ġstair": 2666,
      "Ġang": 2667,
      "Ġmere": 2668,
      "ĠWhere": 2669,
      "Ġself": 2670,
      "ified": 2671,
      "ĠBe": 2672,
      "Ġsuspect": 2673,
      "ĠAl": 2674,
      "Ġyours": 2675,
      "Ġconversation": 2676,
      "ĠCadogan": 2677,
      "Ġleaving": 2678,
      "cks": 2679,
      "Ġvague": 2680,
      "Ġvictim": 2681,
      "ĠTr": 2682,
      "Ġalmost": 2683,
      "hank": 2684,
      "Ġworth": 2685,
      "Ġanyhow": 2686,
      "Ġunless": 2687,
      "Ġbrown": 2688,
      "off": 2689,
      "Ġplan": 2690,
      "Ġpret": 2691,
      "Ġspot": 2692,
      "ĠNew": 2693,
      "Ġener": 2694,
      "Ġcoat": 2695,
      "medi": 2696,
      "Ġglimpse": 2697,
      "Ġimpression": 2698,
      "Ġscream": 2699,
      "nothing": 2700,
      "Ġkeen": 2701,
      "Ġharm": 2702,
      "Ġevil": 2703,
      "Ġguard": 2704,
      "Ġappo": 2705,
      "Ġadded": 2706,
      "Ġsteps": 2707,
      "ĠAmerican": 2708,
      "Ġfallen": 2709,
      "book": 2710,
      "Ġdrove": 2711,
      "Ġevidently": 2712,
      "Ġadmit": 2713,
      "racted": 2714,
      "Ġinquiry": 2715,
      "Ġsimple": 2716,
      "Ġexperience": 2717,
      "Ġessential": 2718,
      "\"'": 2719,
      "bell": 2720,
      "gy": 2721,
      "hod": 2722,
      "lve": 2723,
      "lcome": 2724,
      "pes": 2725,
      "ploy": 2726,
      "vin": 2727,
      "wind": 2728,
      "yed": 2729,
      "Ġast": 2730,
      "inister": 2731,
      "Ġwedding": 2732,
      "Ġsad": 2733,
      "Ġmouth": 2734,
      "Ġmiles": 2735,
      "Ġcru": 2736,
      "Ġcases": 2737,
      "Ġfin": 2738,
      "Ġfail": 2739,
      "Ġfaces": 2740,
      "ased": 2741,
      "Ġhiding": 2742,
      "Ġtop": 2743,
      "Ġdreadful": 2744,
      "Ġhang": 2745,
      "Ġheaven": 2746,
      "Ġlad": 2747,
      "Ġloud": 2748,
      "Ġlying": 2749,
      "Ġport": 2750,
      "ombe": 2751,
      "lect": 2752,
      "Ġitself": 2753,
      "urm": 2754,
      "ury": 2755,
      "alse": 2756,
      "Ġsuccess": 2757,
      "ilt": 2758,
      "iling": 2759,
      "Ġdepart": 2760,
      "apid": 2761,
      "Ġconclus": 2762,
      "oken": 2763,
      "acey": 2764,
      "arted": 2765,
      "Ġtrace": 2766,
      "Ġtrave": 2767,
      "Ġtragedy": 2768,
      "Ġmoon": 2769,
      "Ġcompl": 2770,
      "istance": 2771,
      "Ġlives": 2772,
      "iece": 2773,
      "Ġdidn": 2774,
      "Ġboard": 2775,
      "ĠOur": 2776,
      "Ġdisco": 2777,
      "cont": 2778,
      "Ġearnest": 2779,
      "expect": 2780,
      "Ġcho": 2781,
      "Ġdistant": 2782,
      "Ġdifferen": 2783,
      "Ġemploy": 2784,
      "ecil": 2785,
      "Ġplease": 2786,
      "Ġhurried": 2787,
      "Ġmonths": 2788,
      "Mrs": 2789,
      "Ġbitter": 2790,
      "Ġlaugh": 2791,
      "rankland": 2792,
      "Ġiron": 2793,
      "Ġyesterday": 2794,
      "aintance": 2795,
      "Ġbuild": 2796,
      "Ġwitness": 2797,
      "ĠDevon": 2798,
      "ĠHugo": 2799,
      "34": 2800,
      "All": 2801,
      "Qu": 2802,
      "Sherlock": 2803,
      "dwards": 2804,
      "faced": 2805,
      "foll": 2806,
      "little": 2807,
      "mp": 2808,
      "ope": 2809,
      "occ": 2810,
      "sm": 2811,
      "uss": 2812,
      "wr": 2813,
      "wich": 2814,
      "woman": 2815,
      "Ġ2": 2816,
      "Ġwat": 2817,
      "Ġmod": 2818,
      "itish": 2819,
      "Ġfalse": 2820,
      "Ġden": 2821,
      "Ġdim": 2822,
      "Ġdest": 2823,
      "arch": 2824,
      "Ġpain": 2825,
      "ices": 2826,
      "Ġgard": 2827,
      "sec": 2828,
      "acy": 2829,
      "Ġwelcome": 2830,
      "ĠHave": 2831,
      "Ġreach": 2832,
      "aded": 2833,
      "rodu": 2834,
      "Ġsavage": 2835,
      "rig": 2836,
      "Ġnotice": 2837,
      "ĠWil": 2838,
      "ĠSh": 2839,
      "Ġsuff": 2840,
      "pered": 2841,
      "Ġalley": 2842,
      "aper": 2843,
      "ounds": 2844,
      "Ġsomewhat": 2845,
      "ousand": 2846,
      "agged": 2847,
      "Ġmoat": 2848,
      "istol": 2849,
      "mend": 2850,
      "Ġagent": 2851,
      "Ġplain": 2852,
      "action": 2853,
      "Ġprove": 2854,
      "Ġproved": 2855,
      "Ġproceed": 2856,
      "Ġene": 2857,
      "ĠFinally": 2858,
      "ressed": 2859,
      "Ġsmiled": 2860,
      "Ġtelling": 2861,
      "Ġgrim": 2862,
      "position": 2863,
      "coat": 2864,
      "Ġdesire": 2865,
      "Ġmurdered": 2866,
      "Ġwrite": 2867,
      "Ġactually": 2868,
      "moor": 2869,
      "McGinty": 2870,
      "Ġletters": 2871,
      "noon": 2872,
      "Ġbegan": 2873,
      "Ġforever": 2874,
      "Ġempt": 2875,
      "Ġsuggested": 2876,
      "Ġstopped": 2877,
      "Ġdifficulties": 2878,
      "Ġexceed": 2879,
      "Ġexcellent": 2880,
      "Ġcarefully": 2881,
      "Ġeasily": 2882,
      "Ġescape": 2883,
      "Ġhuman": 2884,
      "Ġpractical": 2885,
      "Ġhonour": 2886,
      "Ġbreakfast": 2887,
      "oolwich": 2888,
      "olutely": 2889,
      "Ġmedical": 2890,
      "Ġprofession": 2891,
      "Ġcorrespond": 2892,
      "Ġrevolver": 2893,
      "Ġfancy": 2894,
      "Ġinformation": 2895,
      "Ġqueer": 2896,
      "ĠTracey": 2897,
      "Can": 2898,
      "Henry": 2899,
      "See": 2900,
      "away": 2901,
      "bs": 2902,
      "cing": 2903,
      "fall": 2904,
      "friend": 2905,
      "good": 2906,
      "may": 2907,
      "mind": 2908,
      "oot": 2909,
      "ral": 2910,
      "rant": 2911,
      "sion": 2912,
      "uc": 2913,
      "vo": 2914,
      "Ġsal": 2915,
      "hafter": 2916,
      "Ġmaking": 2917,
      "Ġcarriage": 2918,
      "Ġhot": 2919,
      "Ġhouses": 2920,
      "orter": 2921,
      "Ġdate": 2922,
      "Ġpi": 2923,
      "Ġpair": 2924,
      "Ġpicked": 2925,
      "Ġprivate": 2926,
      "icate": 2927,
      "Ġbear": 2928,
      "Ġbeard": 2929,
      "set": 2930,
      "irty": 2931,
      "alth": 2932,
      "ĠMor": 2933,
      "rill": 2934,
      "Ġanx": 2935,
      "ĠWill": 2936,
      "ourney": 2937,
      "Ġseven": 2938,
      "Ġshown": 2939,
      "Ġsuit": 2940,
      "Ġrapid": 2941,
      "pend": 2942,
      "thought": 2943,
      "ĠCan": 2944,
      "ĠCross": 2945,
      "ivered": 2946,
      "Ġgover": 2947,
      "arty": 2948,
      "arther": 2949,
      "iger": 2950,
      "pping": 2951,
      "Ġpossess": 2952,
      "intment": 2953,
      "Ġlies": 2954,
      "Ġshoulder": 2955,
      "itement": 2956,
      "Ġprevent": 2957,
      "Ġsaying": 2958,
      "Ġhousehold": 2959,
      "rupt": 2960,
      "ĠFree": 2961,
      "ishment": 2962,
      "Ġclerk": 2963,
      "ude": 2964,
      "shire": 2965,
      "Ġremained": 2966,
      "possi": 2967,
      "posed": 2968,
      "Ġended": 2969,
      "Ġprinted": 2970,
      "Ġprison": 2971,
      "Ġchief": 2972,
      "Ġflat": 2973,
      "Ġintell": 2974,
      "Ġdetails": 2975,
      "Ġdeterm": 2976,
      "ground": 2977,
      "Ġchange": 2978,
      "Ġdistance": 2979,
      "Ġasking": 2980,
      "ĠValley": 2981,
      "Ġshock": 2982,
      "Ġmethod": 2983,
      "ĠScot": 2984,
      "ĠScott": 2985,
      "Ġconfidence": 2986,
      "Ġadvice": 2987,
      "Ġimmedi": 2988,
      "ĠBritish": 2989,
      "ĠYour": 2990,
      "Ġvisitor": 2991,
      "Ġexpected": 2992,
      "know": 2993,
      "pres": 2994,
      "Ġimportant": 2995,
      "Ġlistened": 2996,
      "Ġstatement": 2997,
      "Ġsleep": 2998,
      "Ġmentioned": 2999,
      "velope": 3000,
      "Ġjudge": 3001,
      "ĠCoombe": 3002,
      "Ġacquaintance": 3003,
      "Ġfifty": 3004,
      "Ġpulled": 3005,
      "uddenly": 3006,
      "Ġappointment": 3007,
      "Ġexceedingly": 3008,
      "Barrymore": 3009,
      "Dear": 3010,
      "Let": 3011,
      "Mac": 3012,
      "Perhaps": 3013,
      "With": 3014,
      "Where": 3015,
      "bre": 3016,
      "bac": 3017,
      "back": 3018,
      "cur": 3019,
      "cour": 3020,
      "call": 3021,
      "fer": 3022,
      "iarty": 3023,
      "ls": 3024,
      "ming": 3025,
      "might": 3026,
      "must": 3027,
      "never": 3028,
      "pular": 3029,
      "police": 3030,
      "uct": 3031,
      "ĠYes": 3032,
      "Ġticket": 3033,
      "hered": 3034,
      "Ġwood": 3035,
      "Ġwished": 3036,
      "Ġslo": 3037,
      "erri": 3038,
      "Ġmurm": 3039,
      "Ġbund": 3040,
      "Ġbicycle": 3041,
      "Ġcra": 3042,
      "Ġcip": 3043,
      "Ġfat": 3044,
      "Ġfut": 3045,
      "ashed": 3046,
      "orlock": 3047,
      "Ġdull": 3048,
      "Ġdouble": 3049,
      "Ġpar": 3050,
      "Ġpistol": 3051,
      "Ġyew": 3052,
      "Ġyards": 3053,
      "Ġbeat": 3054,
      "otes": 3055,
      "iment": 3056,
      "Ġgate": 3057,
      "Ġgran": 3058,
      "Ġut": 3059,
      "seen": 3060,
      "Ġthro": 3061,
      "ĠHotel": 3062,
      "irt": 3063,
      "irst": 3064,
      "ĠSm": 3065,
      "Ġseat": 3066,
      "Ġshone": 3067,
      "Ġsoft": 3068,
      "then": 3069,
      "--\"": 3070,
      "think": 3071,
      "Ġoutl": 3072,
      "usual": 3073,
      "ĠCecil": 3074,
      "Ġorgan": 3075,
      "Ġleg": 3076,
      "Ġleaned": 3077,
      "une": 3078,
      "ĠTed": 3079,
      "Ġtrap": 3080,
      "inkerton": 3081,
      "Ġliving": 3082,
      "Ġbridge": 3083,
      "ump": 3084,
      "aren": 3085,
      "abl": 3086,
      "Ġfood": 3087,
      "Ġenvelope": 3088,
      "ĠFrankland": 3089,
      "Ġaround": 3090,
      "Ġcoal": 3091,
      "Ġafternoon": 3092,
      "Ġfirm": 3093,
      "isease": 3094,
      "Ġimpat": 3095,
      "berste": 3096,
      "while": 3097,
      "conv": 3098,
      "oubtedly": 3099,
      "Ġworking": 3100,
      "Ġintim": 3101,
      "Ġcounty": 3102,
      "Ġconsult": 3103,
      "Ġreasons": 3104,
      "Ġcourt": 3105,
      "Ġaction": 3106,
      "Ġcontr": 3107,
      "Ġwanted": 3108,
      "Ġshoot": 3109,
      "Ġadventure": 3110,
      "Ġunderstood": 3111,
      "Ġdriven": 3112,
      "Ġattack": 3113,
      "Ġservants": 3114,
      "ĠOnly": 3115,
      "Ġforeign": 3116,
      "Ġmarks": 3117,
      "Ġrunning": 3118,
      "Ġaffairs": 3119,
      "ierce": 3120,
      "Ġweeks": 3121,
      "Ġfeeling": 3122,
      "Ġmyster": 3123,
      "Surely": 3124,
      "Ġhorrible": 3125,
      "Ġcolour": 3126,
      "Stapleton": 3127,
      "Ġwatching": 3128,
      "Ġnarrative": 3129,
      "Ġsuspicions": 3130,
      "zzled": 3131,
      "culiar": 3132,
      "Ġnervous": 3133,
      "Ġinvestigation": 3134,
      "Ġneighbour": 3135,
      "keeper": 3136,
      "cessary": 3137,
      "Ġcoffin": 3138,
      "chair": 3139,
      "Ġbreath": 3140,
      "Ġperfectly": 3141,
      "Ġmurderer": 3142,
      "Ġswiftly": 3143,
      "Ġgarden": 3144,
      "erripit": 3145,
      "Ġcipher": 3146,
      "berstein": 3147,
      "Come": 3148,
      "Of": 3149,
      "Some": 3150,
      "bers": 3151,
      "business": 3152,
      "chan": 3153,
      "des": 3154,
      "fr": 3155,
      "found": 3156,
      "fort": 3157,
      "gent": 3158,
      "gain": 3159,
      "gers": 3160,
      "lit": 3161,
      "low": 3162,
      "mn": 3163,
      "natural": 3164,
      "past": 3165,
      "pass": 3166,
      "pothes": 3167,
      "sur": 3168,
      "something": 3169,
      "said": 3170,
      "sider": 3171,
      "wise": 3172,
      "word": 3173,
      "zed": 3174,
      "zen": 3175,
      "Ġtest": 3176,
      "Ġtreat": 3177,
      "inv": 3178,
      "Ġsometimes": 3179,
      "Ġsinister": 3180,
      "reme": 3181,
      "ism": 3182,
      "Ġcre": 3183,
      "Ġcast": 3184,
      "Ġfate": 3185,
      "Ġfarther": 3186,
      "ency": 3187,
      "asure": 3188,
      "inger": 3189,
      "Ġinj": 3190,
      "Ġhel": 3191,
      "Ġlur": 3192,
      "Ġlatter": 3193,
      "Ġlower": 3194,
      "Ġpow": 3195,
      "Ġpushed": 3196,
      "Ġyonder": 3197,
      "atic": 3198,
      "attered": 3199,
      "Ġbeast": 3200,
      "Ġwasn": 3201,
      "stairs": 3202,
      "struct": 3203,
      "Ġemer": 3204,
      "Ġweak": 3205,
      "Ġreve": 3206,
      "Ġrelie": 3207,
      "Ġforget": 3208,
      "ĠMary": 3209,
      "ĠMerripit": 3210,
      "rob": 3211,
      "rop": 3212,
      "roy": 3213,
      "Ġstri": 3214,
      "cellent": 3215,
      "ĠWalter": 3216,
      "ĠWoolwich": 3217,
      "ĠBird": 3218,
      "gend": 3219,
      "Ġris": 3220,
      "Ġrise": 3221,
      "ilty": 3222,
      "Ġdeed": 3223,
      "Ġdefinite": 3224,
      "these": 3225,
      "ĠAd": 3226,
      "ĠAfter": 3227,
      "Ġexcl": 3228,
      "Ġconcerned": 3229,
      "oked": 3230,
      "looking": 3231,
      "ĠCom": 3232,
      "Ġalarm": 3233,
      "ints": 3234,
      "umber": 3235,
      "aret": 3236,
      "rait": 3237,
      "ability": 3238,
      "pless": 3239,
      "Ġlonger": 3240,
      "ĠPinkerton": 3241,
      "Ġgrass": 3242,
      "Ġsche": 3243,
      "Ġdisappe": 3244,
      "Ġremain": 3245,
      "Ġpassage": 3246,
      "perate": 3247,
      "Ġhandsome": 3248,
      "ization": 3249,
      "retched": 3250,
      "Ġputting": 3251,
      "Ġmeaning": 3252,
      "Ġwritten": 3253,
      "Ġintrodu": 3254,
      "eyes": 3255,
      "Ġsignal": 3256,
      "ĠBrown": 3257,
      "Ġexample": 3258,
      "ĠYard": 3259,
      "ĠYork": 3260,
      "Ġordinary": 3261,
      "mission": 3262,
      "Ġinterview": 3263,
      "Ġextraordinary": 3264,
      "Ġlearn": 3265,
      "Ġimagined": 3266,
      "angle": 3267,
      "Ġsooner": 3268,
      "Ġholding": 3269,
      "Ġ18": 3270,
      "Only": 3271,
      "Ġtrees": 3272,
      "Ġwhispered": 3273,
      "Ġcolumn": 3274,
      "Ġlodger": 3275,
      "Ġdressing": 3276,
      "Ġfingers": 3277,
      "Ġcontinued": 3278,
      "Ġarranged": 3279,
      "cumst": 3280,
      "Ġfairly": 3281,
      "Ġsettled": 3282,
      "Ġgleam": 3283,
      "Ġpretty": 3284,
      "Ġcruel": 3285,
      "Ġdifferent": 3286,
      "Ġbuilding": 3287,
      "ĠDevonshire": 3288,
      "ĠMoriarty": 3289,
      "Ġbundle": 3290,
      "Ġfuture": 3291,
      "Ġgranite": 3292,
      "ĠSmith": 3293,
      "arently": 3294,
      "Douglas": 3295,
      "awn": 3296,
      "aused": 3297,
      "blood": 3298,
      "col": 3299,
      "clo": 3300,
      "case": 3301,
      "cise": 3302,
      "cceed": 3303,
      "did": 3304,
      "dark": 3305,
      "erest": 3306,
      "elden": 3307,
      "great": 3308,
      "gian": 3309,
      "hound": 3310,
      "ior": 3311,
      "iant": 3312,
      "ipped": 3313,
      "last": 3314,
      "mit": 3315,
      "mir": 3316,
      "nment": 3317,
      "ron": 3318,
      "such": 3319,
      "ues": 3320,
      "inced": 3321,
      "Ġwis": 3322,
      "reed": 3323,
      "hall": 3324,
      "happ": 3325,
      "Ġorig": 3326,
      "erve": 3327,
      "erous": 3328,
      "Ġmile": 3329,
      "Ġbene": 3330,
      "itable": 3331,
      "onight": 3332,
      "Ġfurn": 3333,
      "Ġfrank": 3334,
      "Ġfavour": 3335,
      "Ġfierce": 3336,
      "ening": 3337,
      "ences": 3338,
      "ington": 3339,
      "Ġdining": 3340,
      "aning": 3341,
      "Ġhell": 3342,
      "Ġheir": 3343,
      "Ġhesit": 3344,
      "Ġlif": 3345,
      "Ġlun": 3346,
      "omes": 3347,
      "vere": 3348,
      "iced": 3349,
      "icated": 3350,
      "Ġbell": 3351,
      "lder": 3352,
      "Ġur": 3353,
      "Ġeight": 3354,
      "Ġthousand": 3355,
      "Ġweap": 3356,
      "etr": 3357,
      "etch": 3358,
      "Ġrecon": 3359,
      "Ġforced": 3360,
      "ĠMire": 3361,
      "ries": 3362,
      "ĠShafter": 3363,
      "Ġsearch": 3364,
      "iff": 3365,
      "Ġmanager": 3366,
      "choly": 3367,
      "ational": 3368,
      "ĠCar": 3369,
      "ĠCome": 3370,
      "Ġalive": 3371,
      "Ġworthy": 3372,
      "ppose": 3373,
      "interest": 3374,
      "onday": 3375,
      "Ġjourney": 3376,
      "Ġbrand": 3377,
      "raid": 3378,
      "Ġafraid": 3379,
      "Ġproof": 3380,
      "hard": 3381,
      "nderson": 3382,
      "ĠEdwards": 3383,
      "ĠFear": 3384,
      "ĠOberstein": 3385,
      "Ġclothes": 3386,
      "ĠPorlock": 3387,
      "spir": 3388,
      "Ġfinding": 3389,
      "pool": 3390,
      "conf": 3391,
      "Ġguilty": 3392,
      "Ġhelped": 3393,
      "Ġpresume": 3394,
      "Ġpointed": 3395,
      "Ġflushed": 3396,
      "Ġreading": 3397,
      "brows": 3398,
      "isteria": 3399,
      "Ġwants": 3400,
      "Ġjoy": 3401,
      "Ġwarrant": 3402,
      "uthor": 3403,
      "ĠOnce": 3404,
      "Ġexplained": 3405,
      "Ġexpress": 3406,
      "servant": 3407,
      "Ġstop": 3408,
      "black": 3409,
      "Ġexcuse": 3410,
      "Ġcharge": 3411,
      "Ġeffort": 3412,
      "Ġhappy": 3413,
      "Ġhappen": 3414,
      "ĠHowever": 3415,
      "Ġwalking": 3416,
      "Ġclosely": 3417,
      "Ġhurry": 3418,
      "Ġturning": 3419,
      "Ġmasterful": 3420,
      "Ġconvinced": 3421,
      "lancholy": 3422,
      "Ġshadows": 3423,
      "ĠAny": 3424,
      "Ġeagerly": 3425,
      "Ġdiscuss": 3426,
      "Ġslee": 3427,
      "Ġlandlady": 3428,
      "Ġpleasure": 3429,
      "Ġoppos": 3430,
      "Ġhonest": 3431,
      "Nothing": 3432,
      "Ġnerves": 3433,
      "Ġapproached": 3434,
      "Ġfinger": 3435,
      "Ġfixed": 3436,
      "Ġeleven": 3437,
      "Ġbottom": 3438,
      "Ġresults": 3439,
      "Ġtype": 3440,
      "Ġtwelve": 3441,
      "Ġdetermined": 3442,
      "otesque": 3443,
      "Ġthroat": 3444,
      "pothesis": 3445,
      "ĠBirdy": 3446,
      "Barker": 3447,
      "Maybe": 3448,
      "None": 3449,
      "aves": 3450,
      "bet": 3451,
      "bout": 3452,
      "det": 3453,
      "go": 3454,
      "gun": 3455,
      "kes": 3456,
      "made": 3457,
      "mmer": 3458,
      "oa": 3459,
      "oor": 3460,
      "ost": 3461,
      "port": 3462,
      "rad": 3463,
      "sa": 3464,
      "same": 3465,
      "two": 3466,
      "Ġtonight": 3467,
      "Ġwire": 3468,
      "Ġsank": 3469,
      "Ġoath": 3470,
      "nding": 3471,
      "ndeed": 3472,
      "Ġmut": 3473,
      "Ġble": 3474,
      "Ġbal": 3475,
      "Ġburned": 3476,
      "oned": 3477,
      "Ġcunning": 3478,
      "Ġfle": 3479,
      "Ġfight": 3480,
      "Ġhid": 3481,
      "Ġhig": 3482,
      "Ġhunt": 3483,
      "Ġtobac": 3484,
      "orth": 3485,
      "orgian": 3486,
      "Ġdi": 3487,
      "Ġdream": 3488,
      "Ġdisease": 3489,
      "ancing": 3490,
      "Ġinf": 3491,
      "Ġinit": 3492,
      "Ġincl": 3493,
      "Ġpun": 3494,
      "Ġpure": 3495,
      "Ġpounds": 3496,
      "Ġnamed": 3497,
      "ics": 3498,
      "otion": 3499,
      "Ġgro": 3500,
      "stran": 3501,
      "Ġthreat": 3502,
      "utation": 3503,
      "Ġhist": 3504,
      "acing": 3505,
      "aching": 3506,
      "eters": 3507,
      "ĠHigh": 3508,
      "Ġren": 3509,
      "Ġreference": 3510,
      "Ġaside": 3511,
      "Ġforce": 3512,
      "ĠMay": 3513,
      "ĠMaybe": 3514,
      "ĠMonday": 3515,
      "Ġann": 3516,
      "ĠWho": 3517,
      "ĠWisteria": 3518,
      "ĠSus": 3519,
      "ĠSpan": 3520,
      "ĠSouth": 3521,
      "Ġseated": 3522,
      "ction": 3523,
      "Ġsucceed": 3524,
      "Ġdoll": 3525,
      "Ġdozen": 3526,
      "Ġsole": 3527,
      "though": 3528,
      "ĠHenderson": 3529,
      "Ġlegend": 3530,
      "unn": 3531,
      "until": 3532,
      "Ġvan": 3533,
      "Ġtroub": 3534,
      "Ġloose": 3535,
      "Ġworst": 3536,
      "Ġmoved": 3537,
      "Ġmoving": 3538,
      "ĠLord": 3539,
      "Ġunknown": 3540,
      "inking": 3541,
      "teen": 3542,
      "Ġje": 3543,
      "Ġbrow": 3544,
      "umed": 3545,
      "arest": 3546,
      "Ġprep": 3547,
      "iously": 3548,
      "Ġspring": 3549,
      "Ġspoken": 3550,
      "Ġart": 3551,
      "ĠOf": 3552,
      "ĠOh": 3553,
      "Ġcovered": 3554,
      "Ġblow": 3555,
      "ĠPro": 3556,
      "Ġsmoke": 3557,
      "Ġsmoking": 3558,
      "Ġcrow": 3559,
      "Ġimpl": 3560,
      "Ġgrou": 3561,
      "Ġscent": 3562,
      "Ġscattered": 3563,
      "Ġthrow": 3564,
      "spons": 3565,
      "pocket": 3566,
      "Ġevent": 3567,
      "Ġhost": 3568,
      "Ġhoped": 3569,
      "Ġjustice": 3570,
      "aiting": 3571,
      "askervilles": 3572,
      "Ġdesert": 3573,
      "Ġdesperate": 3574,
      "Ġpeculiar": 3575,
      "exam": 3576,
      "ials": 3577,
      "Ġchuck": 3578,
      "orrid": 3579,
      "otting": 3580,
      "Ġdetail": 3581,
      "Ġchain": 3582,
      "Ġdistinct": 3583,
      "aterial": 3584,
      "Ġappears": 3585,
      "nocent": 3586,
      "Ġserved": 3587,
      "Ġexamine": 3588,
      "ĠYet": 3589,
      "Ġmarked": 3590,
      "Ġremembered": 3591,
      "Ġexcited": 3592,
      "Ġextreme": 3593,
      "Ġcheer": 3594,
      "aturally": 3595,
      "Ġstead": 3596,
      "Ġmission": 3597,
      "Ġrecord": 3598,
      "Ġshotgun": 3599,
      "Ġdropped": 3600,
      "rival": 3601,
      "Ġconnected": 3602,
      "Ġadmir": 3603,
      "Ġconsiderable": 3604,
      "Ġburst": 3605,
      "Ġinquiries": 3606,
      "Ġopportun": 3607,
      "Ġgrip": 3608,
      "Ġmistaken": 3609,
      "Ġsuspicion": 3610,
      "Ġwonderful": 3611,
      "Ġslip": 3612,
      "Ġmember": 3613,
      "Ġprobably": 3614,
      "Ġconcealed": 3615,
      "Ġcigar": 3616,
      "iverpool": 3617,
      "Ġundoubtedly": 3618,
      "ĠMarvin": 3619,
      "Ġestabl": 3620,
      "Ġarrange": 3621,
      "Ġclouds": 3622,
      "country": 3623,
      "ology": 3624,
      "Ġidentity": 3625,
      "Ġshrugged": 3626,
      "Ġspirit": 3627,
      "Ġfaith": 3628,
      "Ġpacket": 3629,
      "window": 3630,
      "Ġaston": 3631,
      "Ġfinished": 3632,
      "expected": 3633,
      "Quite": 3634,
      "ĠWilson": 3635,
      "Ġenemy": 3636,
      "Ġempty": 3637,
      "Ġprisoner": 3638,
      "Ġmurmur": 3639,
      "Ġimpatient": 3640,
      "investig": 3641,
      "Ġhelpless": 3642,
      "ĠBrowner": 3643,
      "cumstances": 3644,
      "orgiano": 3645,
      ",âĢĻ": 3646,
      ".âĢĻ": 3647,
      "Are": 3648,
      "Hall": 3649,
      "Just": 3650,
      "Man": 3651,
      "Re": 3652,
      "Sc": 3653,
      "Thank": 3654,
      "Was": 3655,
      "af": 3656,
      "bro": 3657,
      "chen": 3658,
      "der": 3659,
      "dge": 3660,
      "ele": 3661,
      "fety": 3662,
      "ike": 3663,
      "jo": 3664,
      "matter": 3665,
      "mper": 3666,
      "oad": 3667,
      "ogr": 3668,
      "sy": 3669,
      "spe": 3670,
      "take": 3671,
      "ub": 3672,
      "vis": 3673,
      "Ġ5": 3674,
      "Ġtill": 3675,
      "Ġaven": 3676,
      "Ġauthor": 3677,
      "Ġwa": 3678,
      "Ġwand": 3679,
      "Ġwound": 3680,
      "Ġtheories": 3681,
      "Ġsens": 3682,
      "ouched": 3683,
      "remem": 3684,
      "remark": 3685,
      "half": 3686,
      "Ġmarriage": 3687,
      "Ġban": 3688,
      "Ġbus": 3689,
      "Ġbag": 3690,
      "Ġburn": 3691,
      "Ġbank": 3692,
      "itiz": 3693,
      "itchen": 3694,
      "Ġcar": 3695,
      "Ġcorrid": 3696,
      "Ġfled": 3697,
      "Ġfield": 3698,
      "Ġhy": 3699,
      "lling": 3700,
      "Ġdumb": 3701,
      "Ġhabit": 3702,
      "Ġpant": 3703,
      "Ġnet": 3704,
      "Ġnine": 3705,
      "Ġnaturally": 3706,
      "vel": 3707,
      "ots": 3708,
      "oted": 3709,
      "Ġwaste": 3710,
      "Ġgrew": 3711,
      "Ġgazed": 3712,
      "idable": 3713,
      "step": 3714,
      "Ġelder": 3715,
      "Ġthunder": 3716,
      "ache": 3717,
      "acity": 3718,
      "Ġweight": 3719,
      "vering": 3720,
      "ĠHad": 3721,
      "ura": 3722,
      "alif": 3723,
      "alous": 3724,
      "ality": 3725,
      "althy": 3726,
      "Ġrecom": 3727,
      "Ġforty": 3728,
      "Ġsafety": 3729,
      "olit": 3730,
      "olved": 3731,
      "ĠBaskervilles": 3732,
      "Ġshows": 3733,
      "Ġrich": 3734,
      "Ġrain": 3735,
      "elled": 3736,
      "Ġdep": 3737,
      "onel": 3738,
      "aptain": 3739,
      "Ġwouldn": 3740,
      "ulous": 3741,
      "Ġneg": 3742,
      "Ġneck": 3743,
      "Ġorde": 3744,
      "agic": 3745,
      "Ġtrail": 3746,
      "ĠLiverpool": 3747,
      "Ġamid": 3748,
      "akes": 3749,
      "assive": 3750,
      "haring": 3751,
      "Ġarmed": 3752,
      "ĠOr": 3753,
      "ĠOx": 3754,
      "Ġshaking": 3755,
      "Ġclue": 3756,
      "Ġfriendship": 3757,
      "ears": 3758,
      "shot": 3759,
      "short": 3760,
      "why": 3761,
      "spital": 3762,
      "formed": 3763,
      "coll": 3764,
      "rength": 3765,
      "Ġinstruct": 3766,
      "Ġmatters": 3767,
      "Ġdesce": 3768,
      "retch": 3769,
      "prise": 3770,
      "Ġpresum": 3771,
      "without": 3772,
      "Ġwrote": 3773,
      "otten": 3774,
      "Ġcurve": 3775,
      "Ġcurtain": 3776,
      "Ġreputation": 3777,
      "ĠStapletons": 3778,
      "Ġappre": 3779,
      "Ġenter": 3780,
      "Ġconscience": 3781,
      "Ġfears": 3782,
      "Ġfollowing": 3783,
      "Ġremarks": 3784,
      "Ġgives": 3785,
      "Ġcompanions": 3786,
      "Ġjoke": 3787,
      "Ġjoined": 3788,
      "Ġdrift": 3789,
      "eks": 3790,
      "Ġfamous": 3791,
      "Ġcountryside": 3792,
      "Ġassistance": 3793,
      "Ġkeeping": 3794,
      "Ġcabman": 3795,
      "Ġdeeply": 3796,
      "osity": 3797,
      "Ġexcitement": 3798,
      "Ġquickly": 3799,
      "Ġabsor": 3800,
      "Ġhurt": 3801,
      "Ġreported": 3802,
      "board": 3803,
      "Ġcapable": 3804,
      "minent": 3805,
      "Ġhills": 3806,
      "Ġwhisper": 3807,
      "Ġnarrow": 3808,
      "Ġindications": 3809,
      "Ġdrawbridge": 3810,
      "Ġsimply": 3811,
      "Ġmistake": 3812,
      "Ġgloomy": 3813,
      "Ġmotion": 3814,
      "Ġmotive": 3815,
      "Ġengaged": 3816,
      "cientific": 3817,
      "Ġbeginning": 3818,
      "Ġsquare": 3819,
      "Ġfortune": 3820,
      "ĠLaura": 3821,
      "Ġenergy": 3822,
      "Ġwatched": 3823,
      "Ġrapidly": 3824,
      "Ġcontrary": 3825,
      "Ġmysterious": 3826,
      "Ġpowers": 3827,
      "Ġrelief": 3828,
      "Ġexclam": 3829,
      "Ġopposite": 3830,
      "Ġhistory": 3831,
      "aliforn": 3832,
      "Br": 3833,
      "Baldwin": 3834,
      "Ha": 3835,
      "May": 3836,
      "bber": 3837,
      "cor": 3838,
      "came": 3839,
      "ees": 3840,
      "ean": 3841,
      "give": 3842,
      "gentle": 3843,
      "hil": 3844,
      "hus": 3845,
      "ips": 3846,
      "murd": 3847,
      "mail": 3848,
      "na": 3849,
      "ners": 3850,
      "nerv": 3851,
      "oon": 3852,
      "pat": 3853,
      "row": 3854,
      "say": 3855,
      "saw": 3856,
      "ugg": 3857,
      "val": 3858,
      "vill": 3859,
      "Ġver": 3860,
      "Ġtin": 3861,
      "Ġtap": 3862,
      "Ġaud": 3863,
      "Ġspect": 3864,
      "Ġmer": 3865,
      "Ġmire": 3866,
      "Ġmount": 3867,
      "ises": 3868,
      "Ġbought": 3869,
      "itor": 3870,
      "itch": 3871,
      "eder": 3872,
      "edro": 3873,
      "Ġcaut": 3874,
      "Ġfly": 3875,
      "enger": 3876,
      "asant": 3877,
      "Ġtoss": 3878,
      "Ġdue": 3879,
      "Ġhammer": 3880,
      "anne": 3881,
      "arious": 3882,
      "armed": 3883,
      "Ġink": 3884,
      "Ġinfl": 3885,
      "Ġlen": 3886,
      "Ġlink": 3887,
      "Ġnames": 3888,
      "Ġnerve": 3889,
      "Ġbelow": 3890,
      "imal": 3891,
      "Ġgen": 3892,
      "Ġgall": 3893,
      "Ġequ": 3894,
      "sex": 3895,
      "sequ": 3896,
      "Ġthirty": 3897,
      "ĠHill": 3898,
      "ented": 3899,
      "urope": 3900,
      "aled": 3901,
      "Ġrese": 3902,
      "Ġformed": 3903,
      "aden": 3904,
      "Ġstro": 3905,
      "Ġstairs": 3906,
      "rif": 3907,
      "Ġnotes": 3908,
      "Ġnoticed": 3909,
      "Ġmelancholy": 3910,
      "ĠSan": 3911,
      "ĠSure": 3912,
      "ored": 3913,
      "Ġshout": 3914,
      "Ġrising": 3915,
      "Ġdevelo": 3916,
      "Ġdepend": 3917,
      "Ġkitchen": 3918,
      "chief": 3919,
      "Ġnecessary": 3920,
      "three": 3921,
      "through": 3922,
      "Ġyourselves": 3923,
      "anted": 3924,
      "antage": 3925,
      "Ġoutra": 3926,
      "ustom": 3927,
      "usion": 3928,
      "usanne": 3929,
      "Ġsomewhere": 3930,
      "ĠItal": 3931,
      "Ġgold": 3932,
      "unted": 3933,
      "unbridge": 3934,
      "Ġcouldn": 3935,
      "ĠTimes": 3936,
      "Ġloved": 3937,
      "ĠDon": 3938,
      "Ġpopular": 3939,
      "ists": 3940,
      "Ġunlike": 3941,
      "Ġunusual": 3942,
      "Ġfever": 3943,
      "aked": 3944,
      "Ġrocks": 3945,
      "Ġagreed": 3946,
      "ument": 3947,
      "Ġplaces": 3948,
      "iend": 3949,
      "behind": 3950,
      "ĠGood": 3951,
      "ĠGorgiano": 3952,
      "Ġprete": 3953,
      "erty": 3954,
      "ĠNorth": 3955,
      "Ġbold": 3956,
      "Ġartic": 3957,
      "ĠStation": 3958,
      "Ġblind": 3959,
      "Ġblue": 3960,
      "ressing": 3961,
      "Ġclient": 3962,
      "ĠPerhaps": 3963,
      "ĠPedro": 3964,
      "udd": 3965,
      "Ġcleared": 3966,
      "Ġthrown": 3967,
      "ĠJim": 3968,
      "Ġpassing": 3969,
      "Ġpassion": 3970,
      "lessinger": 3971,
      "ford": 3972,
      "conce": 3973,
      "consider": 3974,
      "Ġheads": 3975,
      "lier": 3976,
      "Ġdesign": 3977,
      "Ġaccept": 3978,
      "Ġsurround": 3979,
      "Ġintently": 3980,
      "Ġapart": 3981,
      "Ġapparently": 3982,
      "itioner": 3983,
      "Ġgiving": 3984,
      "Ġpoliceman": 3985,
      "Ġelb": 3986,
      "Ġminers": 3987,
      "Ġoccup": 3988,
      "Ġbarrel": 3989,
      "Ġadvise": 3990,
      "Ġdriving": 3991,
      "Ġsilver": 3992,
      "Ġwarn": 3993,
      "Ġforearm": 3994,
      "Ġassass": 3995,
      "Ġexpert": 3996,
      "Ġsecretary": 3997,
      "himself": 3998,
      "ivable": 3999,
      "Excellent": 4000,
      "Ġexcept": 4001,
      "Ġinterrupt": 4002,
      "Ġcheck": 4003,
      "Ġabsence": 4004,
      "Ġtalking": 4005,
      "Ġstrongly": 4006,
      "ĠWells": 4007,
      "Ġreports": 4008,
      "Ġrefused": 4009,
      "angled": 4010,
      "Ġrecall": 4011,
      "Ġmeeting": 4012,
      "Ġcomplex": 4013,
      "Ġdrop": 4014,
      "Ġcriminals": 4015,
      "Ġhumour": 4016,
      "Ġtremb": 4017,
      "ification": 4018,
      "Ġvillain": 4019,
      "Ġsky": 4020,
      "Ġboys": 4021,
      "aughter": 4022,
      "ĠAllen": 4023,
      "Ġpleasant": 4024,
      "Ġslipped": 4025,
      "Ġpatience": 4026,
      "Ġcircle": 4027,
      "Ġcigaret": 4028,
      "Ġformidable": 4029,
      "Any": 4030,
      "Ġestate": 4031,
      "Ġhuts": 4032,
      "ormous": 4033,
      "Ġneighbours": 4034,
      "Ġglasses": 4035,
      "Ġsymp": 4036,
      "Ġrespectable": 4037,
      "evening": 4038,
      "ĠLausanne": 4039,
      "Ġunfortun": 4040,
      "Ġpursuit": 4041,
      "bbing": 4042,
      "Ġchildren": 4043,
      "ĠUnion": 4044,
      "Ġviolence": 4045,
      "Ġangry": 4046,
      "Ġbitterly": 4047,
      "Ġmodern": 4048,
      "ĠShlessinger": 4049,
      "Ġgovernment": 4050,
      "Ġintellig": 4051,
      "Ġmethods": 4052,
      "ĠScotland": 4053,
      "MacDonald": 4054,
      "Ġfatal": 4055,
      "Ġintimate": 4056,
      "roydon": 4057,
      "happy": 4058,
      "Ġlunch": 4059,
      "Ġweapon": 4060,
      "rades": 4061,
      "Ġtobacco": 4062,
      "ĠSussex": 4063,
      "Ġcorridor": 4064,
      "Ġexclamation": 4065,
      "bbery": 4066,
      "Ġoutrage": 4067,
      "Ġcigarette": 4068,
      "Again": 4069,
      "About": 4070,
      "Charles": 4071,
      "ER": 4072,
      "Engl": 4073,
      "Indeed": 4074,
      "Lestrade": 4075,
      "Miss": 4076,
      "aily": 4077,
      "bbed": 4078,
      "che": 4079,
      "dd": 4080,
      "dri": 4081,
      "dif": 4082,
      "del": 4083,
      "ech": 4084,
      "fit": 4085,
      "find": 4086,
      "fashion": 4087,
      "ging": 4088,
      "hor": 4089,
      "ius": 4090,
      "mber": 4091,
      "nger": 4092,
      "oc": 4093,
      "ock": 4094,
      "oped": 4095,
      "prom": 4096,
      "pap": 4097,
      "sil": 4098,
      "sure": 4099,
      "turned": 4100,
      "uable": 4101,
      "uft": 4102,
      "war": 4103,
      "zy": 4104,
      "Ġ(": 4105,
      "Ġ*": 4106,
      "Ġtal": 4107,
      "Ġtast": 4108,
      "Ġtalked": 4109,
      "heard": 4110,
      "help": 4111,
      "inate": 4112,
      "Ġwicked": 4113,
      "Ġsch": 4114,
      "Ġsick": 4115,
      "Ġscientific": 4116,
      "hast": 4117,
      "haust": 4118,
      "hamed": 4119,
      "Ġowe": 4120,
      "Ġmatch": 4121,
      "Ġmaterial": 4122,
      "Ġmakes": 4123,
      "Ġbath": 4124,
      "Ġbird": 4125,
      "itive": 4126,
      "Ġcro": 4127,
      "Ġcared": 4128,
      "Ġcatch": 4129,
      "Ġcries": 4130,
      "Ġfi": 4131,
      "Ġfast": 4132,
      "Ġfaced": 4133,
      "Ġfoul": 4134,
      "Ġfilled": 4135,
      "Ġfinally": 4136,
      "Ġfiend": 4137,
      "eness": 4138,
      "asy": 4139,
      "esides": 4140,
      "Ġtoday": 4141,
      "Ġtomorrow": 4142,
      "Ġdry": 4143,
      "Ġhate": 4144,
      "ane": 4145,
      "Ġinnocent": 4146,
      "Ġheels": 4147,
      "Ġlines": 4148,
      "Ġpick": 4149,
      "Ġpiece": 4150,
      "omen": 4151,
      "Ġyounger": 4152,
      "vey": 4153,
      "icient": 4154,
      "Ġbelong": 4155,
      "lease": 4156,
      "stand": 4157,
      "station": 4158,
      "stained": 4159,
      "vert": 4160,
      "verton": 4161,
      "Ġisn": 4162,
      "entered": 4163,
      "urbed": 4164,
      "Ġrequ": 4165,
      "Ġreck": 4166,
      "Ġasso": 4167,
      "Ġstore": 4168,
      "Ġstern": 4169,
      "Ġstrength": 4170,
      "Ġancient": 4171,
      "Ġanimal": 4172,
      "olonel": 4173,
      "ters": 4174,
      "Ġatmo": 4175,
      "ills": 4176,
      "ĠSqu": 4177,
      "ĠSee": 4178,
      "Ġupper": 4179,
      "Ġupstairs": 4180,
      "Ġsepar": 4181,
      "among": 4182,
      "ify": 4183,
      "ode": 4184,
      "redible": 4185,
      "Ġrust": 4186,
      "Ġrare": 4187,
      "Ġrude": 4188,
      "Ġsoot": 4189,
      "Ġdecl": 4190,
      "ĠAh": 4191,
      "ĠAr": 4192,
      "Ġallow": 4193,
      "ulf": 4194,
      "ules": 4195,
      "ulverton": 4196,
      "Ġnearer": 4197,
      "Ġnearest": 4198,
      "Ġconspir": 4199,
      "Ġconsequ": 4200,
      "Ġknees": 4201,
      "ĠCould": 4202,
      "ĠCount": 4203,
      "ĠCaliforn": 4204,
      "Ġherself": 4205,
      "Ġleaves": 4206,
      "Ġvol": 4207,
      "Ġalert": 4208,
      "Ġaltogether": 4209,
      "Ġlock": 4210,
      "Ġworn": 4211,
      "ĠLook": 4212,
      "ĠDay": 4213,
      "Ġcomrades": 4214,
      "istence": 4215,
      "Ġunable": 4216,
      "Ġknowing": 4217,
      "Ġbrut": 4218,
      "Ġquar": 4219,
      "Ġagree": 4220,
      "Ġhandle": 4221,
      "Ġmaybe": 4222,
      "rail": 4223,
      "import": 4224,
      "Ġovercoat": 4225,
      "Ġpropose": 4226,
      "ĠGable": 4227,
      "Ġspace": 4228,
      "Ġhousekeeper": 4229,
      "Ġowner": 4230,
      "ĠEs": 4231,
      "ĠEven": 4232,
      "ĠEurope": 4233,
      "Ġenormous": 4234,
      "Ġbog": 4235,
      "Ġboat": 4236,
      "Ġarg": 4237,
      "ĠTherefore": 4238,
      "Ġcost": 4239,
      "issors": 4240,
      "Ġshare": 4241,
      "Ġshape": 4242,
      "Ġnights": 4243,
      "Ġclass": 4244,
      "pleasant": 4245,
      "ĠPr": 4246,
      "Ġglim": 4247,
      "Ġmighty": 4248,
      "Ġgrotesque": 4249,
      "Ġperceive": 4250,
      "Ġmoorland": 4251,
      "ignor": 4252,
      "Ġdisap": 4253,
      "ĠJust": 4254,
      "sphere": 4255,
      "spaper": 4256,
      "Ġremains": 4257,
      "Ġprint": 4258,
      "Ġproud": 4259,
      "Ġinstinct": 4260,
      "fee": 4261,
      "pany": 4262,
      "Ġdesired": 4263,
      "within": 4264,
      "Ġcalling": 4265,
      "Ġintended": 4266,
      "Ġnewspaper": 4267,
      "Ġchanced": 4268,
      "Ġreply": 4269,
      "Ġconscious": 4270,
      "jected": 4271,
      "Ġactive": 4272,
      "comple": 4273,
      "Ġcommand": 4274,
      "Ġinterested": 4275,
      "Ġopening": 4276,
      "Ġadvance": 4277,
      "Ġadvanced": 4278,
      "Ġadvantage": 4279,
      "suff": 4280,
      "myself": 4281,
      "Ġattached": 4282,
      "clear": 4283,
      "Ġtemper": 4284,
      "Ġservant": 4285,
      "Ġbrothers": 4286,
      "Ġsuggestion": 4287,
      "Inspector": 4288,
      "Ġnotebook": 4289,
      "Ġrang": 4290,
      "Ġpersonal": 4291,
      "Ġabsent": 4292,
      "Ġabsolutely": 4293,
      "world": 4294,
      "Ġfalling": 4295,
      "Ġchairman": 4296,
      "ĠAnother": 4297,
      "stem": 4298,
      "hands": 4299,
      "Ġpowerful": 4300,
      "Ġnumerous": 4301,
      "Ġskull": 4302,
      "Ġsolution": 4303,
      "Ġcarrying": 4304,
      "Ġattend": 4305,
      "Ġpractitioner": 4306,
      "Ġsending": 4307,
      "Ġindicate": 4308,
      "Ġdrawing": 4309,
      "shaven": 4310,
      "Ġobviously": 4311,
      "Ġleading": 4312,
      "Ġmemory": 4313,
      "Ġseriously": 4314,
      "culation": 4315,
      "Ġcircumstances": 4316,
      "Ġpenetr": 4317,
      "Ġprobable": 4318,
      "Ġdressed": 4319,
      "Ġdelivered": 4320,
      "Ġdescribe": 4321,
      "ivering": 4322,
      "Ġstayed": 4323,
      "ibility": 4324,
      "Ġquarters": 4325,
      "Ġcorrect": 4326,
      "criminal": 4327,
      "Ġcommunity": 4328,
      "Ġtorn": 4329,
      "Ġsupernatural": 4330,
      "Ġmadam": 4331,
      "Ġsatisfaction": 4332,
      "Ġrecognized": 4333,
      "Ġkilling": 4334,
      "Ġrepeated": 4335,
      "Ġheavens": 4336,
      "Ġconclusion": 4337,
      "Ġearnestly": 4338,
      "Ġchoose": 4339,
      "341": 4340,
      "Ġprofessional": 4341,
      "Ġpipe": 4342,
      "Ġorganization": 4343,
      "robor": 4344,
      "Ġrisk": 4345,
      "Ġbeneath": 4346,
      "ĠSpanish": 4347,
      "Ġsolemn": 4348,
      "Ġsteadily": 4349,
      "Ġopportunity": 4350,
      "Ġhypothesis": 4351,
      "Ġinflu": 4352,
      "Ġinterrupted": 4353,
      "Ġtrembling": 4354,
      "papers": 4355,
      "Ġassoci": 4356,
      "Ġatmosphere": 4357,
      "ĠSquare": 4358,
      "Ay": 4359,
      "Ames": 4360,
      "Americ": 4361,
      "Ettie": 4362,
      "Never": 4363,
      "aus": 4364,
      "bar": 4365,
      "bid": 4366,
      "both": 4367,
      "bits": 4368,
      "cern": 4369,
      "done": 4370,
      "dict": 4371,
      "direct": 4372,
      "ead": 4373,
      "five": 4374,
      "hood": 4375,
      "iable": 4376,
      "iety": 4377,
      "ique": 4378,
      "lor": 4379,
      "lar": 4380,
      "lay": 4381,
      "lted": 4382,
      "mist": 4383,
      "make": 4384,
      "mitted": 4385,
      "power": 4386,
      "rid": 4387,
      "sl": 4388,
      "since": 4389,
      "ts": 4390,
      "tre": 4391,
      "tow": 4392,
      "ture": 4393,
      "taken": 4394,
      "uppose": 4395,
      "whe": 4396,
      "wright": 4397,
      "yal": 4398,
      "Ġ3": 4399,
      "Ġou": 4400,
      "Ġer": 4401,
      "Ġ341": 4402,
      "Ġtask": 4403,
      "Ġtuft": 4404,
      "heart": 4405,
      "hearted": 4406,
      "Ġavo": 4407,
      "Ġwise": 4408,
      "Ġwomen": 4409,
      "Ġsen": 4410,
      "oust": 4411,
      "recy": 4412,
      "ham": 4413,
      "haired": 4414,
      "erman": 4415,
      "ergeant": 4416,
      "Ġmar": 4417,
      "Ġmill": 4418,
      "Ġmort": 4419,
      "Ġmister": 4420,
      "ision": 4421,
      "Ġbould": 4422,
      "Ġbore": 4423,
      "Ġband": 4424,
      "Ġbul": 4425,
      "Ġbones": 4426,
      "iter": 4427,
      "itation": 4428,
      "Ġcitiz": 4429,
      "Ġfer": 4430,
      "Ġfro": 4431,
      "Ġfond": 4432,
      "Ġfinal": 4433,
      "Ġhun": 4434,
      "Ġhide": 4435,
      "espe": 4436,
      "orge": 4437,
      "llers": 4438,
      "inge": 4439,
      "Ġdie": 4440,
      "arran": 4441,
      "arches": 4442,
      "Ġinner": 4443,
      "Ġinformed": 4444,
      "Ġheight": 4445,
      "Ġpin": 4446,
      "Ġpark": 4447,
      "Ġpers": 4448,
      "Ġpity": 4449,
      "ator": 4450,
      "icious": 4451,
      "Ġbearing": 4452,
      "Ġbearded": 4453,
      "ldom": 4454,
      "imul": 4455,
      "Ġgown": 4456,
      "Ġgra": 4457,
      "Ġgru": 4458,
      "Ġgreet": 4459,
      "Ġgang": 4460,
      "still": 4461,
      "stable": 4462,
      "stru": 4463,
      "Ġthrill": 4464,
      "acious": 4465,
      "ayed": 4466,
      "Ġweary": 4467,
      "ĠHud": 4468,
      "ental": 4469,
      "Ġones": 4470,
      "irm": 4471,
      "irious": 4472,
      "uries": 4473,
      "Ġreceive": 4474,
      "Ġrespons": 4475,
      "Ġassu": 4476,
      "Ġashamed": 4477,
      "ĠMur": 4478,
      "Ġstream": 4479,
      "ribly": 4480,
      "tering": 4481,
      "terrible": 4482,
      "illy": 4483,
      "ĠWould": 4484,
      "ĠSelden": 4485,
      "outside": 4486,
      "Ġsevere": 4487,
      "amb": 4488,
      "ĠBurn": 4489,
      "ĠBoth": 4490,
      "ĠBaden": 4491,
      "odded": 4492,
      "Ġship": 4493,
      "Ġshining": 4494,
      "redit": 4495,
      "Ġrow": 4496,
      "Ġrum": 4497,
      "iliar": 4498,
      "ilities": 4499,
      "Ġdeli": 4500,
      "Ġdelight": 4501,
      "ĠAre": 4502,
      "--'": 4503,
      "ulate": 4504,
      "things": 4505,
      "thren": 4506,
      "Ġexult": 4507,
      "Ġexped": 4508,
      "Ġexhaust": 4509,
      "looked": 4510,
      "ĠCon": 4511,
      "ĠCroydon": 4512,
      "ĠCulverton": 4513,
      "Ġgossi": 4514,
      "astic": 4515,
      "artwright": 4516,
      "ĠThank": 4517,
      "ĠTiger": 4518,
      "agger": 4519,
      "Ġtragic": 4520,
      "ĠLe": 4521,
      "Ġsheet": 4522,
      "Ġsheep": 4523,
      "Ġwhence": 4524,
      "Ġunhappy": 4525,
      "Ġaband": 4526,
      "Ġfeared": 4527,
      "inkled": 4528,
      "Ġrock": 4529,
      "Ġbrings": 4530,
      "Ġbrows": 4531,
      "erved": 4532,
      "Ġtwisted": 4533,
      "Ġprop": 4534,
      "Ġprodu": 4535,
      "Ġotherwise": 4536,
      "abs": 4537,
      "Ġlooks": 4538,
      "Ġboss": 4539,
      "athy": 4540,
      "ĠStill": 4541,
      "ĠStates": 4542,
      "Ġcop": 4543,
      "Ġblank": 4544,
      "cially": 4545,
      "ĠPatch": 4546,
      "ĠPeters": 4547,
      "Ġglancing": 4548,
      "Ġsmiling": 4549,
      "Ġcris": 4550,
      "Ġclever": 4551,
      "everal": 4552,
      "Ġthoughtfully": 4553,
      "Ġimpassive": 4554,
      "airn": 4555,
      "shott": 4556,
      "Ġscissors": 4557,
      "Ġpermission": 4558,
      "Ġobt": 4559,
      "Ġthrust": 4560,
      "Ġolder": 4561,
      "Ġremo": 4562,
      "Ġdoors": 4563,
      "Ġends": 4564,
      "lessly": 4565,
      "lessness": 4566,
      "Ġprot": 4567,
      "conn": 4568,
      "Ġeveryone": 4569,
      "Ġinstr": 4570,
      "Ġfarm": 4571,
      "Ġpeep": 4572,
      "Ġguide": 4573,
      "Ġsecrecy": 4574,
      "Ġminds": 4575,
      "Ġpointing": 4576,
      "Ġintent": 4577,
      "Ġintention": 4578,
      "Ġblackmail": 4579,
      "Ġpossib": 4580,
      "Ġclosing": 4581,
      "Ġgiant": 4582,
      "ĠRoad": 4583,
      "Ġdeadly": 4584,
      "ĠVery": 4585,
      "Ġimm": 4586,
      "Ġappear": 4587,
      "sub": 4588,
      "Ġvisible": 4589,
      "Ġbegun": 4590,
      "Ġslight": 4591,
      "Ġexamination": 4592,
      "therefore": 4593,
      "Ġorders": 4594,
      "Ġsecrets": 4595,
      "Ġfury": 4596,
      "Ġfurious": 4597,
      "Ġruns": 4598,
      "osing": 4599,
      "Ġneeds": 4600,
      "Ġbelieved": 4601,
      "Ġstrugg": 4602,
      "Ġquestioning": 4603,
      "Ġtownship": 4604,
      "Ġswept": 4605,
      "worthy": 4606,
      "Ġbadly": 4607,
      "Ġrefuse": 4608,
      "bye": 4609,
      "Ġkindly": 4610,
      "Ġfeelings": 4611,
      "Ġ13": 4612,
      "Ġhumble": 4613,
      "Ġfrequ": 4614,
      "Ġofficer": 4615,
      "Ġhorse": 4616,
      "Ġburgl": 4617,
      "anyone": 4618,
      "Ġbeauty": 4619,
      "Ġeyebrows": 4620,
      "seemed": 4621,
      "Ġmembers": 4622,
      "Ġkeys": 4623,
      "Ġprobability": 4624,
      "Ġdescription": 4625,
      "Ġarrested": 4626,
      "Ġbooks": 4627,
      "headed": 4628,
      "Ġlucky": 4629,
      "Ġlimited": 4630,
      "Ġcoffee": 4631,
      "certainly": 4632,
      "Ġedge": 4633,
      "Ġeduc": 4634,
      "Ġvalue": 4635,
      "rawling": 4636,
      "Ġpursued": 4637,
      "Ġnaturalist": 4638,
      "Ġforgotten": 4639,
      "against": 4640,
      "extraordinary": 4641,
      "explained": 4642,
      "Ġrecognize": 4643,
      "everything": 4644,
      "Ġrailway": 4645,
      "ĠEverything": 4646,
      "ĠRegent": 4647,
      "Ġrepeat": 4648,
      "Ġfailed": 4649,
      "Ġportrait": 4650,
      "lected": 4651,
      "Ġdeny": 4652,
      "secret": 4653,
      "Ġanxious": 4654,
      "ĠFreeman": 4655,
      "ĠFreemen": 4656,
      "Ġimmediate": 4657,
      "Ġimmediately": 4658,
      "called": 4659,
      "Ġoutline": 4660,
      "convict": 4661,
      "Ġlurking": 4662,
      "umberland": 4663,
      "Ġgleaming": 4664,
      "Ġoriginal": 4665,
      "Ġsleeve": 4666,
      "Ġflew": 4667,
      "Ġinitials": 4668,
      "Ġsucceeded": 4669,
      "Ġgroup": 4670,
      "Ġarrangements": 4671,
      "Ġastonishment": 4672,
      "ograph": 4673,
      "remember": 4674,
      "Ġelderly": 4675,
      "Ġrecommend": 4676,
      "ĠOxshott": 4677,
      "Ġabsorbed": 4678,
      "Ġmotionless": 4679,
      "eanwhile": 4680,
      "ederate": 4681,
      "Ġlength": 4682,
      "rified": 4683,
      "ĠSurely": 4684,
      "Ġdevelop": 4685,
      "ĠItalian": 4686,
      "Ġunlikely": 4687,
      "Ġarticle": 4688,
      "Ġassassin": 4689,
      "Ġsympathy": 4690,
      "Ġunfortunate": 4691,
      "Ġschool": 4692,
      "hastly": 4693,
      "ĠCounty": 4694,
      "ĠCalifornia": 4695,
      "Ġinfluence": 4696,
      "towards": 4697,
      "arranged": 4698,
      "ĠHudson": 4699,
      "ĠBurnet": 4700,
      "Be": 4701,
      "Birlstone": 4702,
      "Certain": 4703,
      "Every": 4704,
      "From": 4705,
      "Look": 4706,
      "Part": 4707,
      "Scan": 4708,
      "Tut": 4709,
      "Wh": 4710,
      "broad": 4711,
      "bairn": 4712,
      "cab": 4713,
      "char": 4714,
      "dest": 4715,
      "em": 4716,
      "eff": 4717,
      "either": 4718,
      "eorge": 4719,
      "fellow": 4720,
      "figure": 4721,
      "fax": 4722,
      "gest": 4723,
      "gown": 4724,
      "gency": 4725,
      "ians": 4726,
      "lig": 4727,
      "mar": 4728,
      "much": 4729,
      "married": 4730,
      "money": 4731,
      "osed": 4732,
      "paper": 4733,
      "ric": 4734,
      "rust": 4735,
      "ration": 4736,
      "rish": 4737,
      "rather": 4738,
      "rung": 4739,
      "som": 4740,
      "sus": 4741,
      "suddenly": 4742,
      "tle": 4743,
      "uous": 4744,
      "vil": 4745,
      "wife": 4746,
      "waiting": 4747,
      "Ġtunn": 4748,
      "held": 4749,
      "heav": 4750,
      "hester": 4751,
      "instant": 4752,
      "Ġwest": 4753,
      "Ġson": 4754,
      "Ġsouth": 4755,
      "Ġsides": 4756,
      "respect": 4757,
      "reason": 4758,
      "Ġodd": 4759,
      "Ġmat": 4760,
      "Ġmal": 4761,
      "Ġmain": 4762,
      "Ġmus": 4763,
      "Ġmag": 4764,
      "Ġmoust": 4765,
      "isc": 4766,
      "Ġbare": 4767,
      "itions": 4768,
      "once": 4769,
      "edge": 4770,
      "Ġcoun": 4771,
      "Ġcord": 4772,
      "Ġcaused": 4773,
      "Ġcustom": 4774,
      "Ġfit": 4775,
      "Ġfun": 4776,
      "enge": 4777,
      "enched": 4778,
      "asants": 4779,
      "llow": 4780,
      "Ġdared": 4781,
      "Ġdiv": 4782,
      "Ġhaze": 4783,
      "Ġhabits": 4784,
      "Ġhalted": 4785,
      "another": 4786,
      "arthy": 4787,
      "Ġinn": 4788,
      "Ġheap": 4789,
      "Ġlan": 4790,
      "Ġpara": 4791,
      "Ġnodded": 4792,
      "aturd": 4793,
      "athered": 4794,
      "veyed": 4795,
      "leep": 4796,
      "Ġgap": 4797,
      "Ġgather": 4798,
      "Ġgazing": 4799,
      "Ġghastly": 4800,
      "stit": 4801,
      "stick": 4802,
      "sett": 4803,
      "Ġthread": 4804,
      "account": 4805,
      "Ġwealth": 4806,
      "eth": 4807,
      "Ġisland": 4808,
      "ĠHob": 4809,
      "Ġonward": 4810,
      "ioned": 4811,
      "alf": 4812,
      "always": 4813,
      "Ġrepl": 4814,
      "Ġforth": 4815,
      "Ġforms": 4816,
      "ading": 4817,
      "Ġsail": 4818,
      "Ġsaved": 4819,
      "Ġanno": 4820,
      "illo": 4821,
      "ĠWater": 4822,
      "ĠSuddenly": 4823,
      "ĠSergeant": 4824,
      "Ġseized": 4825,
      "Ġseldom": 4826,
      "amps": 4827,
      "odger": 4828,
      "aining": 4829,
      "Ġshr": 4830,
      "Ġmante": 4831,
      "Ġsupre": 4832,
      "Ġras": 4833,
      "Ġrid": 4834,
      "Ġdocum": 4835,
      "Ġsold": 4836,
      "Ġdeb": 4837,
      "Ġdem": 4838,
      "Ġdece": 4839,
      "indeed": 4840,
      "Ġallowed": 4841,
      "Ġnois": 4842,
      "ulsed": 4843,
      "Ġwheels": 4844,
      "Ġexistence": 4845,
      "quarter": 4846,
      "too": 4847,
      "told": 4848,
      "antastic": 4849,
      "Ġconven": 4850,
      "Ġconcern": 4851,
      "Ġknock": 4852,
      "Ġseeing": 4853,
      "ĠCaptain": 4854,
      "ĠCharing": 4855,
      "ĠColonel": 4856,
      "ĠCartwright": 4857,
      "ively": 4858,
      "unk": 4859,
      "unken": 4860,
      "ĠTell": 4861,
      "ĠTake": 4862,
      "ĠTwo": 4863,
      "ĠTunbridge": 4864,
      "Ġaltern": 4865,
      "Ġalthough": 4866,
      "agonet": 4867,
      "Ġtraced": 4868,
      "Ġtraces": 4869,
      "Ġlose": 4870,
      "Ġlover": 4871,
      "Ġworked": 4872,
      "ĠDe": 4873,
      "ĠDaily": 4874,
      "Ġshel": 4875,
      "Ġcomb": 4876,
      "Ġcomfort": 4877,
      "isting": 4878,
      "istle": 4879,
      "istling": 4880,
      "Ġuncle": 4881,
      "Ġunexpected": 4882,
      "Ġunpleasant": 4883,
      "mered": 4884,
      "Ġliked": 4885,
      "Ġjaw": 4886,
      "Ġproper": 4887,
      "Ġproposition": 4888,
      "ĠGard": 4889,
      "ĠGreen": 4890,
      "Ġspare": 4891,
      "ended": 4892,
      "ĠNever": 4893,
      "Ġoffer": 4894,
      "Ġoffered": 4895,
      "ĠEast": 4896,
      "rue": 4897,
      "ruit": 4898,
      "Ġencour": 4899,
      "Ġarrival": 4900,
      "Ġcool": 4901,
      "Ġblurred": 4902,
      "Ġblazing": 4903,
      "cies": 4904,
      "Ġgets": 4905,
      "Ġclim": 4906,
      "Ġclapped": 4907,
      "Ġclenched": 4908,
      "uded": 4909,
      "udge": 4910,
      "Ġsmell": 4911,
      "Ġcrimes": 4912,
      "Ġfriendly": 4913,
      "airbairn": 4914,
      "Ġgras": 4915,
      "Ġscri": 4916,
      "Ġscand": 4917,
      "Ġoblig": 4918,
      "ignation": 4919,
      "whom": 4920,
      "Ġoper": 4921,
      "Ġende": 4922,
      "need": 4923,
      "Ġhopes": 4924,
      "Ġjustified": 4925,
      "deep": 4926,
      "Ġpride": 4927,
      "concerned": 4928,
      "Ġgreater": 4929,
      "Ġgreatest": 4930,
      "ictor": 4931,
      "Ġclearing": 4932,
      "Ġlighting": 4933,
      "Ġearlier": 4934,
      "izing": 4935,
      "hys": 4936,
      "Ġpeace": 4937,
      "Ġpeering": 4938,
      "Ġpeasants": 4939,
      "exc": 4940,
      "Ġretired": 4941,
      "pract": 4942,
      "ording": 4943,
      "Ġflight": 4944,
      "Ġflash": 4945,
      "Ġintense": 4946,
      "otted": 4947,
      "Ġspeech": 4948,
      "Ġcurt": 4949,
      "Ġcurved": 4950,
      "Ġchanged": 4951,
      "Ġstrangers": 4952,
      "Ġdisturbed": 4953,
      "Ġappl": 4954,
      "Ġinstantly": 4955,
      "Ġcloser": 4956,
      "Ġcommitted": 4957,
      "Ġstands": 4958,
      "Ġaccom": 4959,
      "Ġaccent": 4960,
      "Ġoccur": 4961,
      "Ġfellows": 4962,
      "Ġconfident": 4963,
      "Ġjoin": 4964,
      "rooms": 4965,
      "suggest": 4966,
      "Ġcorrobor": 4967,
      "Ġwarned": 4968,
      "Ġslow": 4969,
      "Ġforehead": 4970,
      "Ġhounds": 4971,
      "Ġbreast": 4972,
      "Ġbreaking": 4973,
      "Ġsworn": 4974,
      "Ġswarthy": 4975,
      "escri": 4976,
      "Ġinval": 4977,
      "Ġinvolved": 4978,
      "Ġsuggestive": 4979,
      "ivid": 4980,
      "Ġstooped": 4981,
      "Ġdevoted": 4982,
      "dog": 4983,
      "Ġneeded": 4984,
      "Ġshortly": 4985,
      "reading": 4986,
      "Ġcareer": 4987,
      "Ġextent": 4988,
      "scri": 4989,
      "Ġpresented": 4990,
      "Ġcheeks": 4991,
      "Ġabsolute": 4992,
      "useum": 4993,
      "Ġspeaking": 4994,
      "Ġsteep": 4995,
      "Ġsentence": 4996,
      "Ġrefer": 4997,
      "Ġimagination": 4998,
      "Ġfootmark": 4999,
      "Ġfootstep": 5000,
      "Ġdetectives": 5001,
      "Ġuseless": 5002,
      "Ġfigures": 5003,
      "Ġheavily": 5004,
      "Ġbringing": 5005,
      "however": 5006,
      "regular": 5007,
      "Ġpromised": 5008,
      "fessor": 5009,
      "prob": 5010,
      "Ġdischar": 5011,
      "Ġrecovered": 5012,
      "Ġaccounts": 5013,
      "Ġsolve": 5014,
      "Ġpractice": 5015,
      "Ġindicated": 5016,
      "shall": 5017,
      "ĠUnder": 5018,
      "Ġsnow": 5019,
      "Ġgrie": 5020,
      "Ġrubbed": 5021,
      "zzle": 5022,
      "Ġslipp": 5023,
      "Ġplaying": 5024,
      "Ġsharply": 5025,
      "Ġpressed": 5026,
      "Ġpressing": 5027,
      "Ġdescribed": 5028,
      "Ġtrying": 5029,
      "ĠMarie": 5030,
      "ĠThrough": 5031,
      "Ġregret": 5032,
      "Ġcolle": 5033,
      "strong": 5034,
      "Ġquietly": 5035,
      "ormac": 5036,
      "ĠJohnson": 5037,
      "Ġsystem": 5038,
      "uffled": 5039,
      "interview": 5040,
      "Ġwalls": 5041,
      "rawled": 5042,
      "justice": 5043,
      "Ġarmchair": 5044,
      "Ġtweed": 5045,
      "Ġspirits": 5046,
      "ĠAlready": 5047,
      "Ġscreaming": 5048,
      "Ġhangs": 5049,
      "Ġdeparture": 5050,
      "Ġdiscover": 5051,
      "Ġdiscovered": 5052,
      "followed": 5053,
      "minded": 5054,
      "Ġsaloon": 5055,
      "Ġpossession": 5056,
      "possible": 5057,
      "possibly": 5058,
      "present": 5059,
      "Ġslopes": 5060,
      "Ġcrazy": 5061,
      "Ġoutlined": 5062,
      "Ġshooting": 5063,
      "words": 5064,
      "ĠAdmir": 5065,
      "coloured": 5066,
      "ĠCarfax": 5067,
      "Ġbalance": 5068,
      "Ġhidden": 5069,
      "Ġhigher": 5070,
      "Ġvanished": 5071,
      "Ġjealous": 5072,
      "Ġprepared": 5073,
      "Ġcheerful": 5074,
      "Ġadmiration": 5075,
      "Ġfaithful": 5076,
      "Ġ534": 5077,
      "Ġordered": 5078,
      "Ġappreci": 5079,
      "Brother": 5080,
      "gentleman": 5081,
      "Ġmercy": 5082,
      "Ġresearches": 5083,
      "Ġelbow": 5084,
      "Ġintelligence": 5085,
      "difficult": 5086,
      "vertise": 5087,
      "Ġconspiracy": 5088,
      "ĠEsher": 5089,
      "complete": 5090,
      "Ġouter": 5091,
      "Ġerr": 5092,
      "especially": 5093,
      "Ġpersu": 5094,
      "Certainly": 5095,
      "Scanlan": 5096,
      "Ġparaly": 5097,
      "aturday": 5098,
      "Ġsupreme": 5099,
      "agonette": 5100,
      "Ġfootsteps": 5101,
      ".,": 5102,
      "AR": 5103,
      "Am": 5104,
      "Bodymaster": 5105,
      "Could": 5106,
      "God": 5107,
      "Give": 5108,
      "London": 5109,
      "Most": 5110,
      "OU": 5111,
      "Pr": 5112,
      "ST": 5113,
      "Tell": 5114,
      "aulf": 5115,
      "bing": 5116,
      "burned": 5117,
      "bank": 5118,
      "bury": 5119,
      "cir": 5120,
      "cast": 5121,
      "cart": 5122,
      "caut": 5123,
      "dom": 5124,
      "dist": 5125,
      "danger": 5126,
      "during": 5127,
      "elegr": 5128,
      "fact": 5129,
      "fire": 5130,
      "fright": 5131,
      "fles": 5132,
      "filled": 5133,
      "gave": 5134,
      "gment": 5135,
      "gress": 5136,
      "gings": 5137,
      "hum": 5138,
      "io": 5139,
      "iam": 5140,
      "iard": 5141,
      "iven": 5142,
      "iving": 5143,
      "ibly": 5144,
      "iosity": 5145,
      "life": 5146,
      "lodge": 5147,
      "law": 5148,
      "mal": 5149,
      "mess": 5150,
      "mies": 5151,
      "nor": 5152,
      "net": 5153,
      "nical": 5154,
      "obe": 5155,
      "opt": 5156,
      "pet": 5157,
      "rot": 5158,
      "rim": 5159,
      "rous": 5160,
      "rate": 5161,
      "ses": 5162,
      "sat": 5163,
      "shad": 5164,
      "tell": 5165,
      "tall": 5166,
      "uce": 5167,
      "vice": 5168,
      "vail": 5169,
      "wers": 5170,
      "wood": 5171,
      "youn": 5172,
      "Ġ4": 5173,
      "Ġ7": 5174,
      "Ġrom": 5175,
      "Ġiv": 5176,
      "Ġtit": 5177,
      "Ġtut": 5178,
      "Ġtur": 5179,
      "Ġtied": 5180,
      "Ġtip": 5181,
      "Ġtiger": 5182,
      "Ġtouched": 5183,
      "hest": 5184,
      "Ġaid": 5185,
      "Ġwore": 5186,
      "Ġwide": 5187,
      "Ġwagonette": 5188,
      "Ġsac": 5189,
      "Ġsill": 5190,
      "Ġsize": 5191,
      "ref": 5192,
      "rem": 5193,
      "really": 5194,
      "remon": 5195,
      "hair": 5196,
      "Ġoak": 5197,
      "Ġmir": 5198,
      "Ġmap": 5199,
      "Ġmate": 5200,
      "Ġmare": 5201,
      "Ġmother": 5202,
      "Ġmud": 5203,
      "Ġmarry": 5204,
      "Ġmix": 5205,
      "Ġmental": 5206,
      "Ġben": 5207,
      "Ġbowed": 5208,
      "Ġblock": 5209,
      "itude": 5210,
      "oner": 5211,
      "Ġchat": 5212,
      "Ġcat": 5213,
      "Ġclock": 5214,
      "Ġcult": 5215,
      "Ġcards": 5216,
      "Ġfain": 5217,
      "Ġfits": 5218,
      "Ġfired": 5219,
      "Ġfug": 5220,
      "enough": 5221,
      "encies": 5222,
      "Ġtore": 5223,
      "lls": 5224,
      "ller": 5225,
      "inging": 5226,
      "Ġdu": 5227,
      "Ġdar": 5228,
      "Ġdom": 5229,
      "Ġdus": 5230,
      "Ġdiss": 5231,
      "Ġdense": 5232,
      "Ġdying": 5233,
      "ĠIrish": 5234,
      "arily": 5235,
      "Ġinha": 5236,
      "Ġinch": 5237,
      "Ġinfinite": 5238,
      "Ġhealth": 5239,
      "Ġhedge": 5240,
      "Ġlat": 5241,
      "Ġlid": 5242,
      "Ġlab": 5243,
      "Ġlugg": 5244,
      "Ġpet": 5245,
      "Ġpause": 5246,
      "Ġpains": 5247,
      "Ġpushing": 5248,
      "Ġporter": 5249,
      "Ġphys": 5250,
      "Ġnur": 5251,
      "omed": 5252,
      "oming": 5253,
      "atform": 5254,
      "âĢľ'": 5255,
      "ication": 5256,
      "Ġbefall": 5257,
      "ley": 5258,
      "otions": 5259,
      "ldgate": 5260,
      "imag": 5261,
      "Ġgn": 5262,
      "Ġgain": 5263,
      "Ġgathered": 5264,
      "stri": 5265,
      "Ġep": 5266,
      "lying": 5267,
      "acles": 5268,
      "ete": 5269,
      "ets": 5270,
      "iring": 5271,
      "ursion": 5272,
      "These": 5273,
      "alted": 5274,
      "Ġformer": 5275,
      "rol": 5276,
      "rove": 5277,
      "rose": 5278,
      "Ġstol": 5279,
      "Ġstout": 5280,
      "Ġstage": 5281,
      "Ġstew": 5282,
      "Ġstaff": 5283,
      "Ġstones": 5284,
      "Ġstretched": 5285,
      "olution": 5286,
      "illing": 5287,
      "ĠSaturday": 5288,
      "ource": 5289,
      "ourselves": 5290,
      "Ġsea": 5291,
      "Ġsell": 5292,
      "ament": 5293,
      "ĠBl": 5294,
      "Ġrushing": 5295,
      "Ġbutter": 5296,
      "ili": 5297,
      "ĠAT": 5298,
      "chnical": 5299,
      "ardly": 5300,
      "Ġnovel": 5301,
      "ulary": 5302,
      "those": 5303,
      "Ġexpan": 5304,
      "Ġexalted": 5305,
      "quest": 5306,
      "ounded": 5307,
      "Ġconside": 5308,
      "Ġconcent": 5309,
      "Ġconvey": 5310,
      "Ġwhoever": 5311,
      "uster": 5312,
      "ĠĠĠĠĠĠĠĠĠĠ": 5313,
      "ĠCormac": 5314,
      "acket": 5315,
      "Ġgolden": 5316,
      "cking": 5317,
      "unged": 5318,
      "artmoor": 5319,
      "Ġvain": 5320,
      "Ġvital": 5321,
      "lfast": 5322,
      "orted": 5323,
      "ĠTor": 5324,
      "Ġaloud": 5325,
      "ongue": 5326,
      "Ġtrade": 5327,
      "Ġloss": 5328,
      "ĠLaw": 5329,
      "ĠDown": 5330,
      "ĠDob": 5331,
      "ĠDartmoor": 5332,
      "Ġpoison": 5333,
      "forever": 5334,
      "Ġuncom": 5335,
      "Ġunmarried": 5336,
      "Ġample": 5337,
      "Ġlikes": 5338,
      "Ġroar": 5339,
      "Ġrode": 5340,
      "Ġbran": 5341,
      "Ġquivered": 5342,
      "Ġagents": 5343,
      "Ġagony": 5344,
      "Ġplatform": 5345,
      "ieces": 5346,
      "Ġafoot": 5347,
      "Ġprospect": 5348,
      "ĠGeorge": 5349,
      "Ġprecise": 5350,
      "Ġspan": 5351,
      "ounced": 5352,
      "aby": 5353,
      "abor": 5354,
      "abled": 5355,
      "ender": 5356,
      "ĠNature": 5357,
      "ĠNext": 5358,
      "Ġfold": 5359,
      "eless": 5360,
      "ĠEminent": 5361,
      "ruce": 5362,
      "ruption": 5363,
      "ĠFirst": 5364,
      "ples": 5365,
      "play": 5366,
      "gling": 5367,
      "ĠStanger": 5368,
      "Ġshaken": 5369,
      "Ġclum": 5370,
      "ĠPar": 5371,
      "ĠPoor": 5372,
      "ĠPhil": 5373,
      "Ġglared": 5374,
      "Ġsmart": 5375,
      "Ġcrit": 5376,
      "Ġcrushed": 5377,
      "Ġthoughtful": 5378,
      "Ġimpress": 5379,
      "Ġscr": 5380,
      "Ġscar": 5381,
      "Ġscared": 5382,
      "Ġdisgu": 5383,
      "ĠJac": 5384,
      "ĠJove": 5385,
      "spoken": 5386,
      "Ġremove": 5387,
      "post": 5388,
      "Ġdoorway": 5389,
      "hension": 5390,
      "Ġwinding": 5391,
      "Ġhospital": 5392,
      "perhaps": 5393,
      "cox": 5394,
      "cope": 5395,
      "lph": 5396,
      "lpiece": 5397,
      "rent": 5398,
      "Ġprice": 5399,
      "Ġsawed": 5400,
      "Ġinstance": 5401,
      "Ġinstead": 5402,
      "lied": 5403,
      "Ġlighted": 5404,
      "Ġrounded": 5405,
      "Ġguarded": 5406,
      "exp": 5407,
      "prints": 5408,
      "order": 5409,
      "Ġhelping": 5410,
      "ĠAndrew": 5411,
      "Ġsurm": 5412,
      "Ġintru": 5413,
      "ottled": 5414,
      "avoured": 5415,
      "Ġbecomes": 5416,
      "Ġcurse": 5417,
      "Ġcuriosity": 5418,
      "gray": 5419,
      "Ġchapter": 5420,
      "awed": 5421,
      "Ġhalfway": 5422,
      "Ġtakes": 5423,
      "Ġlaying": 5424,
      "Ġactions": 5425,
      "Ġheartily": 5426,
      "Ġcontent": 5427,
      "Ġcontained": 5428,
      "Ġcontents": 5429,
      "coming": 5430,
      "Ġpolicemen": 5431,
      "ĠVictor": 5432,
      "Ġconfederate": 5433,
      "Ġdripping": 5434,
      "ensive": 5435,
      "Ġstring": 5436,
      "Ġterms": 5437,
      "Ġattracted": 5438,
      "days": 5439,
      "Ġteeth": 5440,
      "Ġseries": 5441,
      "Ġemb": 5442,
      "Ġemotion": 5443,
      "Ġemotions": 5444,
      "Ġswore": 5445,
      "Ġstarting": 5446,
      "ivil": 5447,
      "Ġstove": 5448,
      "Ġstole": 5449,
      "Ġexchan": 5450,
      "Ġexcursion": 5451,
      "Ġexpecting": 5452,
      "Ġsounds": 5453,
      "Ġexception": 5454,
      "Ġhush": 5455,
      "knew": 5456,
      "scap": 5457,
      "Ġmessenger": 5458,
      "Ġchest": 5459,
      "Ġraise": 5460,
      "Ġstepped": 5461,
      "ierrot": 5462,
      "Ġinquest": 5463,
      "Ġsubdu": 5464,
      "ernal": 5465,
      "Ġmonograph": 5466,
      "Ġ17": 5467,
      "rivial": 5468,
      "Ġaddressed": 5469,
      "yourself": 5470,
      "Ġirregular": 5471,
      "stead": 5472,
      "Ġpuzzled": 5473,
      "Ġobjection": 5474,
      "observ": 5475,
      "Ġcaptain": 5476,
      "Ġrecoll": 5477,
      "Ġsafely": 5478,
      "Ġsketch": 5479,
      "Ġfourth": 5480,
      "Ġwhisky": 5481,
      "Ġtrusted": 5482,
      "Ġconsidering": 5483,
      "Ġsolid": 5484,
      "Ġburied": 5485,
      "anything": 5486,
      "ouching": 5487,
      "Ġbuilt": 5488,
      "Ġstreets": 5489,
      "Ġindication": 5490,
      "Ġpleasing": 5491,
      "ossibly": 5492,
      "shaved": 5493,
      "Ġmidnight": 5494,
      "Ġruin": 5495,
      "Ġruff": 5496,
      "themselves": 5497,
      "Ġcompletely": 5498,
      "ortune": 5499,
      "ruction": 5500,
      "Ġpatient": 5501,
      "Ġrealize": 5502,
      "Ġparticularly": 5503,
      "Ġtriump": 5504,
      "incidence": 5505,
      "Ġlodgings": 5506,
      "Ġplayed": 5507,
      "Ġapproach": 5508,
      "Ġcommonplace": 5509,
      "fectly": 5510,
      "Ġdelirious": 5511,
      "appearance": 5512,
      "Ġviews": 5513,
      "Ġpressure": 5514,
      "Ġundert": 5515,
      "Ġsunk": 5516,
      "axed": 5517,
      "ĠHerald": 5518,
      "Ġregard": 5519,
      "Ġprofessor": 5520,
      "Ġarrive": 5521,
      "Ġcollar": 5522,
      "Ġoccasionally": 5523,
      "Ġcharacterist": 5524,
      "Ġrelations": 5525,
      "Ġjudgment": 5526,
      "Ġengine": 5527,
      "Ġrig": 5528,
      "umbled": 5529,
      "Ġcommunicate": 5530,
      "Ġmaiden": 5531,
      "attle": 5532,
      "Three": 5533,
      "bbled": 5534,
      "opened": 5535,
      "Ġforgive": 5536,
      "Ġcompelled": 5537,
      "Ġmurderers": 5538,
      "Ġcondition": 5539,
      "Ġconduct": 5540,
      "letter": 5541,
      "Ġfrightened": 5542,
      "ĠBelfast": 5543,
      "Ġsuspected": 5544,
      "office": 5545,
      "Ġhanging": 5546,
      "Ġladies": 5547,
      "Ġconclusions": 5548,
      "Ġboarding": 5549,
      "contin": 5550,
      "Ġlaughing": 5551,
      "occurred": 5552,
      "small": 5553,
      "Ġdestruction": 5554,
      "Ġpainful": 5555,
      "Ġsuffered": 5556,
      "Ġcorrespondence": 5557,
      "rilliant": 5558,
      "Ġanxiety": 5559,
      "Ġintellect": 5560,
      "ĠScotch": 5561,
      "Ġutmost": 5562,
      "Ġlegal": 5563,
      "Ġadventures": 5564,
      "Ġattacked": 5565,
      "chance": 5566,
      "front": 5567,
      "passed": 5568,
      "asurer": 5569,
      "Ġstrike": 5570,
      "ĠCompany": 5571,
      "Ġscheme": 5572,
      "Ġdisappeared": 5573,
      "Ġdisappearance": 5574,
      "Ġcolumns": 5575,
      "closed": 5576,
      "darkness": 5577,
      "ronic": 5578,
      "Ġhesitated": 5579,
      "Ġlifted": 5580,
      "Ġreconstruct": 5581,
      "interesting": 5582,
      "Ġbranded": 5583,
      "Ġhappenings": 5584,
      "ĠAnyhow": 5585,
      "better": 5586,
      "between": 5587,
      "detect": 5588,
      "Ġmuttered": 5589,
      "Ġinfernal": 5590,
      "Ġinclined": 5591,
      "Ġgroaned": 5592,
      "strange": 5593,
      "Ġrenew": 5594,
      "Ġannals": 5595,
      "Ġdollar": 5596,
      "Ġdollars": 5597,
      "Ġtroubled": 5598,
      "Ġartist": 5599,
      "ĠProfessor": 5600,
      "Ġcrowd": 5601,
      "Ġcrowded": 5602,
      "investigation": 5603,
      "Ġwaist": 5604,
      "Ġpanting": 5605,
      "olitan": 5606,
      "Ġinstructive": 5607,
      "Ġdrifting": 5608,
      "husband": 5609,
      "Ġmountains": 5610,
      "Ġequally": 5611,
      "Ġdepends": 5612,
      "ĠNorthumberland": 5613,
      "uddy": 5614,
      "conceivable": 5615,
      "Ġbarrels": 5616,
      "English": 5617,
      "ocity": 5618,
      "Ġfiery": 5619,
      "Ġbrutal": 5620,
      "Ġargue": 5621,
      "Ġdisappoint": 5622,
      "suffering": 5623,
      "direction": 5624,
      "large": 5625,
      "Ġavoid": 5626,
      "Ġgreeted": 5627,
      "Ġassured": 5628,
      "ĠMurillo": 5629,
      "Ġgossip": 5630,
      "Ġproperty": 5631,
      "Ġproduced": 5632,
      "Ġobtained": 5633,
      "Ġremoved": 5634,
      "Ġpeeped": 5635,
      "Ġstruggle": 5636,
      "Ġburglar": 5637,
      "Ġdevelopment": 5638,
      "Partington": 5639,
      "susp": 5640,
      "Ġtunnel": 5641,
      "Ġmoustache": 5642,
      "ĠHobson": 5643,
      "Ġmantelpiece": 5644,
      "quarters": 5645,
      "ĠGardens": 5646,
      "Ġscandal": 5647,
      "Ġobliged": 5648,
      "ividual": 5649,
      "aulfield": 5650,
      "Ġtitle": 5651,
      "Ġtipto": 5652,
      "Ġluggage": 5653,
      "Ġsteward": 5654,
      "Ġexpanse": 5655,
      "Ġconsidered": 5656,
      "ĠDobney": 5657,
      "Ġpoisonous": 5658,
      "Ġsubdued": 5659,
      "!--": 5660,
      "'--": 5661,
      "..": 5662,
      "AS": 5663,
      "Baynes": 5664,
      "ED": 5665,
      "Has": 5666,
      "Having": 5667,
      "Jack": 5668,
      "John": 5669,
      "Mar": 5670,
      "Mortimer": 5671,
      "OL": 5672,
      "ON": 5673,
      "Or": 5674,
      "Pierrot": 5675,
      "Selden": 5676,
      "Shall": 5677,
      "Take": 5678,
      "Un": 5679,
      "aure": 5680,
      "bes": 5681,
      "bicycle": 5682,
      "cest": 5683,
      "cap": 5684,
      "cond": 5685,
      "care": 5686,
      "creature": 5687,
      "chard": 5688,
      "dep": 5689,
      "dress": 5690,
      "descri": 5691,
      "fle": 5692,
      "fam": 5693,
      "few": 5694,
      "favour": 5695,
      "first": 5696,
      "got": 5697,
      "gri": 5698,
      "gree": 5699,
      "gical": 5700,
      "home": 5701,
      "hist": 5702,
      "hiding": 5703,
      "ien": 5704,
      "iod": 5705,
      "ium": 5706,
      "ker": 5707,
      "kish": 5708,
      "lim": 5709,
      "met": 5710,
      "mond": 5711,
      "moment": 5712,
      "male": 5713,
      "nal": 5714,
      "name": 5715,
      "new": 5716,
      "oing": 5717,
      "pen": 5718,
      "put": 5719,
      "pher": 5720,
      "pell": 5721,
      "pound": 5722,
      "pair": 5723,
      "rit": 5724,
      "rated": 5725,
      "swe": 5726,
      "save": 5727,
      "sign": 5728,
      "sitting": 5729,
      "tive": 5730,
      "taking": 5731,
      "trail": 5732,
      "uze": 5733,
      "wonder": 5734,
      "xton": 5735,
      "yer": 5736,
      "years": 5737,
      "zing": 5738,
      "Ġ6": 5739,
      "Ġ_": 5740,
      "Ġid": 5741,
      "Ġespecially": 5742,
      "Ġtone": 5743,
      "Ġtapped": 5744,
      "Ġtangle": 5745,
      "Ġtongue": 5746,
      "Ġaut": 5747,
      "Ġavail": 5748,
      "Ġwid": 5749,
      "Ġward": 5750,
      "Ġwits": 5751,
      "Ġwired": 5752,
      "Ġshat": 5753,
      "Ġsom": 5754,
      "Ġsigh": 5755,
      "Ġscience": 5756,
      "Ġsource": 5757,
      "resh": 5758,
      "reached": 5759,
      "reuze": 5760,
      "having": 5761,
      "erable": 5762,
      "Ġmor": 5763,
      "Ġmoth": 5764,
      "Ġmuffled": 5765,
      "Ġbas": 5766,
      "Ġbot": 5767,
      "Ġbent": 5768,
      "Ġbill": 5769,
      "Ġblo": 5770,
      "Ġbuck": 5771,
      "itself": 5772,
      "itary": 5773,
      "itated": 5774,
      "onic": 5775,
      "ednes": 5776,
      "Ġcy": 5777,
      "Ġcal": 5778,
      "Ġcott": 5779,
      "Ġcarri": 5780,
      "Ġcredit": 5781,
      "Ġfac": 5782,
      "Ġfaint": 5783,
      "Ġfaded": 5784,
      "Ġfetch": 5785,
      "Ġfantastic": 5786,
      "asm": 5787,
      "asked": 5788,
      "Ġhors": 5789,
      "Ġtool": 5790,
      "orse": 5791,
      "orce": 5792,
      "orous": 5793,
      "orough": 5794,
      "ingu": 5795,
      "Ġded": 5796,
      "Ġdam": 5797,
      "Ġdates": 5798,
      "Ġdaughter": 5799,
      "arg": 5800,
      "arms": 5801,
      "Ġinev": 5802,
      "Ġinexpl": 5803,
      "Ġinjustice": 5804,
      "Ġlest": 5805,
      "Ġlum": 5806,
      "Ġlens": 5807,
      "Ġlaure": 5808,
      "Ġpill": 5809,
      "Ġpink": 5810,
      "Ġpolit": 5811,
      "Ġpieces": 5812,
      "Ġyell": 5813,
      "owling": 5814,
      "icable": 5815,
      "Ġbeating": 5816,
      "lead": 5817,
      "leave": 5818,
      "left": 5819,
      "otte": 5820,
      "Ġgained": 5821,
      "ids": 5822,
      "state": 5823,
      "sters": 5824,
      "stab": 5825,
      "street": 5826,
      "stition": 5827,
      "stretch": 5828,
      "Ġease": 5829,
      "sect": 5830,
      "Ġthus": 5831,
      "acqu": 5832,
      "across": 5833,
      "etown": 5834,
      "ette": 5835,
      "etween": 5836,
      "etrop": 5837,
      "ĠHound": 5838,
      "ĠHalf": 5839,
      "urious": 5840,
      "urried": 5841,
      "urkish": 5842,
      "aler": 5843,
      "aling": 5844,
      "also": 5845,
      "already": 5846,
      "alotte": 5847,
      "Ġasse": 5848,
      "Ġasleep": 5849,
      "Ġwithd": 5850,
      "ada": 5851,
      "ĠMY": 5852,
      "ĠMont": 5853,
      "ĠMuseum": 5854,
      "Ġstar": 5855,
      "Ġstuff": 5856,
      "cel": 5857,
      "ribut": 5858,
      "rixton": 5859,
      "Ġantic": 5860,
      "olate": 5861,
      "olence": 5862,
      "illings": 5863,
      "ĠWednes": 5864,
      "ĠSuppose": 5865,
      "ouring": 5866,
      "Ġupward": 5867,
      "aming": 5868,
      "ifference": 5869,
      "ĠBar": 5870,
      "ĠBesides": 5871,
      "ĠBrixton": 5872,
      "kered": 5873,
      "ĠTheir": 5874,
      "ctions": 5875,
      "gered": 5876,
      "andele": 5877,
      "Ġmanage": 5878,
      "Ġmanaged": 5879,
      "Ġmanservant": 5880,
      "Ġrus": 5881,
      "Ġrate": 5882,
      "Ġrue": 5883,
      "Ġraw": 5884,
      "Ġdogged": 5885,
      "ils": 5886,
      "Ġdemon": 5887,
      "Ġdeceived": 5888,
      "ĠAm": 5889,
      "ĠAfr": 5890,
      "ĠAgain": 5891,
      "--âĢľ": 5892,
      "Ġnoble": 5893,
      "Ġnoise": 5894,
      "Ġexh": 5895,
      "Ġexer": 5896,
      "Ġexposed": 5897,
      "Ġarea": 5898,
      "antic": 5899,
      "antly": 5900,
      "Ġconstant": 5901,
      "Ġconstable": 5902,
      "Ġknife": 5903,
      "uscri": 5904,
      "loo": 5905,
      "lost": 5906,
      "loved": 5907,
      "Ġseek": 5908,
      "Ġseeking": 5909,
      "Ġusing": 5910,
      "Ġushered": 5911,
      "ĠCl": 5912,
      "ĠChester": 5913,
      "Ġorchard": 5914,
      "astalotte": 5915,
      "Ġvast": 5916,
      "Ġvig": 5917,
      "Ġvarious": 5918,
      "Ġvenge": 5919,
      "ateur": 5920,
      "ĠTH": 5921,
      "ĠTelegr": 5922,
      "Ġalib": 5923,
      "Ġalarmed": 5924,
      "agues": 5925,
      "Ġtrait": 5926,
      "Ġtrans": 5927,
      "hings": 5928,
      "Ġloft": 5929,
      "Ġlocked": 5930,
      "Ġloyal": 5931,
      "ĠLafter": 5932,
      "Ġcompo": 5933,
      "Ġcomposed": 5934,
      "Ġanywhere": 5935,
      "venge": 5936,
      "Ġune": 5937,
      "Ġunt": 5938,
      "Ġunique": 5939,
      "Ġabode": 5940,
      "Ġfee": 5941,
      "Ġamuse": 5942,
      "Ġamazed": 5943,
      "Ġamazing": 5944,
      "Ġamateur": 5945,
      "Ġjagged": 5946,
      "Ġrolled": 5947,
      "Ġbrave": 5948,
      "Ġbrick": 5949,
      "Ġbrute": 5950,
      "Ġquee": 5951,
      "Ġquivering": 5952,
      "umble": 5953,
      "uments": 5954,
      "arett": 5955,
      "Ġplot": 5956,
      "Ġpluck": 5957,
      "Ġplenty": 5958,
      "Ġplunged": 5959,
      "eping": 5960,
      "iel": 5961,
      "actually": 5962,
      "Ġdownstairs": 5963,
      "rance": 5964,
      "range": 5965,
      "Ġovertake": 5966,
      "being": 5967,
      "bearded": 5968,
      "Ġprof": 5969,
      "Ġprosa": 5970,
      "adelph": 5971,
      "ĠGl": 5972,
      "ĠGo": 5973,
      "ĠGreat": 5974,
      "ĠGerman": 5975,
      "ĠGreuze": 5976,
      "Ġprepar": 5977,
      "Ġprecious": 5978,
      "reath": 5979,
      "Ġspl": 5980,
      "Ġspy": 5981,
      "Ġspark": 5982,
      "Ġspite": 5983,
      "Ġsprung": 5984,
      "ertific": 5985,
      "ĠNotting": 5986,
      "elt": 5987,
      "else": 5988,
      "Ġoffend": 5989,
      "Ġoffense": 5990,
      "Ġadopt": 5991,
      "ĠFar": 5992,
      "ĠFairbairn": 5993,
      "Ġdaylight": 5994,
      "Ġcover": 5995,
      "Ġcook": 5996,
      "Ġblame": 5997,
      "many": 5998,
      "Ġshared": 5999,
      "plex": 6000,
      "ĠPlease": 6001,
      "Ġglaring": 6002,
      "earnest": 6003,
      "Ġimper": 6004,
      "Ġimpressed": 6005,
      "Ġgrin": 6006,
      "Ġgrad": 6007,
      "Ġgrand": 6008,
      "Ġperiod": 6009,
      "Ġobtain": 6010,
      "ullo": 6011,
      "berate": 6012,
      "Ġthrowing": 6013,
      "Ġdislike": 6014,
      "ĠJules": 6015,
      "pointed": 6016,
      "popular": 6017,
      "getic": 6018,
      "necessary": 6019,
      "def": 6020,
      "dead": 6021,
      "death": 6022,
      "covered": 6023,
      "Ġprim": 6024,
      "Ġpray": 6025,
      "Ġparty": 6026,
      "Ġparting": 6027,
      "Ġpartly": 6028,
      "aited": 6029,
      "features": 6030,
      "lips": 6031,
      "Ġdarkened": 6032,
      "Ġearn": 6033,
      "Ġearned": 6034,
      "izon": 6035,
      "panion": 6036,
      "Ġrights": 6037,
      "Ġpeered": 6038,
      "Ġguest": 6039,
      "Ġretreat": 6040,
      "Ġhardened": 6041,
      "print": 6042,
      "Ġpresents": 6043,
      "Ġchim": 6044,
      "Ġchill": 6045,
      "Ġchos": 6046,
      "Ġacute": 6047,
      "Ġworkman": 6048,
      "Ġflut": 6049,
      "Ġflame": 6050,
      "Ġsurface": 6051,
      "Ġintr": 6052,
      "avage": 6053,
      "Ġspeed": 6054,
      "Ġspeculation": 6055,
      "Ġfactor": 6056,
      "Ġapolog": 6057,
      "class": 6058,
      "Ġchances": 6059,
      "Ġchap": 6060,
      "Ġchamber": 6061,
      "Ġdistingu": 6062,
      "Ġmoments": 6063,
      "Ġfearless": 6064,
      "brought": 6065,
      "brother": 6066,
      "hope": 6067,
      "Ġcontracted": 6068,
      "compl": 6069,
      "companion": 6070,
      "ĠRed": 6071,
      "Ġresident": 6072,
      "Ġresumed": 6073,
      "Ġcompanies": 6074,
      "ĠVandele": 6075,
      "Ġmines": 6076,
      "Ġaccused": 6077,
      "Ġshop": 6078,
      "Ġvoices": 6079,
      "Ġsupposed": 6080,
      "Ġdriver": 6081,
      "Mycroft": 6082,
      "suppose": 6083,
      "atching": 6084,
      "Ġfrown": 6085,
      "Ġframe": 6086,
      "Ġframed": 6087,
      "Ġattent": 6088,
      "Ġtemp": 6089,
      "Ġtechnical": 6090,
      "Ġfamiliar": 6091,
      "Ġindividual": 6092,
      "ontin": 6093,
      "Ġsurprising": 6094,
      "ĠBarrymores": 6095,
      "Ġexamining": 6096,
      "Ġbread": 6097,
      "Ġbrethren": 6098,
      "Ġexpense": 6099,
      "Ġswung": 6100,
      "Ġdeepest": 6101,
      "However": 6102,
      "servants": 6103,
      "Ġdevice": 6104,
      "Ġvisiting": 6105,
      "Ġincredible": 6106,
      "ĠHalloa": 6107,
      "Ġelsewhere": 6108,
      "Ġguessed": 6109,
      "Ġideas": 6110,
      "Ġawaiting": 6111,
      "Ġcareful": 6112,
      "Ġwalks": 6113,
      "ĠWestbury": 6114,
      "Ġsweet": 6115,
      "Ġdirected": 6116,
      "prep": 6117,
      "Ġtenant": 6118,
      "Ġdrag": 6119,
      "Ġdragged": 6120,
      "Ġdrunken": 6121,
      "Ġlarger": 6122,
      "Ġsteady": 6123,
      "Ġsteel": 6124,
      "Ġstealthy": 6125,
      "Ġstronger": 6126,
      "Ġinquire": 6127,
      "Ġeasier": 6128,
      "Ġrefuge": 6129,
      "Ġsubtle": 6130,
      "box": 6131,
      "Ġmonth": 6132,
      "Ġrecent": 6133,
      "Ġuseful": 6134,
      "Ġdealing": 6135,
      "Ġshadowed": 6136,
      "mptom": 6137,
      "someone": 6138,
      "Ġirr": 6139,
      "train": 6140,
      "track": 6141,
      "truth": 6142,
      "Ġlawyer": 6143,
      "Ġprompt": 6144,
      "Ġadmitted": 6145,
      "prove": 6146,
      "Ġcapital": 6147,
      "Ġhopeless": 6148,
      "minutes": 6149,
      "Ġhorizon": 6150,
      "Ġlisten": 6151,
      "Ġconsiderably": 6152,
      "raction": 6153,
      "Ġslept": 6154,
      "Street": 6155,
      "particular": 6156,
      "Ġbuzz": 6157,
      "Ġlowered": 6158,
      "Ġgenerosity": 6159,
      "Ġpleased": 6160,
      "markable": 6161,
      "Ġgrizzled": 6162,
      "ĠWithin": 6163,
      "Ġmistress": 6164,
      "Ġleads": 6165,
      "Ġsuspicious": 6166,
      "Ġrealized": 6167,
      "Ġmovements": 6168,
      "Ġtrial": 6169,
      "incident": 6170,
      "incetown": 6171,
      "Ġbesides": 6172,
      "Ġcirc": 6173,
      "Ġapproaching": 6174,
      "Ġduties": 6175,
      "ĠMarch": 6176,
      "aimed": 6177,
      "Ġcollection": 6178,
      "Ġcontinually": 6179,
      "Ġoccasional": 6180,
      "Ġinvestigating": 6181,
      "guard": 6182,
      "strous": 6183,
      "Ġsummer": 6184,
      "Ġsummit": 6185,
      "Ġengage": 6186,
      "erkins": 6187,
      "Ġsymptom": 6188,
      "Ġlimbs": 6189,
      "Ġpictures": 6190,
      "cepted": 6191,
      "Ġdefiant": 6192,
      "Ġincidents": 6193,
      "nowledge": 6194,
      "Ġbrightly": 6195,
      "Ġsettle": 6196,
      "Ġsquee": 6197,
      "Ġbottle": 6198,
      "Ġfortnight": 6199,
      "Ġsuperstition": 6200,
      "Ġroughly": 6201,
      "ĠNothing": 6202,
      "Ġgasp": 6203,
      "Ġgasped": 6204,
      "Ġsatisfied": 6205,
      "mbled": 6206,
      "ĠKn": 6207,
      "Ġmischief": 6208,
      "Ġinsist": 6209,
      "Ġshrubbery": 6210,
      "Ġfoolscap": 6211,
      "Ġswift": 6212,
      "Ġviolent": 6213,
      "Ġceremon": 6214,
      "Ġfault": 6215,
      "Ġfrighten": 6216,
      "Ġangle": 6217,
      "Ġmerely": 6218,
      "Ġplanned": 6219,
      "Ġkeenly": 6220,
      "Ġdeparted": 6221,
      "Ġtraveller": 6222,
      "Ġcompliment": 6223,
      "Ġearnestness": 6224,
      "occup": 6225,
      "occasion": 6226,
      "writing": 6227,
      "ĠWilcox": 6228,
      "Ġproceeded": 6229,
      "Ġenemies": 6230,
      "ĠWillaby": 6231,
      "ĠCanada": 6232,
      "Ġgoverness": 6233,
      "knowledge": 6234,
      "break": 6235,
      "curious": 6236,
      "course": 6237,
      "uctions": 6238,
      "Ġwooden": 6239,
      "Ġslope": 6240,
      "Ġbeaten": 6241,
      "Ġutter": 6242,
      "Someone": 6243,
      "surprise": 6244,
      "Ġtreated": 6245,
      "Ġstrikes": 6246,
      "ĠWalters": 6247,
      "Ġrisen": 6248,
      "Ġdeeds": 6249,
      "Ġintroduced": 6250,
      "Ġ187": 6251,
      "Ġ188": 6252,
      "Ġhesitation": 6253,
      "Ġurgent": 6254,
      "Ġbrandy": 6255,
      "Ġsleeves": 6256,
      "safe": 6257,
      "Ġhighest": 6258,
      "Ġpunishment": 6259,
      "Ġdeserted": 6260,
      "example": 6261,
      "Ġchuckled": 6262,
      "Ġdistinctive": 6263,
      "Ġestablish": 6264,
      "Ġimpatiently": 6265,
      "Halloa": 6266,
      "Really": 6267,
      "Remarkable": 6268,
      "broken": 6269,
      "Ġwander": 6270,
      "Ġsenses": 6271,
      "remarked": 6272,
      "remarkable": 6273,
      "Ġbusy": 6274,
      "Ġpantry": 6275,
      "Ġneglected": 6276,
      "Ġinstructions": 6277,
      "Ġdescended": 6278,
      "Ġpresuming": 6279,
      "nerves": 6280,
      "Ġaudacity": 6281,
      "Ġspectacles": 6282,
      "Ġtossed": 6283,
      "Ġgenius": 6284,
      "considerable": 6285,
      "Ġoccupied": 6286,
      "Anything": 6287,
      "fashioned": 6288,
      "Ġfastened": 6289,
      "Ġreckon": 6290,
      "Ġsoothing": 6291,
      "Ġconsequence": 6292,
      "Ġvolume": 6293,
      "Ġquarrel": 6294,
      "importance": 6295,
      "Ġglimmered": 6296,
      "American": 6297,
      "diction": 6298,
      "Ġsenior": 6299,
      "Ġmillions": 6300,
      "Ġmortal": 6301,
      "Ġboulders": 6302,
      "Ġcitizen": 6303,
      "Ġferocity": 6304,
      "Ġhunting": 6305,
      "Ġgrudge": 6306,
      "Ġresponsibility": 6307,
      "Ġexpedition": 6308,
      "Ġexhaustion": 6309,
      "Ġcopies": 6310,
      "Ġcrisis": 6311,
      "connection": 6312,
      "Ġpossibility": 6313,
      "Ġeducated": 6314,
      "marine": 6315,
      "Ġodds": 6316,
      "Ġdivorce": 6317,
      "Ġlantern": 6318,
      "Ġthreads": 6319,
      "Ġsailors": 6320,
      "ĠWaterloo": 6321,
      "Ġdocument": 6322,
      "Ġconvenient": 6323,
      "Ġalternative": 6324,
      "Ġscribbled": 6325,
      "excitement": 6326,
      "practical": 6327,
      "Ġcurtains": 6328,
      "Ġaccompl": 6329,
      "ĠUnderground": 6330,
      "Ġgrief": 6331,
      "Ġslippers": 6332,
      "ĠAdmiral": 6333,
      "Ġjealousy": 6334,
      "Ġerrand": 6335,
      "satisf": 6336,
      "Ġromance": 6337,
      "Ġcultiv": 6338,
      "Ġfainted": 6339,
      "Ġdusk": 6340,
      "Ġphysical": 6341,
      "ĠBlack": 6342,
      "ĠLawler": 6343,
      "Ġbranches": 6344,
      "Ġfolded": 6345,
      "Ġclumsy": 6346,
      "ĠAndrews": 6347,
      "Ġsurmise": 6348,
      "Ġintrude": 6349,
      "Ġrecollection": 6350,
      "Ġtriumph": 6351,
      "Ġrigid": 6352,
      "histor": 6353,
      "Ġhorses": 6354,
      "Ġinevitable": 6355,
      "Ġinexplicable": 6356,
      "etropolitan": 6357,
      "Ġanticip": 6358,
      "ĠWednesday": 6359,
      "ĠAfric": 6360,
      "uscript": 6361,
      "Ġvengeance": 6362,
      "ĠTelegraph": 6363,
      "Ġalibi": 6364,
      "arettes": 6365,
      "Ġprosaic": 6366,
      "adelphia": 6367,
      "ertificate": 6368,
      "Ġchosen": 6369,
      "ĠVandeleur": 6370,
      "Ġceremony": 6371,
      "30": 6372,
      "?âĢĻ": 6373,
      "AL": 6374,
      "Ad": 6375,
      "After": 6376,
      "Besides": 6377,
      "Ch": 6378,
      "Dark": 6379,
      "EN": 6380,
      "Even": 6381,
      "Edwards": 6382,
      "Eminent": 6383,
      "EAR": 6384,
      "Finally": 6385,
      "Gar": 6386,
      "Her": 6387,
      "House": 6388,
      "Hum": 6389,
      "High": 6390,
      "Hush": 6391,
      "Hardly": 6392,
      "Ly": 6393,
      "Lady": 6394,
      "Lodge": 6395,
      "Morris": 6396,
      "Meanwhile": 6397,
      "Ne": 6398,
      "OR": 6399,
      "Out": 6400,
      "Peters": 6401,
      "Please": 6402,
      "Possibly": 6403,
      "Que": 6404,
      "Say": 6405,
      "Such": 6406,
      "Something": 6407,
      "Several": 6408,
      "TA": 6409,
      "Two": 6410,
      "Would": 6411,
      "Wait": 6412,
      "aj": 6413,
      "aunt": 6414,
      "bur": 6415,
      "bag": 6416,
      "bott": 6417,
      "bby": 6418,
      "bush": 6419,
      "cher": 6420,
      "cation": 6421,
      "cross": 6422,
      "carried": 6423,
      "carriage": 6424,
      "cunning": 6425,
      "dr": 6426,
      "doubt": 6427,
      "fly": 6428,
      "four": 6429,
      "fear": 6430,
      "firm": 6431,
      "gar": 6432,
      "gle": 6433,
      "game": 6434,
      "gies": 6435,
      "hr": 6436,
      "hundred": 6437,
      "hours": 6438,
      "houses": 6439,
      "iest": 6440,
      "iance": 6441,
      "ived": 6442,
      "jawed": 6443,
      "ks": 6444,
      "kind": 6445,
      "kward": 6446,
      "la": 6447,
      "lour": 6448,
      "late": 6449,
      "lass": 6450,
      "line": 6451,
      "lity": 6452,
      "mine": 6453,
      "mire": 6454,
      "maid": 6455,
      "mons": 6456,
      "mbly": 6457,
      "merton": 6458,
      "ny": 6459,
      "near": 6460,
      "naway": 6461,
      "nsom": 6462,
      "oed": 6463,
      "oard": 6464,
      "ober": 6465,
      "oping": 6466,
      "pu": 6467,
      "pur": 6468,
      "path": 6469,
      "pens": 6470,
      "rat": 6471,
      "running": 6472,
      "sk": 6473,
      "sw": 6474,
      "sal": 6475,
      "sight": 6476,
      "sof": 6477,
      "sue": 6478,
      "sister": 6479,
      "six": 6480,
      "science": 6481,
      "sudden": 6482,
      "tim": 6483,
      "tal": 6484,
      "table": 6485,
      "tney": 6486,
      "trave": 6487,
      "true": 6488,
      "uine": 6489,
      "ucc": 6490,
      "uzzle": 6491,
      "vi": 6492,
      "vas": 6493,
      "vant": 6494,
      "vous": 6495,
      "vity": 6496,
      "vial": 6497,
      "won": 6498,
      "wed": 6499,
      "wing": 6500,
      "went": 6501,
      "want": 6502,
      "wice": 6503,
      "xation": 6504,
      "yes": 6505,
      "yle": 6506,
      "yet": 6507,
      "yage": 6508,
      "Ġ&": 6509,
      "Ġ[": 6510,
      "Ġz": 6511,
      "Ġice": 6512,
      "Ġought": 6513,
      "Ġtar": 6514,
      "Ġtight": 6515,
      "Ġtel": 6516,
      "Ġtinge": 6517,
      "Ġtrivial": 6518,
      "hem": 6519,
      "hetic": 6520,
      "Ġalo": 6521,
      "Ġack": 6522,
      "inous": 6523,
      "inarily": 6524,
      "Ġwine": 6525,
      "Ġwider": 6526,
      "Ġwinter": 6527,
      "Ġwicket": 6528,
      "Ġtheat": 6529,
      "Ġsink": 6530,
      "Ġsons": 6531,
      "Ġsinking": 6532,
      "ouces": 6533,
      "rey": 6534,
      "rell": 6535,
      "rele": 6536,
      "respons": 6537,
      "Ġoil": 6538,
      "eral": 6539,
      "nds": 6540,
      "ndid": 6541,
      "Ġmul": 6542,
      "Ġmale": 6543,
      "Ġmottled": 6544,
      "Ġmuzzle": 6545,
      "ishing": 6546,
      "isible": 6547,
      "Ġba": 6548,
      "Ġbow": 6549,
      "Ġbache": 6550,
      "Ġborder": 6551,
      "onent": 6552,
      "Ġcure": 6553,
      "Ġcity": 6554,
      "Ġcaus": 6555,
      "Ġcrawling": 6556,
      "Ġfill": 6557,
      "Ġfide": 6558,
      "eng": 6559,
      "asc": 6560,
      "ashing": 6561,
      "Ġhol": 6562,
      "Ġhired": 6563,
      "Ġhomes": 6564,
      "eside": 6565,
      "estern": 6566,
      "escope": 6567,
      "esmond": 6568,
      "Ġtowers": 6569,
      "orary": 6570,
      "organ": 6571,
      "Ġdine": 6572,
      "Ġdab": 6573,
      "Ġdign": 6574,
      "Ġdict": 6575,
      "Ġdang": 6576,
      "Ġdamp": 6577,
      "Ġdrank": 6578,
      "Ġdwell": 6579,
      "Ġdazed": 6580,
      "Ġdarted": 6581,
      "ĠIron": 6582,
      "Ġhaz": 6583,
      "Ġhast": 6584,
      "Ġhated": 6585,
      "Ġhailed": 6586,
      "Ġhansom": 6587,
      "anation": 6588,
      "anity": 6589,
      "arn": 6590,
      "arse": 6591,
      "aration": 6592,
      "arra": 6593,
      "arition": 6594,
      "Ġinspect": 6595,
      "Ġinconceivable": 6596,
      "Ġhero": 6597,
      "Ġlamps": 6598,
      "Ġpit": 6599,
      "Ġpol": 6600,
      "Ġpra": 6601,
      "Ġpier": 6602,
      "Ġpages": 6603,
      "Ġpawn": 6604,
      "Ġpane": 6605,
      "Ġnin": 6606,
      "Ġnug": 6607,
      "Ġnails": 6608,
      "omorrow": 6609,
      "aten": 6610,
      "atto": 6611,
      "athed": 6612,
      "ators": 6613,
      "atives": 6614,
      "âĢĿ--": 6615,
      "Ġyouth": 6616,
      "vember": 6617,
      "icent": 6618,
      "ically": 6619,
      "icial": 6620,
      "ications": 6621,
      "icism": 6622,
      "Ġbew": 6623,
      "Ġbending": 6624,
      "lec": 6625,
      "lebr": 6626,
      "leased": 6627,
      "otic": 6628,
      "otched": 6629,
      "otland": 6630,
      "Ġgent": 6631,
      "Ġglo": 6632,
      "Ġgig": 6633,
      "Ġgates": 6634,
      "Ġgaze": 6635,
      "idow": 6636,
      "idney": 6637,
      "idences": 6638,
      "Ġumb": 6639,
      "stood": 6640,
      "stud": 6641,
      "stair": 6642,
      "story": 6643,
      "staring": 6644,
      "stretched": 6645,
      "Ġeat": 6646,
      "Ġeast": 6647,
      "Ġetern": 6648,
      "seven": 6649,
      "seated": 6650,
      "several": 6651,
      "Ġthir": 6652,
      "uted": 6653,
      "utch": 6654,
      "utted": 6655,
      "acle": 6656,
      "acid": 6657,
      "aches": 6658,
      "Ġwhistle": 6659,
      "ays": 6660,
      "Ġwet": 6661,
      "Ġweather": 6662,
      "Ġweird": 6663,
      "ĠHA": 6664,
      "ĠHas": 6665,
      "ĠHoly": 6666,
      "iron": 6667,
      "irmed": 6668,
      "ircle": 6669,
      "ĠĠĠ": 6670,
      "urance": 6671,
      "urrey": 6672,
      "alone": 6673,
      "alities": 6674,
      "alrous": 6675,
      "Ġreign": 6676,
      "Ġrejo": 6677,
      "Ġrevenge": 6678,
      "Ġreleased": 6679,
      "Ġasce": 6680,
      "Ġforces": 6681,
      "Ġforbid": 6682,
      "ĠMid": 6683,
      "ĠMad": 6684,
      "ĠMerton": 6685,
      "ĠMeanwhile": 6686,
      "roar": 6687,
      "rolled": 6688,
      "rocious": 6689,
      "royed": 6690,
      "Ġstag": 6691,
      "Ġstake": 6692,
      "Ġstained": 6693,
      "Ġstuck": 6694,
      "Ġstretch": 6695,
      "Ġstimul": 6696,
      "rier": 6697,
      "rific": 6698,
      "Ġancest": 6699,
      "olith": 6700,
      "olical": 6701,
      "Ġnoted": 6702,
      "Ġath": 6703,
      "ĠWood": 6704,
      "ĠWait": 6705,
      "ĠSe": 6706,
      "ĠSuch": 6707,
      "ĠSometimes": 6708,
      "ĠSeveral": 6709,
      "ĠSavage": 6710,
      "ĠSidney": 6711,
      "ourt": 6712,
      "Ġsequ": 6713,
      "Ġseize": 6714,
      "Ġselect": 6715,
      "Ġsealed": 6716,
      "amond": 6717,
      "ambit": 6718,
      "ifts": 6719,
      "ĠBruce": 6720,
      "ĠBetween": 6721,
      "kempt": 6722,
      "oding": 6723,
      "ctober": 6724,
      "Ġshrew": 6725,
      "Ġshirt": 6726,
      "Ġshivering": 6727,
      "Ġshillings": 6728,
      "Ġmanners": 6729,
      "Ġmanuscript": 6730,
      "Ġrou": 6731,
      "Ġrit": 6732,
      "Ġrout": 6733,
      "Ġrings": 6734,
      "Ġruddy": 6735,
      "ellery": 6736,
      "allow": 6737,
      "ilar": 6738,
      "ilmerton": 6739,
      "Ġsob": 6740,
      "Ġdeceive": 6741,
      "Ġdeaf": 6742,
      "thest": 6743,
      "ĠAcc": 6744,
      "ĠAber": 6745,
      "ĠAldgate": 6746,
      "chie": 6747,
      "child": 6748,
      "aples": 6749,
      "apital": 6750,
      "Ġnobody": 6751,
      "ulation": 6752,
      "thin": 6753,
      "thur": 6754,
      "thousand": 6755,
      "thrust": 6756,
      "Ġexact": 6757,
      "Ġexert": 6758,
      "quite": 6759,
      "quiet": 6760,
      "took": 6761,
      "Ġconver": 6762,
      "Ġconject": 6763,
      "Ġconstruct": 6764,
      "Ġbyg": 6765,
      "Ġoutsider": 6766,
      "Ġoutlying": 6767,
      "Ġknee": 6768,
      "using": 6769,
      "usive": 6770,
      "losed": 6771,
      "Ġusually": 6772,
      "ĠCaulfield": 6773,
      "ĠCastalotte": 6774,
      "ĠCircle": 6775,
      "ĠCourt": 6776,
      "Ġwilling": 6777,
      "oused": 6778,
      "ously": 6779,
      "Ġhers": 6780,
      "Ġlend": 6781,
      "Ġleis": 6782,
      "Ġlean": 6783,
      "Ġleather": 6784,
      "Ġlevel": 6785,
      "unction": 6786,
      "unexplained": 6787,
      "asted": 6788,
      "artic": 6789,
      "Ġventure": 6790,
      "orton": 6791,
      "ĠTurkish": 6792,
      "ĠThings": 6793,
      "agony": 6794,
      "aggy": 6795,
      "ures": 6796,
      "Ġtray": 6797,
      "Ġtrous": 6798,
      "Ġtrick": 6799,
      "Ġtrains": 6800,
      "pper": 6801,
      "ĠLong": 6802,
      "ĠLee": 6803,
      "ĠLope": 6804,
      "ĠLike": 6805,
      "ĠDark": 6806,
      "Ġshepher": 6807,
      "Ġposit": 6808,
      "istered": 6809,
      "istrate": 6810,
      "Ġunif": 6811,
      "Ġunite": 6812,
      "Ġunited": 6813,
      "Ġuncertain": 6814,
      "Ġunconv": 6815,
      "Ġabst": 6816,
      "Ġaboard": 6817,
      "Ġamiable": 6818,
      "inkle": 6819,
      "akened": 6820,
      "urden": 6821,
      "idea": 6822,
      "tee": 6823,
      "tempt": 6824,
      "Ġjew": 6825,
      "Ġrobbery": 6826,
      "Ġbrains": 6827,
      "Ġquaint": 6828,
      "Ġquality": 6829,
      "offic": 6830,
      "Ġagency": 6831,
      "Ġagitated": 6832,
      "Ġplaus": 6833,
      "Ġpledge": 6834,
      "Ġplacid": 6835,
      "Ġtwisting": 6836,
      "rawn": 6837,
      "raits": 6838,
      "Ġoverlooked": 6839,
      "beaut": 6840,
      "Ġprofit": 6841,
      "Ġprojected": 6842,
      "Ġprogress": 6843,
      "ĠGilmerton": 6844,
      "Ġprepo": 6845,
      "Ġprevious": 6846,
      "Ġprefer": 6847,
      "Ġprecaut": 6848,
      "Ġspread": 6849,
      "ables": 6850,
      "abolical": 6851,
      "Ġthinks": 6852,
      "mentary": 6853,
      "ĠNumber": 6854,
      "harm": 6855,
      "Ġfox": 6856,
      "Ġfogg": 6857,
      "ĠEx": 6858,
      "ĠEnd": 6859,
      "rud": 6860,
      "Ġadvertise": 6861,
      "Ġbackground": 6862,
      "Ġenable": 6863,
      "ĠFriend": 6864,
      "pline": 6865,
      "Ġaroused": 6866,
      "glass": 6867,
      "ĠOb": 6868,
      "ĠOld": 6869,
      "ĠOff": 6870,
      "ĠState": 6871,
      "Ġcock": 6872,
      "Ġcovering": 6873,
      "Ġcoincidence": 6874,
      "Ġbless": 6875,
      "Ġblowing": 6876,
      "Ġblunder": 6877,
      "Ġblazed": 6878,
      "cipline": 6879,
      "issance": 6880,
      "manac": 6881,
      "Ġshame": 6882,
      "Ġshaft": 6883,
      "Ġcler": 6884,
      "Ġclad": 6885,
      "Ġclub": 6886,
      "icken": 6887,
      "ĠPut": 6888,
      "ĠPres": 6889,
      "ĠPerkins": 6890,
      "Ġglow": 6891,
      "Ġglare": 6892,
      "Ġglowed": 6893,
      "Ġclearer": 6894,
      "reek": 6895,
      "Ġgrow": 6896,
      "Ġgrowing": 6897,
      "showed": 6898,
      "Ġperplex": 6899,
      "Ġbetr": 6900,
      "Ġobli": 6901,
      "Ġobsc": 6902,
      "ignific": 6903,
      "Ġdisp": 6904,
      "Ġdismiss": 6905,
      "Ġdisposition": 6906,
      "Ġdiscipline": 6907,
      "ĠJon": 6908,
      "spire": 6909,
      "Ġfinds": 6910,
      "poor": 6911,
      "possess": 6912,
      "poses": 6913,
      "Ġpasses": 6914,
      "Ġpassions": 6915,
      "Ġending": 6916,
      "forget": 6917,
      "neighb": 6918,
      "rench": 6919,
      "Ġprints": 6920,
      "conversation": 6921,
      "ggard": 6922,
      "fere": 6923,
      "Ġlightly": 6924,
      "Ġdesk": 6925,
      "Ġdesolate": 6926,
      "hypothesis": 6927,
      "Ġputs": 6928,
      "Ġguilt": 6929,
      "Ġhelpful": 6930,
      "Ġdoubts": 6931,
      "Ġchin": 6932,
      "Ġacush": 6933,
      "Ġmenacing": 6934,
      "Ġflour": 6935,
      "Ġflag": 6936,
      "Ġflick": 6937,
      "Ġflank": 6938,
      "Ġflush": 6939,
      "Ġsurveyed": 6940,
      "Ġcalls": 6941,
      "Ġbecoming": 6942,
      "eye": 6943,
      "eyed": 6944,
      "grotesque": 6945,
      "clothes": 6946,
      "cluded": 6947,
      "Ġsetting": 6948,
      "achment": 6949,
      "Ġblacker": 6950,
      "upboard": 6951,
      "Ġchase": 6952,
      "Ġchains": 6953,
      "Ġrepro": 6954,
      "Ġrepres": 6955,
      "Ġapparition": 6956,
      "Ġentrance": 6957,
      "Ġconsent": 6958,
      "Ġconsisted": 6959,
      "Ġreasoning": 6960,
      "Ġreasonable": 6961,
      "Ġcourage": 6962,
      "Ġremarkably": 6963,
      "brown": 6964,
      "Ġacting": 6965,
      "Ġactual": 6966,
      "Ġhearts": 6967,
      "Ġhearty": 6968,
      "comm": 6969,
      "comer": 6970,
      "comes": 6971,
      "committed": 6972,
      "moon": 6973,
      "Ġhearing": 6974,
      "Ġcommit": 6975,
      "Ġcommiss": 6976,
      "ĠRodger": 6977,
      "Ġresidence": 6978,
      "Ġresolute": 6979,
      "Ġreserved": 6980,
      "Ġwanting": 6981,
      "Ġdifference": 6982,
      "Ġminister": 6983,
      "Ġaccess": 6984,
      "Ġaccident": 6985,
      "Ġvoyage": 6986,
      "lieve": 6987,
      "Ġbarren": 6988,
      "Ġsuppos": 6989,
      "Ġsupplied": 6990,
      "Ġsignals": 6991,
      "ĠBrad": 6992,
      "ensington": 6993,
      "Ġfringe": 6994,
      "clean": 6995,
      "Ġinduce": 6996,
      "Ġindifference": 6997,
      "entional": 6998,
      "Ġslam": 6999,
      "Ġserve": 7000,
      "Ġexpressed": 7001,
      "echer": 7002,
      "Ġcabby": 7003,
      "escape": 7004,
      "Ġsecretly": 7005,
      "ĠAsk": 7006,
      "Ġfurtive": 7007,
      "Ġpurposes": 7008,
      "ivalrous": 7009,
      "Ġvisitors": 7010,
      "Ġincre": 7011,
      "Ġincrim": 7012,
      "Ġrange": 7013,
      "Ġpersons": 7014,
      "household": 7015,
      "Ġawful": 7016,
      "Ġawkward": 7017,
      "Ġhappens": 7018,
      "Ġinterruption": 7019,
      "ferent": 7020,
      "ferences": 7021,
      "scr": 7022,
      "scream": 7023,
      "Ġaffected": 7024,
      "Ġpresentation": 7025,
      "Ġsweep": 7026,
      "Ġmessages": 7027,
      "Ġraven": 7028,
      "Ġabsurd": 7029,
      "Ġhurled": 7030,
      "Ġspeaks": 7031,
      "Ġdram": 7032,
      "Ġstrongest": 7033,
      "whatever": 7034,
      "oultney": 7035,
      "Ġmissed": 7036,
      "Ġnorth": 7037,
      "Ġreflect": 7038,
      "Ġringing": 7039,
      "boot": 7040,
      "boots": 7041,
      "Ġmonstrous": 7042,
      "Ġrecently": 7043,
      "Ġconvulsed": 7044,
      "Ġfootprints": 7045,
      "Ġdetected": 7046,
      "eneral": 7047,
      "Ġconceive": 7048,
      "Ġconceivable": 7049,
      "Ġconceived": 7050,
      "Ġcoldly": 7051,
      "Ġstudent": 7052,
      "Ġcrying": 7053,
      "trace": 7054,
      "tragedy": 7055,
      "Ġfreed": 7056,
      "Once": 7057,
      "proof": 7058,
      "proved": 7059,
      "proceed": 7060,
      "Ġtreason": 7061,
      "Ġcentral": 7062,
      "Ġcenturies": 7063,
      "Ġdiscreet": 7064,
      "minine": 7065,
      "Ġskin": 7066,
      "Ġfourteen": 7067,
      "Ġhorribly": 7068,
      "Ġhillside": 7069,
      "Ġlistening": 7070,
      "Didn": 7071,
      "Ġsolved": 7072,
      "Ġsolitary": 7073,
      "Ġlovely": 7074,
      "Stand": 7075,
      "Ġlands": 7076,
      "ĠUp": 7077,
      "Ġsnorter": 7078,
      "Ġsniff": 7079,
      "Ġgrips": 7080,
      "Ġrule": 7081,
      "ortunately": 7082,
      "ĠDoes": 7083,
      "Ġposted": 7084,
      "Ġtelegraph": 7085,
      "Ġeffective": 7086,
      "Ġhotels": 7087,
      "Ġpatches": 7088,
      "Ġmovement": 7089,
      "Ġparticulars": 7090,
      "Ġtriangle": 7091,
      "Ġsisters": 7092,
      "ĠWarner": 7093,
      "Ġvalleys": 7094,
      "Ġobservations": 7095,
      "Ġconcealment": 7096,
      "venth": 7097,
      "venture": 7098,
      "Ġillness": 7099,
      "Ġcigars": 7100,
      "Ġthickly": 7101,
      "appeared": 7102,
      "Ġsouls": 7103,
      "Ġfires": 7104,
      "ĠThough": 7105,
      "Ġexplanations": 7106,
      "ĠEnglishman": 7107,
      "cerning": 7108,
      "ibart": 7109,
      "olly": 7110,
      "Ġformal": 7111,
      "Ġcontinue": 7112,
      "Ġmotives": 7113,
      "Ġrelation": 7114,
      "Ġsummon": 7115,
      "raordinarily": 7116,
      "Ġveins": 7117,
      "Ġrifles": 7118,
      "Ġlitter": 7119,
      "Ġelect": 7120,
      "Ġelementary": 7121,
      "Ġgrounds": 7122,
      "sheet": 7123,
      "Ġlimits": 7124,
      "Ġpaying": 7125,
      "Ġdefine": 7126,
      "Ġdefend": 7127,
      "Ġclouded": 7128,
      "points": 7129,
      "ĠScowrer": 7130,
      "disc": 7131,
      "Ġbrightened": 7132,
      "affair": 7133,
      "Ġbottles": 7134,
      "Ġcrossed": 7135,
      "attention": 7136,
      "sterous": 7137,
      "Ġfortun": 7138,
      "Ġvalise": 7139,
      "ĠDevine": 7140,
      "Ġclaims": 7141,
      "Ġconfessed": 7142,
      "Those": 7143,
      "open": 7144,
      "Ġwildly": 7145,
      "Ġfifteen": 7146,
      "ological": 7147,
      "Ġshutters": 7148,
      "Ġcompare": 7149,
      "explanation": 7150,
      "Ġspecialist": 7151,
      "Ġsatisfy": 7152,
      "ĠKensington": 7153,
      "Ġidentification": 7154,
      "Ġrailroad": 7155,
      "Ġdecay": 7156,
      "Ġdecided": 7157,
      "Ġdecision": 7158,
      "ĠUnited": 7159,
      "Ġceased": 7160,
      "Ġcelebr": 7161,
      "ĠBeecher": 7162,
      "ĠAlso": 7163,
      "Ġvictims": 7164,
      "Ġenergetic": 7165,
      "Ġenergies": 7166,
      "Ġcoats": 7167,
      "Ġscreamed": 7168,
      "Ġessentials": 7169,
      "lvet": 7170,
      "Ġsadly": 7171,
      "Ġlouder": 7172,
      "Ġportion": 7173,
      "Ġsuccessful": 7174,
      "Ġtravel": 7175,
      "Ġmoonlight": 7176,
      "Ġcomplicated": 7177,
      "Ġboarder": 7178,
      "Ġdiscovery": 7179,
      "contained": 7180,
      "Ġwitnesses": 7181,
      "Quick": 7182,
      "Ġ29": 7183,
      "Ġmodest": 7184,
      "Ġdimly": 7185,
      "Ġdestined": 7186,
      "Ġdestroy": 7187,
      "Ġsufficient": 7188,
      "Ġplainly": 7189,
      "Ġproceedings": 7190,
      "ĠWilliam": 7191,
      "thoughts": 7192,
      "Ġparcel": 7193,
      "Ġfirmly": 7194,
      "Ġintimacy": 7195,
      "Ġcontrast": 7196,
      "Ġmysteries": 7197,
      "Ġneighbourhood": 7198,
      "Ġbreathless": 7199,
      "change": 7200,
      "forty": 7201,
      "Ġinjury": 7202,
      "Ġinjuries": 7203,
      "Ġemerged": 7204,
      "Ġemerges": 7205,
      "Ġrevellers": 7206,
      "Ġintroduce": 7207,
      "blooded": 7208,
      "column": 7209,
      "Ġwiser": 7210,
      "Ġwishes": 7211,
      "Ġfurnished": 7212,
      "Ġfrankness": 7213,
      "Ġfavourite": 7214,
      "Ġurgency": 7215,
      "Ġreconna": 7216,
      "ĠCarnaway": 7217,
      "Ġproofs": 7218,
      "confidence": 7219,
      "Ġefforts": 7220,
      "Ġdiscussion": 7221,
      "Ġtypewr": 7222,
      "details": 7223,
      "Ġdiamond": 7224,
      "Ġdiabolical": 7225,
      "Ġdreamed": 7226,
      "Ġthreatened": 7227,
      "Ġrent": 7228,
      "Ġspringing": 7229,
      "Ġgroups": 7230,
      "Ġeventually": 7231,
      "examined": 7232,
      "Ġdistinctly": 7233,
      "Ġcheerfully": 7234,
      "Ġadmirable": 7235,
      "Ġestablished": 7236,
      "Ġastonished": 7237,
      "Scott": 7238,
      "Scotland": 7239,
      "speaking": 7240,
      "visitor": 7241,
      "Ġavenger": 7242,
      "Ġavenue": 7243,
      "Ġauthority": 7244,
      "Ġwounded": 7245,
      "Ġburning": 7246,
      "Ġcarpet": 7247,
      "Ġfields": 7248,
      "Ġnegro": 7249,
      "Ġordeal": 7250,
      "Ġdescend": 7251,
      "Ġpresumably": 7252,
      "Ġenterprise": 7253,
      "husi": 7254,
      "ville": 7255,
      "Ġtaps": 7256,
      "itching": 7257,
      "Ġtossing": 7258,
      "Ġgallery": 7259,
      "Ġshouted": 7260,
      "Ġpretend": 7261,
      "Ġpassionate": 7262,
      "Ġsurrounded": 7263,
      "Ġsurroundings": 7264,
      "Ġapartment": 7265,
      "silent": 7266,
      "Ġtalents": 7267,
      "Ġtastes": 7268,
      "Ġcrook": 7269,
      "Ġseparate": 7270,
      "Ġdeclare": 7271,
      "ĠArthur": 7272,
      "Ġconsequences": 7273,
      "Ġquarre": 7274,
      "important": 7275,
      "ĠPrincetown": 7276,
      "Ġglimmer": 7277,
      "Ġinstincts": 7278,
      "Ġattendant": 7279,
      "Ġpenetrate": 7280,
      "baronet": 7281,
      "whether": 7282,
      "Ġbulky": 7283,
      "struck": 7284,
      "Ġdeliberate": 7285,
      "Ġexultation": 7286,
      "ĠConstab": 7287,
      "Ġabandoned": 7288,
      "absolutely": 7289,
      "Ġinstrument": 7290,
      "Ġinstruments": 7291,
      "Ġfrequent": 7292,
      "Ġfrequently": 7293,
      "Before": 7294,
      "character": 7295,
      "heavy": 7296,
      "Ġmalign": 7297,
      "Ġfuneral": 7298,
      "settle": 7299,
      "Ġshrink": 7300,
      "Ġdebt": 7301,
      "Ġdemand": 7302,
      "Ġdeceased": 7303,
      "Ġshelter": 7304,
      "Ġcomfortable": 7305,
      "Ġclimbed": 7306,
      "Ġendeavour": 7307,
      "Ġapplause": 7308,
      "Ġcorroborated": 7309,
      "Ġinvaluable": 7310,
      "Ġdischarged": 7311,
      "Ġcolleagues": 7312,
      "Ġappreciate": 7313,
      "difficulty": 7314,
      "Ġparalyzed": 7315,
      "obean": 7316,
      "young": 7317,
      "refused": 7318,
      "Ġmirror": 7319,
      "Ġfugitive": 7320,
      "Ġdarling": 7321,
      "Ġlatest": 7322,
      "imagine": 7323,
      "Ġepis": 7324,
      "Ġstolen": 7325,
      "Ġbutterfly": 7326,
      "question": 7327,
      "Ġconcentration": 7328,
      "Ġspaniel": 7329,
      "aborate": 7330,
      "ĠPhiladelphia": 7331,
      "Ġdisguise": 7332,
      "ĠJacob": 7333,
      "Ġexchanged": 7334,
      "Ġruffian": 7335,
      "Ġintellectual": 7336,
      "ĠScotchman": 7337,
      "Ġwaistcoat": 7338,
      "Ġdisappointment": 7339,
      "suspic": 7340,
      "description": 7341,
      "pellier": 7342,
      "Ġwidower": 7343,
      "Ġshattered": 7344,
      "Ġsombre": 7345,
      "Ġbasis": 7346,
      "Ġcarriages": 7347,
      "Ġdeductions": 7348,
      "Ġluminous": 7349,
      "Ġpolitics": 7350,
      "ribution": 7351,
      "Ġrueful": 7352,
      "Ġexhib": 7353,
      "Ġexercise": 7354,
      "Ġvigil": 7355,
      "Ġtraitor": 7356,
      "Ġamusement": 7357,
      "Ġplucked": 7358,
      "ĠGlouces": 7359,
      "Ġgradually": 7360,
      "Ġtemporary": 7361,
      "Ġsymptoms": 7362,
      "ĠKnowing": 7363,
      "occupied": 7364,
      "historic": 7365,
      "Garcia": 7366,
      "bottle": 7367,
      "ucca": 7368,
      "Ġtelescope": 7369,
      "rella": 7370,
      "relevant": 7371,
      "Ġmulatto": 7372,
      "Ġbachelor": 7373,
      "Ġfidelity": 7374,
      "Ġdangers": 7375,
      "arraway": 7376,
      "Ġpierced": 7377,
      "Ġnugget": 7378,
      "Ġumbrella": 7379,
      "Ġthirteen": 7380,
      "ambitious": 7381,
      "Ġshrewd": 7382,
      "ĠAccording": 7383,
      "ĠLopez": 7384,
      "Ġshepherd": 7385,
      "Ġjewellery": 7386,
      "Ġplausible": 7387,
      "beautiful": 7388,
      "Ġpreposterous": 7389,
      "Ġfoggy": 7390,
      "ignificant": 7391,
      "Ġacushla": 7392,
      "Ġreconnaissance": 7393,
      "ĠConstabulary": 7394,
      "ĠGloucester": 7395,
      "!'": 7396,
      "',": 7397,
      "04": 7398,
      "15": 7399,
      "704": 7400,
      "AT": 7401,
      "Abs": 7402,
      "Bo": 7403,
      "Cushing": 7404,
      "Councillor": 7405,
      "Cecil": 7406,
      "Captain": 7407,
      "Charing": 7408,
      "De": 7409,
      "Danger": 7410,
      "ES": 7411,
      "Fa": 7412,
      "Frankland": 7413,
      "Go": 7414,
      "Great": 7415,
      "Gregson": 7416,
      "Grimpen": 7417,
      "Gennaro": 7418,
      "Had": 7419,
      "Hullo": 7420,
      "IC": 7421,
      "Jac": 7422,
      "James": 7423,
      "Lord": 7424,
      "Mason": 7425,
      "Many": 7426,
      "MES": 7427,
      "ND": 7428,
      "Nor": 7429,
      "Pre": 7430,
      "Per": 7431,
      "Put": 7432,
      "Post": 7433,
      "RE": 7434,
      "Road": 7435,
      "Su": 7436,
      "Simp": 7437,
      "Since": 7438,
      "Shafter": 7439,
      "Signor": 7440,
      "Suppose": 7441,
      "Tis": 7442,
      "Tunbridge": 7443,
      "True": 7444,
      "TEN": 7445,
      "VE": 7446,
      "Valley": 7447,
      "Vermissa": 7448,
      "Will": 7449,
      "Woolwich": 7450,
      "Yard": 7451,
      "aly": 7452,
      "aur": 7453,
      "aun": 7454,
      "aign": 7455,
      "bu": 7456,
      "bad": 7457,
      "bill": 7458,
      "best": 7459,
      "bul": 7460,
      "bus": 7461,
      "burn": 7462,
      "bited": 7463,
      "berty": 7464,
      "cim": 7465,
      "cil": 7466,
      "card": 7467,
      "cry": 7468,
      "cig": 7469,
      "cause": 7470,
      "cuse": 7471,
      "cases": 7472,
      "citiz": 7473,
      "distance": 7474,
      "drawn": 7475,
      "eh": 7476,
      "ere": 7477,
      "eent": 7478,
      "eur": 7479,
      "equ": 7480,
      "eager": 7481,
      "eaten": 7482,
      "fa": 7483,
      "fing": 7484,
      "far": 7485,
      "fur": 7486,
      "flo": 7487,
      "fine": 7488,
      "fled": 7489,
      "fair": 7490,
      "fail": 7491,
      "fix": 7492,
      "frank": 7493,
      "foot": 7494,
      "finger": 7495,
      "felt": 7496,
      "gre": 7497,
      "gro": 7498,
      "gap": 7499,
      "greet": 7500,
      "girl": 7501,
      "gins": 7502,
      "green": 7503,
      "gloom": 7504,
      "gold": 7505,
      "giving": 7506,
      "hot": 7507,
      "hip": 7508,
      "hung": 7509,
      "huge": 7510,
      "horror": 7511,
      "hills": 7512,
      "hurried": 7513,
      "ially": 7514,
      "iated": 7515,
      "ivers": 7516,
      "ipping": 7517,
      "iency": 7518,
      "iogr": 7519,
      "killed": 7520,
      "lod": 7521,
      "lace": 7522,
      "lau": 7523,
      "lies": 7524,
      "laid": 7525,
      "lines": 7526,
      "leness": 7527,
      "mis": 7528,
      "mat": 7529,
      "mate": 7530,
      "mag": 7531,
      "nat": 7532,
      "nch": 7533,
      "none": 7534,
      "national": 7535,
      "ox": 7536,
      "opped": 7537,
      "olet": 7538,
      "ospital": 7539,
      "ph": 7540,
      "phe": 7541,
      "pha": 7542,
      "pow": 7543,
      "pot": 7544,
      "pse": 7545,
      "page": 7546,
      "private": 7547,
      "piece": 7548,
      "pressing": 7549,
      "ris": 7550,
      "run": 7551,
      "rist": 7552,
      "rowing": 7553,
      "rison": 7554,
      "sen": 7555,
      "sive": 7556,
      "sday": 7557,
      "sized": 7558,
      "tri": 7559,
      "till": 7560,
      "try": 7561,
      "town": 7562,
      "turn": 7563,
      "tried": 7564,
      "tips": 7565,
      "umes": 7566,
      "vat": 7567,
      "vans": 7568,
      "valley": 7569,
      "vals": 7570,
      "wis": 7571,
      "wit": 7572,
      "whis": 7573,
      "yance": 7574,
      "ysters": 7575,
      "zies": 7576,
      "»¿": 7577,
      "ï»¿": 7578,
      "Ġ8": 7579,
      "Ġing": 7580,
      "Ġze": 7581,
      "Ġrival": 7582,
      "Ġignor": 7583,
      "Ġtim": 7584,
      "Ġtour": 7585,
      "Ġtail": 7586,
      "Ġtense": 7587,
      "Ġtears": 7588,
      "Ġtangled": 7589,
      "Ġtender": 7590,
      "Ġtumble": 7591,
      "heren": 7592,
      "Ġain": 7593,
      "Ġahead": 7594,
      "Ġaided": 7595,
      "ina": 7596,
      "ini": 7597,
      "init": 7598,
      "inst": 7599,
      "inet": 7600,
      "inqu": 7601,
      "inning": 7602,
      "inci": 7603,
      "inspect": 7604,
      "inates": 7605,
      "inating": 7606,
      "inform": 7607,
      "innocent": 7608,
      "Ġwo": 7609,
      "Ġwir": 7610,
      "Ġwave": 7611,
      "Ġwily": 7612,
      "Ġwaking": 7613,
      "Ġwretched": 7614,
      "Ġsim": 7615,
      "Ġsore": 7616,
      "Ġske": 7617,
      "Ġsod": 7618,
      "Ġsought": 7619,
      "Ġsway": 7620,
      "Ġsque": 7621,
      "real": 7622,
      "requ": 7623,
      "reary": 7624,
      "respond": 7625,
      "refer": 7626,
      "report": 7627,
      "recoll": 7628,
      "rethren": 7629,
      "Ġobe": 7630,
      "Ġoysters": 7631,
      "erity": 7632,
      "nda": 7633,
      "ndia": 7634,
      "Ġmould": 7635,
      "Ġmast": 7636,
      "Ġmild": 7637,
      "Ġmisf": 7638,
      "Ġmassive": 7639,
      "isher": 7640,
      "ishes": 7641,
      "Ġbol": 7642,
      "Ġbust": 7643,
      "Ġbun": 7644,
      "Ġbart": 7645,
      "Ġbull": 7646,
      "Ġbald": 7647,
      "Ġbits": 7648,
      "Ġborn": 7649,
      "Ġbills": 7650,
      "Ġbrilliant": 7651,
      "Ġburden": 7652,
      "ito": 7653,
      "iture": 7654,
      "itled": 7655,
      "itations": 7656,
      "onna": 7657,
      "eding": 7658,
      "educ": 7659,
      "Ġcas": 7660,
      "Ġcow": 7661,
      "Ġcot": 7662,
      "Ġcell": 7663,
      "Ġcart": 7664,
      "Ġcable": 7665,
      "Ġcran": 7666,
      "Ġcrest": 7667,
      "Ġcash": 7668,
      "Ġcounc": 7669,
      "Ġcode": 7670,
      "Ġcivil": 7671,
      "Ġcertificate": 7672,
      "Ġcupboard": 7673,
      "Ġfid": 7674,
      "Ġfet": 7675,
      "Ġfare": 7676,
      "Ġfish": 7677,
      "Ġfles": 7678,
      "Ġfund": 7679,
      "Ġfitting": 7680,
      "Ġfills": 7681,
      "Ġfading": 7682,
      "Ġfruit": 7683,
      "Ġfasc": 7684,
      "enial": 7685,
      "enzies": 7686,
      "asse": 7687,
      "asions": 7688,
      "asiness": 7689,
      "asped": 7690,
      "Ġhit": 7691,
      "Ġhind": 7692,
      "Ġhint": 7693,
      "Ġhue": 7694,
      "Ġhushed": 7695,
      "Ġhudd": 7696,
      "Ġtoile": 7697,
      "Ġtotal": 7698,
      "oring": 7699,
      "orig": 7700,
      "orable": 7701,
      "orations": 7702,
      "llen": 7703,
      "ingle": 7704,
      "ingular": 7705,
      "Ġda": 7706,
      "Ġdart": 7707,
      "Ġdru": 7708,
      "Ġdirty": 7709,
      "Ġdashed": 7710,
      "Ġdancing": 7711,
      "Ġdashing": 7712,
      "ĠIN": 7713,
      "ĠIndeed": 7714,
      "Ġhath": 7715,
      "Ġhalt": 7716,
      "Ġhaunted": 7717,
      "Ġhaggard": 7718,
      "anical": 7719,
      "around": 7720,
      "arled": 7721,
      "aries": 7722,
      "Ġinad": 7723,
      "Ġinference": 7724,
      "Ġinferences": 7725,
      "Ġheat": 7726,
      "Ġlion": 7727,
      "Ġlap": 7728,
      "Ġlake": 7729,
      "Ġlimp": 7730,
      "Ġloun": 7731,
      "Ġlawn": 7732,
      "Ġpan": 7733,
      "Ġpri": 7734,
      "Ġpred": 7735,
      "Ġpace": 7736,
      "Ġpend": 7737,
      "Ġpens": 7738,
      "Ġpaced": 7739,
      "Ġpiled": 7740,
      "Ġpoured": 7741,
      "Ġpaused": 7742,
      "Ġpitch": 7743,
      "Ġpaler": 7744,
      "Ġnut": 7745,
      "Ġnice": 7746,
      "Ġnav": 7747,
      "Ġnons": 7748,
      "Ġnative": 7749,
      "Ġnipped": 7750,
      "Ġnational": 7751,
      "omened": 7752,
      "ata": 7753,
      "athan": 7754,
      "atue": 7755,
      "atience": 7756,
      "atulate": 7757,
      "icide": 7758,
      "icip": 7759,
      "Ġbeam": 7760,
      "otent": 7761,
      "ims": 7762,
      "imation": 7763,
      "imson": 7764,
      "imate": 7765,
      "immed": 7766,
      "iments": 7767,
      "Ġgar": 7768,
      "Ġgum": 7769,
      "Ġgroom": 7770,
      "Ġgains": 7771,
      "Ġgifts": 7772,
      "iday": 7773,
      "idate": 7774,
      "idden": 7775,
      "stra": 7776,
      "stery": 7777,
      "stern": 7778,
      "straw": 7779,
      "stopped": 7780,
      "Ġech": 7781,
      "Ġecc": 7782,
      "send": 7783,
      "separ": 7784,
      "Ġwhip": 7785,
      "Ġissue": 7786,
      "ĠHam": 7787,
      "ĠHomes": 7788,
      "ĠHOL": 7789,
      "ĠHarraway": 7790,
      "entine": 7791,
      "entral": 7792,
      "entric": 7793,
      "irable": 7794,
      "Ġhadn": 7795,
      "ural": 7796,
      "ursday": 7797,
      "alert": 7798,
      "almost": 7799,
      "alarm": 7800,
      "alentine": 7801,
      "Ġreward": 7802,
      "Ġreentered": 7803,
      "Ġreaches": 7804,
      "Ġash": 7805,
      "Ġasper": 7806,
      "Ġascertain": 7807,
      "Ġwithheld": 7808,
      "adv": 7809,
      "advice": 7810,
      "address": 7811,
      "ĠMed": 7812,
      "ĠMark": 7813,
      "ĠMike": 7814,
      "ĠMetropolitan": 7815,
      "ĠMorton": 7816,
      "robe": 7817,
      "Ġstam": 7818,
      "Ġstare": 7819,
      "Ġstated": 7820,
      "Ġstars": 7821,
      "Ġstories": 7822,
      "Ġstunted": 7823,
      "Ġstumbled": 7824,
      "Ġsand": 7825,
      "Ġsaint": 7826,
      "Ġsafer": 7827,
      "rily": 7828,
      "Ġanec": 7829,
      "olic": 7830,
      "Ġmeek": 7831,
      "Ġmeals": 7832,
      "Ġmeasure": 7833,
      "Ġmellow": 7834,
      "Ġatrocious": 7835,
      "iller": 7836,
      "ĠWild": 7837,
      "ĠSu": 7838,
      "ĠSay": 7839,
      "ĠSte": 7840,
      "ĠSince": 7841,
      "ĠShall": 7842,
      "ĠSurrey": 7843,
      "ources": 7844,
      "ournal": 7845,
      "Ġsex": 7846,
      "Ġsees": 7847,
      "Ġsender": 7848,
      "Ġseason": 7849,
      "Ġseventh": 7850,
      "amber": 7851,
      "amazement": 7852,
      "ifty": 7853,
      "iftly": 7854,
      "ĠBro": 7855,
      "ĠBey": 7856,
      "ĠBank": 7857,
      "ĠBilly": 7858,
      "ĠBeside": 7859,
      "ĠBrethren": 7860,
      "kept": 7861,
      "odes": 7862,
      "oday": 7863,
      "odox": 7864,
      "geon": 7865,
      "Ġshud": 7866,
      "Ġshrank": 7867,
      "Ġshield": 7868,
      "Ġshorter": 7869,
      "redul": 7870,
      "redulous": 7871,
      "Ġsund": 7872,
      "Ġsucked": 7873,
      "Ġric": 7874,
      "Ġrad": 7875,
      "Ġrul": 7876,
      "Ġrace": 7877,
      "Ġrage": 7878,
      "Ġrules": 7879,
      "Ġdock": 7880,
      "elling": 7881,
      "alling": 7882,
      "allington": 7883,
      "Ġbutt": 7884,
      "peace": 7885,
      "people": 7886,
      "pended": 7887,
      "peculiar": 7888,
      "Ġsofa": 7889,
      "Ġdegree": 7890,
      "ĠApp": 7891,
      "ĠAbout": 7892,
      "ĠAlec": 7893,
      "Ġkiss": 7894,
      "esting": 7895,
      "establ": 7896,
      "Ġallowing": 7897,
      "aping": 7898,
      "apper": 7899,
      "apsed": 7900,
      "appro": 7901,
      "Ġnose": 7902,
      "ulse": 7903,
      "ulated": 7904,
      "Ġneat": 7905,
      "Ġnecess": 7906,
      "Ġnephe": 7907,
      "thro": 7908,
      "thick": 7909,
      "thirty": 7910,
      "thodox": 7911,
      "Ġexisted": 7912,
      "Ġexagger": 7913,
      "quet": 7914,
      "Ġcongr": 7915,
      "Ġconveyed": 7916,
      "Ġconcluded": 7917,
      "Ġconcerning": 7918,
      "Ġouthouse": 7919,
      "Ġoutstretched": 7920,
      "usted": 7921,
      "ustere": 7922,
      "Ġknot": 7923,
      "usation": 7924,
      "oker": 7925,
      "look": 7926,
      "losing": 7927,
      "owns": 7928,
      "owned": 7929,
      "ĠCons": 7930,
      "ĠClay": 7931,
      "ĠChair": 7932,
      "ĠCivil": 7933,
      "ĠContin": 7934,
      "Ġcane": 7935,
      "ĠIts": 7936,
      "Ġorch": 7937,
      "Ġorthodox": 7938,
      "Ġgoal": 7939,
      "Ġleaning": 7940,
      "ckles": 7941,
      "ckoned": 7942,
      "Ġours": 7943,
      "unc": 7944,
      "unte": 7945,
      "unexpected": 7946,
      "aste": 7947,
      "artment": 7948,
      "Ġvat": 7949,
      "Ġvult": 7950,
      "ĠTen": 7951,
      "ĠTues": 7952,
      "Ġalmanac": 7953,
      "agr": 7954,
      "agon": 7955,
      "aging": 7956,
      "Ġtrim": 7957,
      "Ġtrained": 7958,
      "Ġloom": 7959,
      "Ġloaf": 7960,
      "Ġloomed": 7961,
      "Ġlogical": 7962,
      "igy": 7963,
      "igated": 7964,
      "Ġmoan": 7965,
      "pposing": 7966,
      "ĠLat": 7967,
      "ĠLucca": 7968,
      "ĠDear": 7969,
      "ĠDunn": 7970,
      "ĠDike": 7971,
      "ĠDesmond": 7972,
      "Ġshed": 7973,
      "Ġshells": 7974,
      "Ġcomment": 7975,
      "Ġcomrade": 7976,
      "Ġcommend": 7977,
      "isten": 7978,
      "vened": 7979,
      "Ġunc": 7980,
      "Ġunseen": 7981,
      "Ġuninteresting": 7982,
      "Ġunbroken": 7983,
      "Ġunkempt": 7984,
      "Ġunambitious": 7985,
      "Ġabrupt": 7986,
      "Ġfeud": 7987,
      "Ġfemale": 7988,
      "Ġfeminine": 7989,
      "mean": 7990,
      "means": 7991,
      "mended": 7992,
      "melancholy": 7993,
      "aks": 7994,
      "Ġlip": 7995,
      "Ġliberty": 7996,
      "onds": 7997,
      "ondered": 7998,
      "weather": 7999,
      "wels": 8000,
      "weeks": 8001,
      "telegr": 8002,
      "Ġjun": 8003,
      "Ġjum": 8004,
      "Ġjerk": 8005,
      "Ġjury": 8006,
      "Ġroot": 8007,
      "Ġrope": 8008,
      "Ġroared": 8009,
      "Ġbris": 8010,
      "Ġbrass": 8011,
      "Ġbristling": 8012,
      "Ġquoted": 8013,
      "Ġqualities": 8014,
      "offin": 8015,
      "oform": 8016,
      "urnished": 8017,
      "uming": 8018,
      "umably": 8019,
      "Ġhandled": 8020,
      "Ġplant": 8021,
      "Ġplaster": 8022,
      "Ġplanted": 8023,
      "ecting": 8024,
      "eport": 8025,
      "Ġtwinkle": 8026,
      "Ġtwitching": 8027,
      "acted": 8028,
      "assy": 8029,
      "Ġdowns": 8030,
      "Ġdownward": 8031,
      "impression": 8032,
      "impossible": 8033,
      "Ġovertaken": 8034,
      "Ġafford": 8035,
      "beard": 8036,
      "become": 8037,
      "began": 8038,
      "believe": 8039,
      "because": 8040,
      "Ġprov": 8041,
      "Ġproves": 8042,
      "Ġprocess": 8043,
      "ĠGu": 8044,
      "ĠGet": 8045,
      "Ġpreci": 8046,
      "Ġprearranged": 8047,
      "reated": 8048,
      "ineas": 8049,
      "Ġsport": 8050,
      "Ġspared": 8051,
      "ounce": 8052,
      "aband": 8053,
      "above": 8054,
      "ĠNe": 8055,
      "Ġhowl": 8056,
      "eling": 8057,
      "elids": 8058,
      "ancee": 8059,
      "Ġowners": 8060,
      "ĠEd": 8061,
      "ĠEli": 8062,
      "ĠEach": 8063,
      "ĠEvil": 8064,
      "ĠEvans": 8065,
      "ruded": 8066,
      "gery": 8067,
      "Ġenabled": 8068,
      "ĠFrench": 8069,
      "placed": 8070,
      "plans": 8071,
      "Ġarch": 8072,
      "Ġarrang": 8073,
      "ĠOF": 8074,
      "ĠOut": 8075,
      "ĠStand": 8076,
      "Ġcovers": 8077,
      "Ġcocked": 8078,
      "Ġcoarse": 8079,
      "Ġcopper": 8080,
      "Ġcoolly": 8081,
      "Ġblown": 8082,
      "Ġblows": 8083,
      "aud": 8084,
      "cile": 8085,
      "Ġshade": 8086,
      "Ġclipped": 8087,
      "Ġcluster": 8088,
      "ĠPart": 8089,
      "ĠPoultney": 8090,
      "Ġglit": 8091,
      "Ġglint": 8092,
      "Ġcrack": 8093,
      "Ġcrushing": 8094,
      "Ġcrouching": 8095,
      "ounted": 8096,
      "eware": 8097,
      "earlier": 8098,
      "Ġimpro": 8099,
      "Ġimprob": 8100,
      "Ġimprud": 8101,
      "Ġimprison": 8102,
      "Ġgrace": 8103,
      "Ġgranted": 8104,
      "shoot": 8105,
      "Ġscale": 8106,
      "Ġscreen": 8107,
      "Ġscaff": 8108,
      "Ġscrawled": 8109,
      "Ġpersec": 8110,
      "note": 8111,
      "notice": 8112,
      "Ġobst": 8113,
      "Whatever": 8114,
      "white": 8115,
      "Ġdisaster": 8116,
      "Ġdisloy": 8117,
      "Ġdismal": 8118,
      "soon": 8119,
      "sole": 8120,
      "society": 8121,
      "asking": 8122,
      "Ġendure": 8123,
      "Ġharsh": 8124,
      "forward": 8125,
      "Ġevenings": 8126,
      "nearer": 8127,
      "Ġhole": 8128,
      "Ġhollow": 8129,
      "Ġhobby": 8130,
      "Ġjustification": 8131,
      "dered": 8132,
      "debr": 8133,
      "devil": 8134,
      "person": 8135,
      "cold": 8136,
      "cogn": 8137,
      "covering": 8138,
      "Ġprinci": 8139,
      "conven": 8140,
      "conclus": 8141,
      "constant": 8142,
      "ggers": 8143,
      "Ġgreatly": 8144,
      "Ġheadquarters": 8145,
      "aits": 8146,
      "feet": 8147,
      "feared": 8148,
      "living": 8149,
      "liament": 8150,
      "Ġlights": 8151,
      "Ġlighter": 8152,
      "Ġearring": 8153,
      "Ġfarthest": 8154,
      "return": 8155,
      "returned": 8156,
      "Ġguided": 8157,
      "Ġsecured": 8158,
      "Ġthroughout": 8159,
      "except": 8160,
      "excellent": 8161,
      "Ġretained": 8162,
      "Ġreticent": 8163,
      "prot": 8164,
      "prising": 8165,
      "orders": 8166,
      "ordinary": 8167,
      "ordinates": 8168,
      "ĠInstead": 8169,
      "Ġpreserv": 8170,
      "Ġchronic": 8171,
      "Ġchivalrous": 8172,
      "Ġworkmen": 8173,
      "Ġmurders": 8174,
      "Ġflashed": 8175,
      "Ġwrought": 8176,
      "Ġwrung": 8177,
      "Ġwriter": 8178,
      "Ġwrinkled": 8179,
      "Ġsurv": 8180,
      "Ġintol": 8181,
      "Ġspecim": 8182,
      "Ġcurving": 8183,
      "Ġcursed": 8184,
      "Ġapology": 8185,
      "eryl": 8186,
      "Ġnewcomer": 8187,
      "clist": 8188,
      "Ġchanges": 8189,
      "Ġchasing": 8190,
      "Ġdistracted": 8191,
      "Ġreparation": 8192,
      "Ġapply": 8193,
      "Ġappalling": 8194,
      "Ġenthusi": 8195,
      "Ġreasoner": 8196,
      "Ġbrooding": 8197,
      "host": 8198,
      "jection": 8199,
      "Ġacted": 8200,
      "Ġactiv": 8201,
      "Ġcontact": 8202,
      "common": 8203,
      "commend": 8204,
      "ĠRev": 8205,
      "ĠReport": 8206,
      "Ġresort": 8207,
      "Ġresided": 8208,
      "Ġresume": 8209,
      "Ġresistance": 8210,
      "Ġreserve": 8211,
      "Ġresignation": 8212,
      "Ġresources": 8213,
      "Ġinterests": 8214,
      "Ġelaborate": 8215,
      "ĠVibart": 8216,
      "Ġminer": 8217,
      "Ġaccord": 8218,
      "Ġaccustom": 8219,
      "Ġaccording": 8220,
      "Ġaccusation": 8221,
      "Ġoccasions": 8222,
      "Ġshoving": 8223,
      "Ġshocked": 8224,
      "Ġopenly": 8225,
      "Ġmetals": 8226,
      "Ġconfine": 8227,
      "Ġconfined": 8228,
      "Ġconfided": 8229,
      "Ġconfusion": 8230,
      "Ġconfidences": 8231,
      "Ġaddition": 8232,
      "Ġsmallest": 8233,
      "Ġsupper": 8234,
      "Ġsupport": 8235,
      "Ġsupposing": 8236,
      "Ġjoining": 8237,
      "Ġjovial": 8238,
      "Ġsignific": 8239,
      "members": 8240,
      "ĠBridge": 8241,
      "enses": 8242,
      "Ġstrain": 8243,
      "Ġstrained": 8244,
      "Ġstraining": 8245,
      "suit": 8246,
      "success": 8247,
      "Ġcorners": 8248,
      "Ġcoroner": 8249,
      "Ġterrified": 8250,
      "Ġwarm": 8251,
      "Ġattract": 8252,
      "Ġattachment": 8253,
      "Ġtea": 8254,
      "Ġservices": 8255,
      "Ġbegins": 8256,
      "Ġrested": 8257,
      "Ġrestore": 8258,
      "Ġrestless": 8259,
      "Ġrestlessly": 8260,
      "Ġslag": 8261,
      "Ġforesee": 8262,
      "Ġassent": 8263,
      "Ġassist": 8264,
      "Ġassail": 8265,
      "Ġexpenses": 8266,
      "Ġmurderous": 8267,
      "answered": 8268,
      "answer": 8269,
      "Ġinvisible": 8270,
      "Ġunderstanding": 8271,
      "Ġbusinesslike": 8272,
      "Ġsuggests": 8273,
      "Ġvisited": 8274,
      "bladed": 8275,
      "doll": 8276,
      "doing": 8277,
      "oser": 8278,
      "oses": 8279,
      "Ġincome": 8280,
      "Ġincess": 8281,
      "Ġexcite": 8282,
      "Ġexpectant": 8283,
      "Ġcharity": 8284,
      "Ġbelief": 8285,
      "Excuse": 8286,
      "Ġeffigy": 8287,
      "evil": 8288,
      "events": 8289,
      "evidence": 8290,
      "Ġawaited": 8291,
      "Ġawakened": 8292,
      "Ġcareless": 8293,
      "Ġintercepted": 8294,
      "Ġinternational": 8295,
      "ĠHowe": 8296,
      "Ġextract": 8297,
      "Ġextinct": 8298,
      "Ġextracted": 8299,
      "Ġextraordinarily": 8300,
      "knife": 8301,
      "scene": 8302,
      "scape": 8303,
      "ĠWestmin": 8304,
      "Ġaffect": 8305,
      "Ġaffection": 8306,
      "Ġpresently": 8307,
      "Ġcheery": 8308,
      "Ġcheek": 8309,
      "ĠNovember": 8310,
      "working": 8311,
      "prehension": 8312,
      "Ġtenants": 8313,
      "Ġhighly": 8314,
      "Ġdrowned": 8315,
      "Ġpaste": 8316,
      "Ġsteam": 8317,
      "Ġshowing": 8318,
      "Ġsentiment": 8319,
      "ĠAmericans": 8320,
      "Ġescap": 8321,
      "Ġrefres": 8322,
      "Ġsubmarine": 8323,
      "ernworthy": 8324,
      "Ġmonot": 8325,
      "Ġmonster": 8326,
      "arrass": 8327,
      "Ġrecess": 8328,
      "Ġkindness": 8329,
      "Ġchairs": 8330,
      "rivile": 8331,
      "Ġreturning": 8332,
      "ugust": 8333,
      "viously": 8334,
      "Ġstudents": 8335,
      "ampaign": 8336,
      "Ġaddresses": 8337,
      "Ġaddressing": 8338,
      "Ġconnect": 8339,
      "Ġseconds": 8340,
      "handed": 8341,
      "Ġcutting": 8342,
      "Ġlaws": 8343,
      "Ġpuff": 8344,
      "Ġpuzz": 8345,
      "Ġobjections": 8346,
      "obsc": 8347,
      "Ġtremend": 8348,
      "Ġcentury": 8349,
      "Ġcapacity": 8350,
      "Ġpowerless": 8351,
      "Ġeagerness": 8352,
      "ĠChrist": 8353,
      "Ġoffices": 8354,
      "Ġdiscol": 8355,
      "Ġdiscour": 8356,
      "Ġdiscern": 8357,
      "Ġfully": 8358,
      "cannot": 8359,
      "minable": 8360,
      "minute": 8361,
      "Ġhorrified": 8362,
      "Ġwhisk": 8363,
      "Ġtrusty": 8364,
      "Ġtrustworthy": 8365,
      "overnment": 8366,
      "Ġbury": 8367,
      "Ġburrow": 8368,
      "Ġcolours": 8369,
      "Ġbeauties": 8370,
      "Ġattended": 8371,
      "neys": 8372,
      "Ġdevils": 8373,
      "Still": 8374,
      "Strange": 8375,
      "parts": 8376,
      "Ġlanding": 8377,
      "Ġnarrowly": 8378,
      "Ġgenerous": 8379,
      "Ġsingularly": 8380,
      "shaw": 8381,
      "shape": 8382,
      "Ġsnar": 8383,
      "Ġsnap": 8384,
      "Ġsnips": 8385,
      "Ġoppress": 8386,
      "Ġopponent": 8387,
      "Ġgriev": 8388,
      "Ġrubbing": 8389,
      "Ġpostp": 8390,
      "Ġpostscri": 8391,
      "centre": 8392,
      "central": 8393,
      "afterwards": 8394,
      "Ġtriggers": 8395,
      "incing": 8396,
      "Ġlodges": 8397,
      "Ġlodging": 8398,
      "Ġpencil": 8399,
      "Ġapproving": 8400,
      "Ġillust": 8401,
      "Ġillum": 8402,
      "Ġcigarettes": 8403,
      "ĠWhile": 8404,
      "Ġdelay": 8405,
      "appears": 8406,
      "Ġpressmen": 8407,
      "ĠThus": 8408,
      "ĠThink": 8409,
      "ĠThose": 8410,
      "Ġtelegrams": 8411,
      "axing": 8412,
      "single": 8413,
      "Ġmedd": 8414,
      "Ġmedic": 8415,
      "Ġfixedly": 8416,
      "Ġregular": 8417,
      "Ġregarded": 8418,
      "Ġregistered": 8419,
      "unts": 8420,
      "Ġvibr": 8421,
      "Ġviolet": 8422,
      "Ġcleaned": 8423,
      "shoulder": 8424,
      "Ġinvestigator": 8425,
      "Ġcharacters": 8426,
      "gued": 8427,
      "guess": 8428,
      "longed": 8429,
      "Ġcardboard": 8430,
      "strate": 8431,
      "stricken": 8432,
      "Ġrelaxed": 8433,
      "Ġsummons": 8434,
      "whole": 8435,
      "Ġshadowy": 8436,
      "crow": 8437,
      "Ġveil": 8438,
      "Ġvexation": 8439,
      "Ġvehem": 8440,
      "Ġvelvet": 8441,
      "Ġbounds": 8442,
      "Ġbounding": 8443,
      "Ġcommunicated": 8444,
      "Ġcommunication": 8445,
      "flies": 8446,
      "parative": 8447,
      "Ġlimb": 8448,
      "Ġpays": 8449,
      "bitants": 8450,
      "olded": 8451,
      "Ġtors": 8452,
      "Ġhatred": 8453,
      "Ġsettling": 8454,
      "Does": 8455,
      "Ġeditor": 8456,
      "Ġfinely": 8457,
      "Ġsuperior": 8458,
      "Ġvaluable": 8459,
      "Ġthanks": 8460,
      "abouts": 8461,
      "Ġconfession": 8462,
      "Ġterrorized": 8463,
      "Ġconviction": 8464,
      "Ġattempts": 8465,
      "Through": 8466,
      "chased": 8467,
      "opinion": 8468,
      "Ġagenda": 8469,
      "Ġmadman": 8470,
      "Ġfreely": 8471,
      "Ġhairy": 8472,
      "Ġforgot": 8473,
      "Ġforgiven": 8474,
      "ĠSomeone": 8475,
      "Ġcomprom": 8476,
      "Ġtyp": 8477,
      "result": 8478,
      "Ġmisery": 8479,
      "Ġmischie": 8480,
      "Ġconditions": 8481,
      "Ġinsignificant": 8482,
      "Ġrailings": 8483,
      "Ġdecide": 8484,
      "ĠDidn": 8485,
      "Ġqueen": 8486,
      "Ġfoolish": 8487,
      "ĠReilly": 8488,
      "Ġdrinking": 8489,
      "ĠUntil": 8490,
      "Ġviolently": 8491,
      "inese": 8492,
      "Ġceiling": 8493,
      "Ġfrightful": 8494,
      "Ġhungry": 8495,
      "Ġgleamed": 8496,
      "Ġgravel": 8497,
      "Ġgravely": 8498,
      "Ġangrily": 8499,
      "ĠBeing": 8500,
      "ĠBefore": 8501,
      "Ġsuspects": 8502,
      "Ġvaguely": 8503,
      "Ġpretence": 8504,
      "Ġscreams": 8505,
      "Ġappointed": 8506,
      "windows": 8507,
      "Ġastute": 8508,
      "Ġsaddle": 8509,
      "Ġloudly": 8510,
      "Ġportraits": 8511,
      "Ġsuccessfully": 8512,
      "Ġtravelled": 8513,
      "Ġboarders": 8514,
      "Ġchoice": 8515,
      "Ġchooses": 8516,
      "Ġdifferences": 8517,
      "Ġemployer": 8518,
      "Ġemployers": 8519,
      "Ġemployment": 8520,
      "follow": 8521,
      "follows": 8522,
      "following": 8523,
      "Ġ2704": 8524,
      "Ġproceeding": 8525,
      "Ġgrimly": 8526,
      "Ġemptied": 8527,
      "Ġcorresponded": 8528,
      "goods": 8529,
      "voice": 8530,
      "Ġsalt": 8531,
      "Ġsuitor": 8532,
      "pendent": 8533,
      "Ġflats": 8534,
      "Ġdetermine": 8535,
      "Ġshocking": 8536,
      "presence": 8537,
      "Ġtickets": 8538,
      "Ġmurmured": 8539,
      "Ġcraft": 8540,
      "Ġcrazed": 8541,
      "Ġparlour": 8542,
      "Ġpistols": 8543,
      "irts": 8544,
      "Ġseats": 8545,
      "Ġorganiz": 8546,
      "Ġlegs": 8547,
      "Ġlegible": 8548,
      "Ġimpatience": 8549,
      "Ġconsulted": 8550,
      "Ġconsultation": 8551,
      "Ġcourts": 8552,
      "Ġforeigner": 8553,
      "Ġforeigners": 8554,
      "Stapletons": 8555,
      "Somebody": 8556,
      "desire": 8557,
      "framed": 8558,
      "Ġcreak": 8559,
      "Ġcrept": 8560,
      "Ġlurked": 8561,
      "Ġpowder": 8562,
      "Ġweakened": 8563,
      "Ġreveals": 8564,
      "Ġexclaimed": 8565,
      "Ġgrassy": 8566,
      "Ġschemes": 8567,
      "Ġscheming": 8568,
      "close": 8569,
      "cisely": 8570,
      "mitigated": 8571,
      "Ġwisdom": 8572,
      "Ġorigin": 8573,
      "Ġfurnish": 8574,
      "Ġfurnaces": 8575,
      "vereign": 8576,
      "Ġweapons": 8577,
      "hardly": 8578,
      "spiration": 8579,
      "Ġexpressive": 8580,
      "Ġhonestly": 8581,
      "going": 8582,
      "Ġblew": 8583,
      "Ġbleak": 8584,
      "Ġbleeding": 8585,
      "Ġfleet": 8586,
      "Ġinfam": 8587,
      "Ġincluded": 8588,
      "Ġpunish": 8589,
      "Ġgroan": 8590,
      "strance": 8591,
      "stranger": 8592,
      "Ġthreatening": 8593,
      "ĠSpaniard": 8594,
      "Ġtroubles": 8595,
      "Ġtroubling": 8596,
      "Ġjewels": 8597,
      "Ġprepare": 8598,
      "Ġimplic": 8599,
      "Ġimplore": 8600,
      "Ġdeserts": 8601,
      "examination": 8602,
      "Ġchuckle": 8603,
      "Ġchuckling": 8604,
      "Ġextremely": 8605,
      "Ġrecords": 8606,
      "investigations": 8607,
      "elegate": 8608,
      "special": 8609,
      "visit": 8610,
      "Ġauthorities": 8611,
      "Ġwaved": 8612,
      "Ġwandering": 8613,
      "Ġsensitive": 8614,
      "remembered": 8615,
      "Ġbanked": 8616,
      "Ġbanks": 8617,
      "Ġnets": 8618,
      "Ġrecommended": 8619,
      "Ġdepths": 8620,
      "Ġtrailing": 8621,
      "ĠOrder": 8622,
      "ĠOxford": 8623,
      "Ġapprehension": 8624,
      "gentlemen": 8625,
      "murde": 8626,
      "murder": 8627,
      "saying": 8628,
      "Ġtiny": 8629,
      "Ġtapping": 8630,
      "Ġspectral": 8631,
      "Ġmounted": 8632,
      "Ġcaution": 8633,
      "Ġcautiously": 8634,
      "Ġflying": 8635,
      "Ġgenuine": 8636,
      "Ġstroll": 8637,
      "Ġstrolled": 8638,
      "Ġfeverish": 8639,
      "Ġpretext": 8640,
      "conceal": 8641,
      "Ġrecalled": 8642,
      "driving": 8643,
      "delight": 8644,
      "horribly": 8645,
      "promising": 8646,
      "silence": 8647,
      "Ġtalent": 8648,
      "Ġtaste": 8649,
      "Ġfiancee": 8650,
      "Ġbelonged": 8651,
      "standing": 8652,
      "Ġrequis": 8653,
      "Ġrequest": 8654,
      "Ġreckless": 8655,
      "Ġsternly": 8656,
      "Ġseparated": 8657,
      "Ġrustling": 8658,
      "Ġvolunte": 8659,
      "Ġargument": 8660,
      "Ġclasses": 8661,
      "Ġprinting": 8662,
      "Ġpenetrated": 8663,
      "Ġassociated": 8664,
      "America": 8665,
      "barrel": 8666,
      "loroform": 8667,
      "powerful": 8668,
      "Ġtufted": 8669,
      "Ġmortals": 8670,
      "Ġboulder": 8671,
      "Ġcitizens": 8672,
      "Ġfrock": 8673,
      "Ġgruff": 8674,
      "Ġseverely": 8675,
      "Ġrumours": 8676,
      "Ġdeliver": 8677,
      "Ġdelighted": 8678,
      "Ġexultant": 8679,
      "aggering": 8680,
      "ĠLeave": 8681,
      "Ġabandon": 8682,
      "Ġbosses": 8683,
      "Ġcopy": 8684,
      "Ġcrisp": 8685,
      "Ġprotest": 8686,
      "connected": 8687,
      "Ġfarmers": 8688,
      "Ġblackmailing": 8689,
      "Ġpossibilities": 8690,
      "Ġimmense": 8691,
      "Ġslightly": 8692,
      "Ġslightest": 8693,
      "Ġeducation": 8694,
      "White": 8695,
      "emotion": 8696,
      "effect": 8697,
      "Ġmatches": 8698,
      "Ġmusic": 8699,
      "Ġmagistrate": 8700,
      "Ġcounsel": 8701,
      "Ġcordial": 8702,
      "stitution": 8703,
      "Ġreplaced": 8704,
      "Ġannoyed": 8705,
      "Ġannoyance": 8706,
      "Ġrasping": 8707,
      "Ġsoldier": 8708,
      "Ġdemure": 8709,
      "Ġdeception": 8710,
      "Ġnoisy": 8711,
      "Ġnoiseless": 8712,
      "Ġconcerns": 8713,
      "ĠDeath": 8714,
      "Ġcombined": 8715,
      "Ġcombination": 8716,
      "Ġjaws": 8717,
      "Ġencouraged": 8718,
      "Ġencouraging": 8719,
      "Ġgrasp": 8720,
      "Ġoperations": 8721,
      "Ġendeavoured": 8722,
      "needed": 8723,
      "Ġpeaceful": 8724,
      "Ġconfidential": 8725,
      "Ġinvalid": 8726,
      "Ġreferred": 8727,
      "Ġfootmarks": 8728,
      "Ġdischarge": 8729,
      "Ġpersuade": 8730,
      "Ġpersuaded": 8731,
      "Among": 8732,
      "circumstances": 8733,
      "castle": 8734,
      "shadow": 8735,
      "Ġivy": 8736,
      "Ġivory": 8737,
      "Ġsacrific": 8738,
      "remains": 8739,
      "Ġmixed": 8740,
      "Ġbench": 8741,
      "Ġbenev": 8742,
      "Ġinhabited": 8743,
      "Ġinhabitants": 8744,
      "Ġgnarled": 8745,
      "rolmen": 8746,
      "Ġuncommon": 8747,
      "Ġprecisely": 8748,
      "ĠParis": 8749,
      "Ġcritical": 8750,
      "Ġscrap": 8751,
      "Ġscarce": 8752,
      "postmaster": 8753,
      "Ġembarrass": 8754,
      "observed": 8755,
      "Ġpatiently": 8756,
      "Ġcharacteristic": 8757,
      "Ġcharacteristics": 8758,
      "continued": 8759,
      "detective": 8760,
      "detectives": 8761,
      "Ġtiptoe": 8762,
      "Ġtiptoed": 8763,
      "family": 8764,
      "limited": 8765,
      "swear": 8766,
      "signed": 8767,
      "reshold": 8768,
      "Ġmorass": 8769,
      "Ġbloody": 8770,
      "Ġbuckshot": 8771,
      "Ġcycle": 8772,
      "Ġcalcul": 8773,
      "Ġcottage": 8774,
      "Ġdamned": 8775,
      "argument": 8776,
      "Ġlaurels": 8777,
      "statement": 8778,
      "stretching": 8779,
      "secting": 8780,
      "ĠHalfway": 8781,
      "Ġassembly": 8782,
      "Ġwithdraw": 8783,
      "Ġrusset": 8784,
      "ĠClub": 8785,
      "ĠTHE": 8786,
      "Ġuneasy": 8787,
      "Ġfeeble": 8788,
      "Ġqueerest": 8789,
      "Ġpreparations": 8790,
      "Ġadopted": 8791,
      "Ġimperious": 8792,
      "Ġchiming": 8793,
      "Ġintrusion": 8794,
      "Ġdistinguished": 8795,
      "Ġfrowning": 8796,
      "Ġindividuals": 8797,
      "Ġbreadth": 8798,
      "Ġirritable": 8799,
      "Ġbuzzing": 8800,
      "Ġsqueezed": 8801,
      "occasional": 8802,
      "ĠWillabys": 8803,
      "breakfast": 8804,
      "Ġ1882": 8805,
      "Ġaccomplice": 8806,
      "ĠAdmiralty": 8807,
      "satisfaction": 8808,
      "Ġanticipation": 8809,
      "ĠAfrica": 8810,
      "Admir": 8811,
      "Chicago": 8812,
      "Queer": 8813,
      "burst": 8814,
      "puzzled": 8815,
      "skirts": 8816,
      "travelled": 8817,
      "violence": 8818,
      "Ġaloof": 8819,
      "Ġacknowledge": 8820,
      "Ġtheatre": 8821,
      "responsibility": 8822,
      "Ġcauses": 8823,
      "Ġholiday": 8824,
      "organization": 8825,
      "Ġdignity": 8826,
      "Ġhazel": 8827,
      "Ġninety": 8828,
      "Ġgigantic": 8829,
      "study": 8830,
      "Ġeternal": 8831,
      "ĠHAVE": 8832,
      "Ġancestors": 8833,
      "olithic": 8834,
      "Ġathle": 8835,
      "Ġsequence": 8836,
      "Ġroutine": 8837,
      "Ġexertions": 8838,
      "Ġbygones": 8839,
      "Ġleisure": 8840,
      "Ġleanjawed": 8841,
      "Ġtrousers": 8842,
      "Ġpositive": 8843,
      "Ġuniform": 8844,
      "Ġprecautions": 8845,
      "ĠObviously": 8846,
      "ĠPresently": 8847,
      "Ġbetrayed": 8848,
      "Ġoblige": 8849,
      "eyebrows": 8850,
      "Ġcommission": 8851,
      "Ġsupposition": 8852,
      "Ġslamming": 8853,
      "Ġreflection": 8854,
      "Ġfreedom": 8855,
      "Ġgripsack": 8856,
      "Ġsummoned": 8857,
      "Ġfortunate": 8858,
      "Ġcelebrated": 8859,
      "Ġdeclares": 8860,
      "Ġquarrelled": 8861,
      "Ġepisodes": 8862,
      "Faith": 8863,
      "Precisely": 8864,
      "Perfectly": 8865,
      "TENTA": 8866,
      "aurant": 8867,
      "aunty": 8868,
      "eenth": 8869,
      "iograp": 8870,
      "laugh": 8871,
      "senal": 8872,
      "information": 8873,
      "Ġwiry": 8874,
      "Ġsorely": 8875,
      "Ġmisfortune": 8876,
      "Ġcotton": 8877,
      "Ġfidget": 8878,
      "Ġfunds": 8879,
      "Ġtoilet": 8880,
      "original": 8881,
      "Ġnonsense": 8882,
      "Ġechoed": 8883,
      "Ġeccentric": 8884,
      "ĠHOLMES": 8885,
      "Ġasperity": 8886,
      "ĠMarket": 8887,
      "Ġanecd": 8888,
      "amberwell": 8889,
      "ĠBeyond": 8890,
      "redulity": 8891,
      "established": 8892,
      "Ġnephew": 8893,
      "Ġcongratulate": 8894,
      "ĠConsider": 8895,
      "ĠClayton": 8896,
      "ĠChairman": 8897,
      "Ġvulture": 8898,
      "ĠTuesday": 8899,
      "ĠEliz": 8900,
      "Ġarranging": 8901,
      "Ġimprobable": 8902,
      "Ġimprudent": 8903,
      "Ġscaffold": 8904,
      "Ġdisloyal": 8905,
      "debris": 8906,
      "Ġactivity": 8907,
      "Ġaccustomed": 8908,
      "Ġsignificance": 8909,
      "ĠWestminster": 8910,
      "Ġpuzzles": 8911,
      "Ġtremendous": 8912,
      "Ġpostscript": 8913,
      "Ġvehemence": 8914,
      "Ġmischievous": 8915,
      "Ġvolunteer": 8916,
      "Ġnoiselessly": 8917,
      "'?âĢĿ": 8918,
      "'--'": 8919,
      ").": 8920,
      ".--": 8921,
      "00": 8922,
      "17": 8923,
      "42": 8924,
      "50": 8925,
      "64": 8926,
      "?--": 8927,
      "AC": 8928,
      "Al": 8929,
      "Ar": 8930,
      "App": 8931,
      "Aldgate": 8932,
      "Ben": 8933,
      "Baden": 8934,
      "Bruce": 8935,
      "Co": 8936,
      "Col": 8937,
      "Cadogan": 8938,
      "Californ": 8939,
      "Croydon": 8940,
      "Colonel": 8941,
      "Caulfield": 8942,
      "Curious": 8943,
      "Contin": 8944,
      "Capital": 8945,
      "Day": 8946,
      "Dev": 8947,
      "DEAR": 8948,
      "En": 8949,
      "Edu": 8950,
      "Eccles": 8951,
      "Easy": 8952,
      "Five": 8953,
      "Foul": 8954,
      "Folk": 8955,
      "Foot": 8956,
      "First": 8957,
      "Fairbairn": 8958,
      "GE": 8959,
      "GL": 8960,
      "Gl": 8961,
      "Get": 8962,
      "Gorgiano": 8963,
      "German": 8964,
      "Government": 8965,
      "Half": 8966,
      "Harg": 8967,
      "IG": 8968,
      "IR": 8969,
      "IT": 8970,
      "Im": 8971,
      "Jim": 8972,
      "LE": 8973,
      "LO": 8974,
      "Life": 8975,
      "LST": 8976,
      "Ma": 8977,
      "Mor": 8978,
      "Might": 8979,
      "Mont": 8980,
      "Metropolitan": 8981,
      "Nam": 8982,
      "New": 8983,
      "Next": 8984,
      "North": 8985,
      "OF": 8986,
      "Old": 8987,
      "Occ": 8988,
      "Off": 8989,
      "Oberstein": 8990,
      "October": 8991,
      "Po": 8992,
      "Pinto": 8993,
      "Porlock": 8994,
      "Poor": 8995,
      "Phil": 8996,
      "Prove": 8997,
      "RED": 8998,
      "Sh": 8999,
      "Spe": 9000,
      "Sum": 9001,
      "Sple": 9002,
      "Six": 9003,
      "South": 9004,
      "Sarah": 9005,
      "Sorry": 9006,
      "Suddenly": 9007,
      "Tiger": 9008,
      "Twice": 9009,
      "Vell": 9010,
      "War": 9011,
      "Yet": 9012,
      "York": 9013,
      "Zamb": 9014,
      "]:": 9015,
      "ae": 9016,
      "aver": 9017,
      "aide": 9018,
      "ault": 9019,
      "aired": 9020,
      "austere": 9021,
      "bon": 9022,
      "bat": 9023,
      "bould": 9024,
      "bust": 9025,
      "bled": 9026,
      "bull": 9027,
      "bably": 9028,
      "bital": 9029,
      "bones": 9030,
      "bilities": 9031,
      "brilliant": 9032,
      "breath": 9033,
      "cut": 9034,
      "cet": 9035,
      "cand": 9036,
      "cus": 9037,
      "cade": 9038,
      "coun": 9039,
      "cru": 9040,
      "cord": 9041,
      "cised": 9042,
      "cals": 9043,
      "cuff": 9044,
      "couple": 9045,
      "cision": 9046,
      "certificate": 9047,
      "coffin": 9048,
      "dy": 9049,
      "dim": 9050,
      "dut": 9051,
      "dour": 9052,
      "dry": 9053,
      "date": 9054,
      "dew": 9055,
      "dear": 9056,
      "dull": 9057,
      "dign": 9058,
      "drew": 9059,
      "double": 9060,
      "dread": 9061,
      "dale": 9062,
      "dying": 9063,
      "dinner": 9064,
      "dreadful": 9065,
      "dressed": 9066,
      "disease": 9067,
      "dressing": 9068,
      "daughter": 9069,
      "drove": 9070,
      "eve": 9071,
      "eep": 9072,
      "ement": 9073,
      "eman": 9074,
      "each": 9075,
      "eople": 9076,
      "empt": 9077,
      "eague": 9078,
      "ealous": 9079,
      "eavoured": 9080,
      "fed": 9081,
      "fet": 9082,
      "fight": 9083,
      "fil": 9084,
      "fate": 9085,
      "fare": 9086,
      "father": 9087,
      "fling": 9088,
      "fog": 9089,
      "fitting": 9090,
      "farm": 9091,
      "farther": 9092,
      "fantastic": 9093,
      "fortune": 9094,
      "fortunately": 9095,
      "gs": 9096,
      "gly": 9097,
      "gthe": 9098,
      "gone": 9099,
      "gant": 9100,
      "gage": 9101,
      "gger": 9102,
      "gained": 9103,
      "grave": 9104,
      "girt": 9105,
      "given": 9106,
      "gencies": 9107,
      "gina": 9108,
      "genial": 9109,
      "hou": 9110,
      "hon": 9111,
      "hol": 9112,
      "hide": 9113,
      "high": 9114,
      "hotel": 9115,
      "hounds": 9116,
      "hidden": 9117,
      "ipe": 9118,
      "iation": 9119,
      "iate": 9120,
      "iers": 9121,
      "ipl": 9122,
      "iary": 9123,
      "iery": 9124,
      "ients": 9125,
      "iuse": 9126,
      "iors": 9127,
      "iences": 9128,
      "jac": 9129,
      "joke": 9130,
      "journey": 9131,
      "ksome": 9132,
      "kins": 9133,
      "len": 9134,
      "lic": 9135,
      "lest": 9136,
      "lap": 9137,
      "live": 9138,
      "list": 9139,
      "link": 9140,
      "lers": 9141,
      "latter": 9142,
      "lated": 9143,
      "lord": 9144,
      "lined": 9145,
      "later": 9146,
      "liness": 9147,
      "lower": 9148,
      "lamp": 9149,
      "lowly": 9150,
      "lonely": 9151,
      "lky": 9152,
      "laughter": 9153,
      "lamps": 9154,
      "lodger": 9155,
      "mm": 9156,
      "mad": 9157,
      "mach": 9158,
      "match": 9159,
      "mbl": 9160,
      "maker": 9161,
      "maybe": 9162,
      "matic": 9163,
      "motion": 9164,
      "mises": 9165,
      "mples": 9166,
      "mottled": 9167,
      "nam": 9168,
      "nine": 9169,
      "nel": 9170,
      "narr": 9171,
      "nacle": 9172,
      "oo": 9173,
      "oid": 9174,
      "opp": 9175,
      "oci": 9176,
      "ooth": 9177,
      "oors": 9178,
      "ooking": 9179,
      "pir": 9180,
      "pal": 9181,
      "pri": 9182,
      "ppe": 9183,
      "pers": 9184,
      "pare": 9185,
      "pull": 9186,
      "phy": 9187,
      "paced": 9188,
      "pier": 9189,
      "pides": 9190,
      "picture": 9191,
      "pounds": 9192,
      "paused": 9193,
      "pulous": 9194,
      "pulation": 9195,
      "porations": 9196,
      "privile": 9197,
      "ras": 9198,
      "rich": 9199,
      "rong": 9200,
      "rare": 9201,
[...]
